t h 16443975
i n 11625548
a n 11034173
th e</w> 9734348
क े</w> 9598476
् र 8565057
e r 8529287
r e 7640104
म े 7516730
न े</w> 7164149
e n 6891134
a r 6798854
t i 6704725
o n 6467289
मे ं</w> 6364942
e d</w> 5996014
ा र 5995493
ह ै 5837620
o f</w> 5546230
क ी</w> 5414424
ो ं</w> 5053857
an d</w> 5039190
ि य 4942016
s t 4849436
o r 4776379
o u 4684815
h a 4662472
र ् 4610858
e r</w> 4557765
स ् 4516345
i n</w> 4370150
o n</w> 4339958
स े</w> 4333028
t o</w> 4328855
in g</w> 4217729
a l 4149560
औ र</w> 4106855
a t 4072394
i t 3969751
i s</w> 3757243
क ् 3730634
क ो</w> 3558756
प ्र 3523140
e s 3350249
क ा</w> 3336987
i l 3326654
r o 3264071
d i 3252752
् य 3103338
क र 3055931
व ि 3035756
i c 2985288
व ा 2965210
e s</w> 2908934
र ा 2782627
o r</w> 2726731
T h 2714662
a l</w> 2690344
क ा 2641370
ल ि 2639218
म ा 2622662
e l 2610306
a s 2580540
त ा</w> 2513494
a c 2498424
e c 2483735
है ।</w> 2436504
a t</w> 2381990
a ti 2330880
स ा 2299590
o m 2290259
क ि</w> 2285414
a n</w> 2269175
i s 2240054
न ् 2219142
ल ा 2188497
िय ा</w> 2127746
प र</w> 2126868
न ा</w> 2126224
a s</w> 2112970
o l 2066954
ज ा 2043996
ह ो 2003777
e n</w> 1994621
u r 1988826
द े 1943768
ह ा 1942913
य ा</w> 1926448
en t</w> 1926422
i d 1916848
a d 1895773
ह ै</w> 1895672
ब ा 1890899
त ् 1871154
a m 1854492
Th e</w> 1853503
न ि 1839638
त ा 1833311
स ं 1806879
v e</w> 1793962
न ा 1777783
भ ी</w> 1697802
e m 1687869
क र</w> 1684118
p l 1675953
f or</w> 1658705
r i 1653299
क ि 1601352
re s 1564671
u n 1564158
en t 1559962
लि ए</w> 1537803
ह ी 1519640
I n 1512768
v er 1509292
ल े</w> 1498162
ह ु 1494860
u s 1468180
त ्र 1457351
म ि 1447723
w h 1437811
क् ष 1423912
ल ् 1422425
i st 1416672
है ं 1414294
a g 1405684
b e 1396588
प ा 1392329
त े</w> 1389221
क ार 1357928
र ि 1353951
h i 1351344
ए क</w> 1349352
र ह 1344267
द ् 1332104
म ु 1324063
th at</w> 1291402
l e 1284941
े ं 1283415
ि त</w> 1282195
a b 1278291
n o 1271471
ग ा 1266951
य ा 1264937
o s 1243301
p ro 1241990
l i 1241107
ही ं</w> 1222450
ड ़ 1219001
s a 1217900
i r 1198067
a k 1192348
ल े 1168378
इ स</w> 1167669
c on 1157393
द ि 1145566
e d 1140179
2 0 1139191
ज ि 1130561
In di 1130409
e t 1120423
न ी</w> 1114088
th e 1108054
ha s</w> 1101728
w it 1090526
न हीं</w> 1088351
त ि</w> 1085314
in g 1084752
म ं 1082095
l y</w> 1077471
अ प 1074704
b e</w> 1070942
w as</w> 1053712
स ि 1051001
c h 1047049
ati on</w> 1046793
c om 1040682
er e</w> 1030330
क ो 1029039
u l 1026330
il l</w> 1026090
s .</w> 1024933
wit h</w> 1022787
ar e</w> 1018707
च ा 1018140
भ ार 1018102
ल ी</w> 1009071
r a 1008206
ष ् 1007566
इ स 1003915
ी य</w> 986700
s u 985497
त ि 981420
o w 971173
d e 968295
भ ा 967409
ल ो 964627
क िया</w> 964226
e .</w> 951525
b y</w> 947219
थ ा 941545
w ill</w> 937048
य ह</w> 935987
द ा 933038
ou n 932056
ati on 930342
ह ी</w> 928202
s i 926674
c e</w> 925013
प ु 913609
स म 911553
िय ा 910564
स ी 908482
श ् 903212
a r</w> 898001
ल ा</w> 894666
er s</w> 888573
ha ve</w> 880156
हैं ।</w> 879332
ट ्र 874202
प ू 871507
क ह 870408
्य ा 870298
ह ि 863815
o o 863152
द ी</w> 862965
a p 862298
a y 862201
त ी</w> 862064
श ा 859700
i t</w> 858069
e x 852313
उ न् 848575
a y</w> 844260
ं ग 842530
f f 840673
ध ा 831885
g h 831742
s ,</w> 830325
ro m</w> 826302
कर ने</w> 820845
ti on</w> 816410
मं त्र 815254
स र 814728
य ो 813182
स ु 810629
f rom</w> 809860
s e 806998
िय ों</w> 804806
न े 798043
स ी</w> 789591
अ ध 789173
का र</w> 788429
ार ् 784086
र ो 783529
f or 776197
o p 775716
क े 774803
क ु 774213
m ent</w> 773415
at e</w> 772999
s o</w> 769173
in ist 768103
रा ज 759233
t r 751847
an d 749437
s h 738221
t ed</w> 735490
o d 725130
उ न 724681
t s</w> 719546
t h</w> 715947
े ं</w> 713448
no t</w> 711865
o c 708269
t er 707672
n e 707638
म ् 701847
u m 699524
s p 697784
e ,</w> 691791
कह ा</w> 682314
् य</w> 681042
l e</w> 679991
ti on 679948
ह ो</w> 678767
र ी</w> 678282
i d</w> 677322
i m 672246
a in 670457
न ों</w> 669587
सा थ</w> 669324
र ू 668952
ं ने</w> 655250
क ्र 654009
p er 649051
i r</w> 647784
o ver 645961
थ ा</w> 639316
ब ी 639022
स े 637857
l d</w> 637238
फ ि 633669
है ं</w> 632365
20 1 628948
u c 628411
ou r 627941
म ै 627207
ी ।</w> 626231
p ar 623781
ि क</w> 607091
मंत्र ी</w> 605742
q u 605124
o v 605000
दे श</w> 604083
p e 602496
त र 599718
ग या</w> 597160
th is</w> 595930
ic e</w> 595776
ज ो</w> 591039
al so</w> 590893
be en</w> 589613
p or 589184
त ो</w> 589045
हो ंने</w> 584376
ou r</w> 582076
u d 582054
M inist 579808
th er</w> 579760
l a 577341
भार त</w> 575414
h e</w> 573593
ज ी 571363
t er</w> 567298
e v 565054
उ स 564222
it y</w> 561694
य े</w> 561047
h is</w> 559031
ार ी</w> 558701
re c 558628
w or 556955
प ह 554605
प ी 553980
त ु 553447
m e</w> 551159
o u</w> 550292
व र् 547755
ज ा</w> 546808
ह म 546074
स क 544134
न ु 540690
प ् 538698
ओ ं</w> 536787
s t</w> 531442
है .</w> 526325
म ी 525392
e ar 525282
श ि 524993
च ् 524430
उन् होंने</w> 523948
प र 521798
on e</w> 521386
m e 520544
र ु 519766
म ो 518935
ब ं 518293
st r 515952
in c 513703
u t</w> 512981
ou t</w> 512347
ार ा</w> 511176
' s</w> 507730
है ,</w> 507031
ou ld</w> 506404
sa id</w> 504515
Indi a</w> 502985
y .</w> 501532
े ।</w> 501018
त् र</w> 500714
p ol 499592
h ar 496515
w ere</w> 494762
अप ने</w> 493988
द ा</w> 493376
व ह</w> 492270
y ,</w> 492191
बा द</w> 490788
व े 489772
R a 489683
al l</w> 489306
en d 484538
ख ा 481797
t e 480876
ट ी 477527
t w 475961
i ti 475828
e t</w> 475136
a re 474178
ं ड 472943
over n 469808
श ्र 466057
व ा</w> 465574
H e</w> 464919
u t 464094
ट ी</w> 463479
ार े</w> 463478
ं ग</w> 459580
व ी 459563
त क</w> 456898
र े 454985
च ु 444051
o t 441979
y ou</w> 441143
es t</w> 440507
स् ट 440187
ha d</w> 440140
उ प 438228
an g 437709
0 0</w> 436475
a v 436243
un d 435802
the ir</w> 434684
c as 432229
at ed</w> 431218
स ा</w> 429475
ग ों</w> 429210
न ी 428065
अ नु 427580
त ी 427225
c h</w> 425961
पू र् 424854
ल ी 420307
p res 419591
नि र् 418429
ग ्र 417091
द िया</w> 413970
ब ि 412149
g i 411046
es .</w> 410875
ic h</w> 410505
Minist er</w> 410316
प रि 406666
f i 402940
पु लि 402572
च ि 402286
c oun 399695
a d</w> 397342
ह म</w> 392841
मा म 392168
C h 391941
pl e</w> 391560
ब े 390673
द र् 390412
स् थ 389908
र ी 389696
wh ich</w> 388744
a ,</w> 388206
स ू 388015
पुलि स</w> 384393
हु ए</w> 382850
अध ि 381116
रा ष् 380433
म ौ 380245
द ो 380053
g r 379766
ed .</w> 378023
ढ ़ 377481
लो गों</w> 377171
the y</w> 377075
c i 376866
A n 376034
ज ़ 375501
ब ै 375404
सर कार</w> 373862
or e</w> 373759
re d</w> 373688
m an 373669
श न</w> 373435
al l 373299
द ू 372725
श ु 372104
क हा 371404
ल ों</w> 369494
ब ् 369424
अ ं 368935
wh o</w> 368239
व े</w> 365879
रह े</w> 365557
it s</w> 363765
र ा</w> 359240
प्र ति 358319
e p 356411
स् था 355843
ख ि 355395
on g 353782
कु छ</w> 351933
es ,</w> 351143
h e 351127
s ec 350723
प ि 350185
p os 347449
or d 347088
i g 347042
त र</w> 346918
m ent 346062
त ीय</w> 345290
क ों</w> 344463
ह ें</w> 343251
u p 342462
gh t</w> 342418
A l 342144
रू प</w> 341442
ur e</w> 341436
for m 341043
आ ई 340904
ज ी</w> 340337
em b 339716
को ई</w> 339609
मा न</w> 339479
an t</w> 336678
in d 336665
ट े 336190
ट ् 335756
सि ं 334232
S t 333597
ए स 333432
ग ु 333235
o ff 333088
l o 331942
जा ए 331123
द ु 329536
द् व 329150
क्ष ा</w> 329127
म ा</w> 328951
त े 328382
द् र</w> 328029
कर ते</w> 327055
जि स 326873
उ त् 324506
व ्य 324093
ड ़</w> 323027
" " 322767
sa id 321116
रह ा</w> 320996
ब ना 320695
स् ता 319163
a m</w> 318465
a f 317874
pe o 317644
overn ment</w> 317342
t ak 317155
1 9 316094
ar y</w> 315412
ट ि 312846
ं ,</w> 312581
f ir 312355
दे श 309997
I n</w> 309311
ल ग 309062
v i 308935
द ्र 308320
क्ष े 308310
प ो 308025
om e</w> 307969
u s</w> 307939
रह ी</w> 307668
o ther</w> 307611
en ce</w> 304954
वा ले</w> 304810
गा ।</w> 304508
द्व ारा</w> 303658
य ु 303653
राष् ट्र 303577
ग ि 303519
S ing 303401
उन के</w> 303297
o g 303182
v e 303139
प्र ा 302867
र े</w> 302805
क ी 301975
r a</w> 301858
ल य</w> 300551
e ver 300266
मु ख 300261
n i 299529
धा न 299308
कार ी</w> 298378
ac c 298337
प े 297597
w e</w> 297259
ag e</w> 297073
इस के</w> 296454
क ै 296006
il l 293450
I t</w> 293311
ड ि 292620
s er 291770
) ,</w> 291354
ha t</w> 290954
था ।</w> 290881
ar d 290616
p r 290002
ं च</w> 289884
es s 289407
मै ं</w> 289002
वा र</w> 287889
ें ग 287688
ट र</w> 287243
t u 287071
W e</w> 287024
न िय 286813
Th is</w> 286298
भार तीय</w> 286106
ज े 285981
P r 285670
an ce</w> 285559
पह ले</w> 285358
इ न</w> 285273
es s</w> 285131
प ी</w> 284896
on g</w> 284482
Indi an</w> 283588
a .</w> 283358
क ृ 282908
ग ई</w> 282124
ou s</w> 281471
कहा ,</w> 280618
con t 280410
i al</w> 280082
h i</w> 279318
कि सी</w> 278898
com m 278827
en c 278633
र ख 278232
s c 277573
अप नी</w> 277220
िया ।</w> 276822
e f</w> 275851
f il 275709
ह र</w> 274605
द ौ 274362
c an</w> 274359
t ing</w> 273903
ज ् 273597
as s 273212
m ar 272983
d uc 272643
कि न</w> 272371
ag ain 272188
श े 271708
id ent</w> 271672
th er 271361
मि ल</w> 270020
मा न 270002
क र् 269136
as t</w> 269082
म ह 268398
S h 267738
ation al</w> 265780
्र े 265662
क् त</w> 264989
ab le</w> 264855
हा ं</w> 264299
न् य</w> 264021
B J 262822
res s</w> 262579
य ू 261991
p o 261700
ं ब 261238
रु प 259994
ले किन</w> 259907
pro v 259491
f e 259402
b ut</w> 259342
म ी</w> 259048
स ो 258916
इ ं 258780
च ी 258508
s ti 258506
त था</w> 258121
फि ल् 257382
re g 257037
an y</w> 256054
भ ि 255819
ए व 255175
again st</w> 255012
ड ी 254631
D el 254444
as h 254385
स् ‍ 253691
ग ा</w> 253639
ट ा 253520
हो ने</w> 252304
क् या</w> 252264
v el 251362
t .</w> 251185
स ब 250450
सिं ह</w> 249913
u p</w> 249245
peo ple</w> 249032
एव ं</w> 248073
is h 247862
a u 247691
c l 247571
द ो</w> 247219
आ प 246618
ब ता 246367
s ha 246231
b r 246093
os e</w> 246081
ं ड</w> 245986
g h</w> 245908
चा र</w> 245525
p er</w> 245282
an c 244731
ब हु 244583
al ly</w> 244571
क् ष</w> 244258
ग र</w> 244156
यो ज 243771
स भी</w> 243564
R s</w> 241849
द ी 241776
उन् हें</w> 241692
ब ो 241365
म ू 240991
ol l 240581
यो ग</w> 240511
af ter</w> 240377
राज ्य</w> 240221
hi ef</w> 239953
at t 239409
o w</w> 239273
ज ू 239260
ov er</w> 239191
pol ice</w> 238797
re n 238790
d ec 238244
ब ढ़ 238105
ड़ ी</w> 238087
par t 237786
a i 236845
m is 236815
ज ै 236350
en g 236152
s e</w> 235977
ग ए</w> 235976
a w 235875
य ों</w> 235787
am e</w> 235446
oo d</w> 235188
ar i 235010
कार ्य 234786
ac h 234516
es e</w> 234463
खि ला 233884
u e</w> 233863
ation s</w> 233466
2 0</w> 233262
um b 233212
p re 233190
ab out</w> 232956
c r 232722
न ,</w> 232098
ज ु 232021
बा त</w> 231750
tw o</w> 231676
p h 231490
u b 231035
ar g 230824
अ व 230744
f ac 230590
w ould</w> 230491
ent s</w> 230362
ज ब</w> 229945
बं ध 229725
ह ू 229524
प ा</w> 229331
माम ले</w> 229124
b o 228791
दि ल् 228679
ंग ्रे 228349
फ ् 227494
e y</w> 227174
P ri 227076
tion s</w> 224795
प्र धान 223682
os t</w> 223669
र् ट</w> 223450
o b 222775
- 1 222623
रा न</w> 222093
लो ग</w> 222062
ड ा 221837
k e</w> 221633
in ter 220585
il e</w> 220558
i c</w> 219978
ल गा 219386
दे ख 219188
श्र ी</w> 218956
ur ing</w> 218948
वि श् 218577
ग या 218571
f in 218534
ग ी</w> 218531
मो दी</w> 218334
en ti 218115
ए ।</w> 218098
ad e</w> 218058
तर ह</w> 217516
the m</w> 217406
h el 217398
a in</w> 217190
t ra 217100
w e 217086
प्रधान मंत्री</w> 216898
म ार् 215407
at es</w> 215381
el ec 214921
का म</w> 214276
a il 214236
Sing h</w> 214179
l l</w> 213785
ल िया</w> 213366
A r 213100
द ्य 212863
हैं .</w> 212861
ज न 212847
फ ो 212103
C om 212088
कर ना</w> 211892
ज ो 211793
re e</w> 211762
ti c 211076
t ,</w> 210985
स र</w> 210906
k no 210681
हैं ,</w> 210594
M a 210316
s hi 209973
er ,</w> 209907
त ्य 209824
C ong 208916
ब ु 208752
t or 208738
क ं 208697
ar d</w> 208563
an k 208139
च् छ 208078
प हु 208035
ड़ ा</w> 207691
फ ा 207623
क ें 207112
on s</w> 206969
फिल् म</w> 206962
ग ो 206910
ख ु 206618
शा मिल</w> 206576
जा न 206197
सम य</w> 206165
भ ू 205706
v is 205589
n o</w> 205452
का ंग्रे 205295
m on 204270
ए न 204147
क ई</w> 203461
BJ P</w> 203448
off ic 203228
id e</w> 203217
u l</w> 203084
g overnment</w> 202907
e st 202511
er ed</w> 202093
दा न</w> 201880
ol d</w> 201371
us t</w> 201283
चा हि 200988
fir st</w> 200838
A c 200775
क ॉ 200529
p ec 200270
व ी</w> 200259
el i 200067
N e 199543
ं कि</w> 199216
आ र 199144
्य ू 198617
m at 198502
त ों</w> 198479
प ै 198365
, 0 198168
inc l 197432
d o 197268
उस के</w> 195729
und er</w> 195540
ज् ञ 195492
y our</w> 195416
बहु त</w> 195250
com p 195181
स ह 195125
per s 194900
W h 194768
उ स</w> 194628
दू सर 194587
ज ब 194582
इ न 194366
व र</w> 194211
आ रो 194026
si on</w> 193943
र् थ 193751
मि ल 193652
पा स</w> 193438
दो नों</w> 193250
ए म 193213
कांग्रे स</w> 193179
re t 193173
M od 193063
न ्या 192932
coun tr 192875
i es</w> 192861
in e</w> 192527
m ak 191640
us ed</w> 191582
फि र</w> 191411
क्षे त्र</w> 191382
r ou 191305
ह र 191161
e f 190778
बी च</w> 190744
ne w</w> 190176
ing .</w> 189746
h er</w> 189632
k ing</w> 189534
A m 189346
el l 188505
are n 188486
por t 188438
k ed</w> 188091
च् च 188090
थ े।</w> 187979
r i</w> 187836
प ार् 187754
m inist 187678
ha n</w> 187276
Ra j 186880
al i 186873
1 0 186479
अ न्य</w> 186375
कर ो 185752
जा ता</w> 185515
त ं 185182
t ri 185171
m y</w> 185141
us e</w> 185138
ं च 184678
le g 183899
प र् 183790
tw e 183614
आ प</w> 183468
प ति</w> 183404
th ere</w> 183318
बा र</w> 183299
सक ता</w> 183242
y ear 183150
le ad 183128
भ ा</w> 183064
d ay</w> 182974
द े</w> 182337
incl ud 182235
g o 182157
ं ।</w> 181960
रुप ये</w> 181751
re s</w> 181746
al s</w> 181614
an n 181345
em ent</w> 181096
oun d</w> 181003
b l 180686
r y</w> 180371
ti m 180197
Pri me</w> 180095
b ec 180043
w i 179787
a st 179073
re m 178914
ध ि</w> 178696
d ay 178556
j ec 178415
उन की</w> 178221
Mod i</w> 178149
दिल् ली</w> 178079
न ो 177941
हु ई</w> 177520
कर ता</w> 177283
ड़ े</w> 176925
th an</w> 176801
Cong ress</w> 176251
दौ रान</w> 176193
be ing</w> 176142
जा ने</w> 176135
P ak 175836
p ri 174724
ग ी।</w> 174560
कि ए</w> 174437
हु आ</w> 174318
m in 174295
ध ार 174147
ब ारे</w> 174126
said .</w> 173885
h ,</w> 173731
स् व 173605
an s</w> 173471
ग त</w> 173329
र ,</w> 172971
फ ै 172673
d o</w> 172648
इ ंड 172524
m ore</w> 172480
ख े 172275
चु ना 172102
वि का 171960
e l</w> 171411
me di 171389
सब से</w> 171224
i on</w> 171165
् ‍ 171147
t or</w> 171133
y a</w> 171131
Pak ist 171064
1 0</w> 170746
आ ई</w> 170507
sh ould</w> 170243
o re 169962
सू च 169927
खिला फ</w> 169633
ic k 169574
स द 169005
wh en</w> 168789
p p 167990
उ से</w> 167542
भा ज 167508
P ar 167198
v ic 166931
कर ा 166798
in v 166622
u r</w> 166592
अध ्य 166435
व ै 166421
क म</w> 166346
म हि 166288
दि न</w> 166203
P ol 165927
in to</w> 165707
सक ते</w> 165637
गा ं 165396
ing s</w> 165396
्र ा 165394
en er 165355
ow n</w> 165307
घ ा 164905
es h</w> 164865
थ ी।</w> 164842
र ू</w> 164269
di s 164076
स्ता न</w> 163989
घ ट 163341
th em 163278
पा कि 163139
अध िक</w> 162963
स भा</w> 162959
व न</w> 162863
st ar 162809
el y</w> 162808
र ों</w> 162590
ल ै 162081
चा ह 161828
An d</w> 161580
st at 161566
सा म 161547
oo k</w> 161518
m ade</w> 160967
तु म</w> 160570
er .</w> 160511
20 0 160385
ent .</w> 160180
स् प 160051
वा ली</w> 159950
र क्षा</w> 159661
ज ारी</w> 159613
on .</w> 159512
k s</w> 159305
मु झ 158948
िय े</w> 158755
ac e</w> 158690
ज न</w> 158435
m an</w> 158396
श ी 158292
b u 158106
f l 158077
पूर् व</w> 157558
ad d 157456
ल न</w> 157119
नि क</w> 157049
re as 156888
स मा 156728
P res 156543
स् ट</w> 156508
su ch</w> 156446
उ न</w> 156349
ज्ञ ा 156277
i l</w> 156128
बता या</w> 156121
s el 155830
प ं 155689
ed ,</w> 155642
विका स</w> 155592
d .</w> 155427
ड े 154916
मे ं 154897
स र् 154863
s it 154847
w hat</w> 154661
i f</w> 154580
cas e</w> 154239
st ate</w> 154231
is su 154189
ले कर</w> 154091
t y</w> 153995
ti me</w> 153502
ता ओं</w> 152964
U ni 152773
our t</w> 152256
es ti 152152
u st 152151
य र</w> 151834
िय ो 151831
थ ी</w> 151201
गया ।</w> 151149
शु रू</w> 151142
म हा 150983
M o 150775
प्र देश</w> 150555
c ha 150281
at ing</w> 149929
ac k</w> 149817
B ut</w> 149747
कं प 149516
Del hi</w> 149351
स् वा 149257
ी ,</w> 149203
भा ग</w> 149161
hi m</w> 148957
com pl 148916
त्र ों</w> 148701
ए ं</w> 148698
on ly</w> 148647
d uring</w> 148457
प् त</w> 148368
ं क</w> 147962
ver y</w> 147953
th ese</w> 147764
str ic 147730
सम ् 147717
v er</w> 147153
S ha 146981
ent r 146958
ब र</w> 146778
फ ी</w> 146573
मुझ े</w> 146483
C hief</w> 146429
राष्ट्र ीय</w> 146335
a th 146333
s ch 146220
at h</w> 146176
por t</w> 146152
il d 146081
स्थ ि 146079
Th ey</w> 145909
भाज पा</w> 145714
m o 145657
ौ र</w> 145569
धा न</w> 145406
at er</w> 145403
,0 00</w> 145063
v es</w> 145056
be twe 144925
छ ा 144876
S ec 144625
e i 144362
M an 144265
आ ज</w> 144203
li ke</w> 144162
तु म् 144127
betwe en</w> 144126
हा ला 144026
ण ा 143822
ग्र ा 143556
c ap 143477
जा ंच</w> 143158
पूर् ण</w> 143081
ध ी</w> 143059
th ose</w> 142997
दा र</w> 142780
क िया।</w> 142663
टी म</w> 142600
दे ने</w> 142423
ार ों</w> 142299
फ ़ 142276
w ay 142171
ह त</w> 141841
el l</w> 141821
ट्र े 141583
a j 141191
इस से</w> 141050
स् त 140723
an s 140650
v ed</w> 140270
iti es</w> 140216
ou s 140199
p it 140182
क् ति</w> 140152
v en</w> 140135
छ ो 140056
5 0</w> 139960
g re 139926
am il 139899
Sh ri</w> 139845
ब द 139811
अ च्छ 139755
ac h</w> 139744
मुख ्य 139675
दर् ज</w> 139547
b as 139530
1 2 139472
हम ारे</w> 139413
ing ,</w> 139369
c er 139109
हो ता</w> 138878
ध न</w> 138781
Pr ad 138560
ती न</w> 138516
ना म</w> 138462
c o 138367
श ा</w> 138228
e h 138188
s o 138078
su p 137970
कर ण</w> 137869
य ी</w> 137791
श ो 137501
ऐ सा</w> 137469
ation .</w> 137376
C on 137220
t o 137146
ल ,</w> 137122
sp ec 136934
ख ़ 136932
wh ile</w> 136871
ध ि 136790
ता र</w> 136396
भ ी 136316
चुना व</w> 136215
मंत्र ा 136195
P ro 136162
ए म</w> 135841
भ े 135785
ण ा</w> 135661
ब ी</w> 135640
th rou 135595
re l 135472
उ म् 135383
मा र</w> 135381
म ों</w> 135228
o y 135226
a ir 135216
ए क् 135068
ti ve</w> 134892
an ,</w> 134861
ग े</w> 134836
अ मे 134397
de vel 134319
s oc 134189
थ े</w> 134070
h a</w> 134033
ई ।</w> 133883
e g 133857
त ै 133849
ार ा 133827
s ome</w> 133719
द् ध</w> 133524
E n 133416
वा ई</w> 133352
ग ठ 133348
पार् टी</w> 133197
ट ा</w> 133139
v ing</w> 132673
emb er</w> 132519
क्र ि 132393
u m</w> 132386
्य ा</w> 132365
Th ere</w> 132012
Ne w</w> 131844
इस में</w> 131842
ठ ा 131770
u g 131656
com e</w> 131608
o d</w> 131535
करो ड़</w> 131516
pl ay 131334
य र 131050
अ ब</w> 130971
ever ,</w> 130958
अ भि 130899
ड ॉ 130859
n ed</w> 130815
th en</w> 130717
c an 130598
n ational</w> 130543
कार ण</w> 130171
c re 130016
बै ठ 129862
w om 129768
धा र</w> 129749
Pol ice</w> 129678
फ ी 129638
su b 129581
Al la 129345
पाकि स्तान</w> 129200
f r 129029
in t 128839
b le</w> 128821
न ई</w> 128699
क ू 128624
ar m 128512
द ि</w> 128337
A s 128321
च े 128310
d ra</w> 128165
ow ever,</w> 128135
m il 127850
मुख्य मंत्री</w> 127777
kno w 127741
en d</w> 127601
A d 127487
sa y 127304
f e</w> 127285
द्य ो 127104
ल ॉ 126934
क ता</w> 126751
सा ल</w> 126715
r it 126186
प्रति श 126001
द्र ीय</w> 125935
अमे रि 125889
ड ी</w> 125850
वि शे 125721
वर् ष</w> 125688
sti tu 125507
ul t 125496
Pres ident</w> 125430
m it 125364
न् न</w> 125286
g et</w> 125197
े ,</w> 125078
ति क</w> 124990
tak e</w> 124801
स्था न</w> 124713
ें द्र</w> 124588
पि छ 124526
ं त</w> 124455
p ow 124455
di rec 124448
ब च्च 124376
ec h 124354
D e 124320
j u 123826
द र</w> 123767
di stric 123722
राष्ट्र पति</w> 123609
ha t 123460
p ur 123158
ऐ से</w> 123118
d em 123050
अ ल् 122932
di c 122843
म त</w> 122808
ट न</w> 122550
ro w 122507
th ree</w> 122502
स ै 122460
for e</w> 122439
के ट</w> 122312
N aren 122233
ढ ़</w> 122161
f ic 122153
ने ता</w> 121923
devel op 121652
क् यो 121630
मंत्रा लय</w> 121619
ह में</w> 121514
throu gh</w> 121497
ओ र</w> 121353
राज ्य 121333
str uc 121305
t od 121113
und er 121008
क ,</w> 120800
य हां</w> 120797
स न</w> 120707
on ,</w> 120642
व र 120595
g u 120411
सं बंध 120368
w ay</w> 120253
Naren dra</w> 120202
e - 119968
इ से</w> 119916
l ast</w> 119915
l oc 119844
जै से</w> 119635
िया ं</w> 119619
c ent</w> 119511
र त</w> 119412
द न</w> 119310
ग ी 119259
न िया</w> 119225
st ud 118912
ट े</w> 118889
इ स् 118550
d s</w> 118170
न ू 118122
f amil 118083
c ur 117970
ल त</w> 117953
क ल</w> 117928
प्र े 117829
me et 117763
क्ष ण</w> 117745
pro duc 117734
man y</w> 117564
hi m 117483
is t</w> 117457
f ul 117155
य क</w> 117113
घ ो 116802
प्र ो 116793
K um 116688
क् ‍ 116494
B i 116406
c ri 116393
आ ं 116349
ह न</w> 116245
बं ध</w> 116182
G and 115952
च ित</w> 115892
p on 115864
e p</w> 115855
क्र म</w> 115751
re st 115430
an i 115306
जब कि</w> 115036
E x 114907
सं ख 114574
e ff 114438
ए स</w> 114433
G overnment</w> 114421
ला ह</w> 114410
द ों</w> 114316
pro c 114305
di ff 114289
j o 114253
al ,</w> 114075
or y</w> 114052
n umb 113985
ज वा 113967
ac k 113919
D i 113913
is e</w> 113865
b eli 113835
क ़ 113656
M ar 113624
निर् मा 113426
अ भी</w> 113384
f er 112817
ए ,</w> 112772
fil m</w> 112589
con s 112469
प्रतिश त</w> 112461
an t 112460
o f 112455
C ha 112361
हा र</w> 112253
shi p</w> 112022
व्य व 112012
St ate</w> 111953
प्र भा 111817
tak en</w> 111778
n ing</w> 111763
in form 111412
देश ों</w> 111314
) .</w> 111296
ch ang 111247
a use</w> 111231
wi th 111215
मु ख</w> 111156
s y 111126
श् ‍ 111092
ह े 111067
न् ‍ 111026
्या दा</w> 110999
H ar 110977
wor k</w> 110965
d es 110908
R e 110817
हा ल</w> 110809
y ou 110730
u k 110586
ध ्य 110567
ol og 110556
ला ख</w> 110510
से ना</w> 110345
कर ेंग 110279
1 . 110127
व ्या 109938
. . 109908
an a</w> 109895
अ ग 109751
अ गर</w> 109603
म द 109594
s ed</w> 109538
h er 109514
अ ला 109460
व ज 109455
m ost</w> 109436
च ा</w> 109420
id e 109057
ation ,</w> 108780
उम् मी 108548
os pit 108430
वा ला</w> 108200
लो क 108128
न ौ 108117
ल ं 108077
प्र ति</w> 108044
जा र</w> 107900
S har 107832
कर े 107627
an k</w> 107614
w ar 107502
हम ने</w> 107449
क ी।</w> 107382
al .</w> 107306
u str 107273
re ad 107237
ब ॉ 106834
जिस में</w> 106788
क्यो ंकि</w> 106775
मि त</w> 106746
वि ध 106720
प त् 106671
l ed</w> 106636
h and 106542
it ed</w> 106507
di d 106462
o t</w> 106409
ज र</w> 106317
ब ल् 106316
U n 106248
स्थ ित</w> 106178
आ व 106143
का फी</w> 106136
फ े 105873
पु र</w> 105719
अप ना</w> 105529
c or 105515
T r 105463
en s 105449
अध्य क्ष</w> 105412
त ियों</w> 105356
ष् ट</w> 105237
am m 104999
reg ist 104999
सम झ 104990
गि र 104967
मौ जू 104812
wh ere</w> 104809
मौ त</w> 104720
पिछ ले</w> 104602
v ari 104532
s ur 104485
ार ि 104341
अ ल 103993
et s</w> 103873
par t</w> 103830
Pakist an</w> 103807
sha ll</w> 103744
th ing</w> 103479
त् व</w> 103125
at a</w> 103119
ati ve</w> 103066
tion .</w> 103022
िय ो</w> 102993
सा र</w> 102981
ब ल</w> 102873
l ak 102551
3 0</w> 102439
प्र मुख</w> 102283
सा न</w> 102139
n ec 102038
ग ् 101976
उस की</w> 101967
त ौर</w> 101820
थ ी 101797
दूसर े</w> 101786
N ational</w> 101727
पो र्ट</w> 101665
A s</w> 101583
व ल</w> 101513
M e 101470
m a</w> 101362
तुम् ह 101284
ic al</w> 101189
बढ़ ा 101189
m ov 101182
ब ्र 101166
लि ख 101080
त ो 100984
वि त् 100902
स् त</w> 100882
a i</w> 100629
li c</w> 100608
र् ड</w> 100536
श र् 100441
अधि कार 100391
cr ore</w> 100384
ti v 100208
it .</w> 100047
प्र दर् 99982
countr y</w> 99974
त् व 99913
ता न</w> 99911
mak e</w> 99859
m ay</w> 99758
सा ं 99745
ए फ 99736
hi gh 99712
or g 99550
overn ment 99490
हि स् 99456
सा इ 99377
सद स् 99289
c am 99278
बे ह 99252
न्या या 99143
य न</w> 99142
र् स</w> 99125
ज रू 99082
ha pp 99046
वा द</w> 99029
Uni on</w> 99025
ur al</w> 98972
पर ी 98893
घट ना</w> 98867
कु मार</w> 98764
फै स 98701
उप ल 98557
oll ow 98502
आ गे</w> 98494
स चि 98466
di d</w> 98314
ता ल</w> 98167
d ,</w> 98135
सु रक्षा</w> 98062
P un 98048
त्र ा</w> 98041
च ौ 98034
sh e</w> 98032
स् वी 97907
वा स</w> 97868
be fore</w> 97859
p ub 97843
जान कारी</w> 97833
en i 97745
फो न</w> 97642
न र 97611
1 2</w> 97331
l in 97263
-1 9</w> 97138
पू री</w> 97111
यो ग 97107
स्थि ति</w> 97013
योज ना</w> 96799
, "</w> 96722
b i 96697
उपल ब् 96686
1 5</w> 96652
includ ing</w> 96587
said ,</w> 96548
per i 96544
in d</w> 96541
c al</w> 96498
च ल</w> 96464
हो ंग 96304
er s.</w> 96227
त हत</w> 96072
Minist ry</w> 95944
यु क्त</w> 95798
vi e 95491
को र्ट</w> 95427
न ल</w> 95421
कार ् 95402
par ti 95320
व ो 95283
e ar</w> 95271
is ed</w> 95052
id ed</w> 95028
te st 94965
मुख ्य</w> 94835
फ ्र 94710
श ी</w> 94570
पहु ंच 94567
B o 94442
c ould</w> 94400
ro s 94234
K ar 94129
a ff 94081
हि ं 94076
si g 93863
ट् र</w> 93752
य ल</w> 93636
व ृ 93585
st e 93574
on d</w> 93566
ल ु 93559
c hief</w> 93511
res pon 93474
. "</w> 93473
1 5 93304
Del hi 93287
al th</w> 93263
H owever,</w> 93227
अ र् 93163
इस का</w> 93100
e as 93096
A f 93031
esti g 93014
ज े</w> 92993
ट ों</w> 92896
बैठ क</w> 92837
बै ंक</w> 92702
गां धी</w> 92682
r e</w> 92674
ard s</w> 92647
ha r</w> 92582
1 8 92580
अ स्प 92517
बना ने</w> 92502
हो ती</w> 92449
G u 92432
ज ़</w> 92385
मे रे</w> 92384
स ,</w> 92275
प ड़ 92252
m i 92217
आ योज 92130
d er</w> 92123
उन का</w> 92100
wor k 92098
inc reas 92083
K ash 92060
y ing</w> 92048
is h</w> 92036
O n</w> 92010
S ab 92006
ट र 91937
श ्य 91876
कार ्य</w> 91781
g l 91716
कु ल</w> 91606
ech n 91601
b il 91595
ज ्यादा</w> 91407
वर् त 91338
कर ी 91261
us h 91240
वि भि 91085
वि धा 91068
मद द</w> 90984
मी र</w> 90898
िया ,</w> 90878
उस ने</w> 90818
ल ने</w> 90807
W or 90761
मा ल</w> 90683
जि न 90658
े .</w> 90587
ड ल</w> 90565
n am 90523
numb er</w> 90489
r u 90474
re qu 90459
f ul</w> 90381
pol ic 90353
नि श् 90352
क् स</w> 90298
g e</w> 90274
क श् 90199
ल र</w> 90102
L o 90083
c ar 90047
t ain 90022
कंप नी</w> 89954
D ev 89916
u al</w> 89853
प्र दान</w> 89741
घो ष 89705
हो गा।</w> 89640
c all 89565
स् था</w> 89423
इ ला 89317
ver s 89281
अला वा</w> 89171
re le 89111
मे ं,</w> 89049
se t</w> 88951
म ार 88857
म त 88781
gi ven</w> 88721
Y ou</w> 88671
th is 88648
i k 88482
di sc 88410
or s</w> 88396
म न</w> 88394
s ol 88386
च ार 88340
Kash m 88303
स द</w> 88273
cont in 88267
C entr 88228
po in 88210
F or 88174
ent ,</w> 88115
संख ्या</w> 87985
bo th</w> 87937
end ed</w> 87906
ev er</w> 87865
h ear 87836
1 4 87816
k ill 87638
सूच ना</w> 87583
प्रा प्त</w> 87488
p s</w> 87476
कें द्रीय</w> 87162
वा ल</w> 86998
f t</w> 86941
आ तं 86899
का नू 86804
म ृ 86796
भा ष 86704
ar ,</w> 86663
घ र</w> 86635
अधि कारी</w> 86597
Indi a.</w> 86563
अल् लाह</w> 86431
द िया।</w> 86393
f a 86352
उ द् 86343
श ल</w> 86309
r is 86274
ल िये</w> 86219
acc used</w> 86158
d et 86053
वि त</w> 85995
i p 85948
W hat</w> 85884
on om 85882
ex am 85822
b en 85767
a h 85709
ज हां</w> 85687
ig n</w> 85664
ट ो 85606
था ,</w> 85530
K ap 85523
ं स</w> 85453
pol iti 85435
g ood</w> 85367
न ए</w> 85332
ग ं 85325
k e 85319
ex t</w> 85284
P M</w> 85218
भा व 85205
खा न</w> 85084
way s</w> 85074
त म</w> 85060
ष् ठ</w> 85026
ड िया</w> 85018
t em 84980
दि खा 84937
M umb 84917
ou t 84887
स फ 84862
o ,</w> 84803
ज ग 84729
ev en</w> 84666
a b</w> 84634
जी त</w> 84628
गिर फ् 84573
ु दा</w> 84553
ड ् 84547
l l 84544
o m</w> 84479
सा मा 84394
h ospit 84388
त ,</w> 84286
ल ड़ 84196
t t 84191
पह ली</w> 84121
महि ला</w> 83871
य दि</w> 83801
c le 83772
ou ght</w> 83691
R es 83689
inv estig 83629
it e</w> 83536
दु निया</w> 83521
re por 83495
म क</w> 83457
re .</w> 83428
pl oy 83364
ज ल् 83344
वे श</w> 83336
ar rest 83311
er s,</w> 83284
diff er 83155
त ु</w> 83150
रा त</w> 83073
Alla h</w> 83007
चाहि ए।</w> 82974
न ीय</w> 82944
Ch in 82944
भ र</w> 82937
साम ने</w> 82892
इंड िया</w> 82889
d on 82817
निर्मा ण</w> 82806
उत् पा 82685
िय न</w> 82651
न ही 82605
w ell</w> 82591
I C 82477
an ts</w> 82436
द ारी</w> 82432
अ भ 82399
n at 82338
ग ै 82314
कार्य क्रम</w> 82304
form er</w> 82277
l arg 82251
am ong</w> 82207
है ?</w> 82187
ne ed</w> 82095
la un 82048
ण ी</w> 82035
ह ित</w> 81990
oun c 81986
ें ।</w> 81984
जा ना</w> 81978
विशे ष</w> 81944
ch arg 81921
t al 81905
sp e 81783
ब ड़ी</w> 81775
प ता</w> 81730
en s</w> 81681
ध ्या 81679
f ollow 81465
y ear</w> 81408
cur ren 81285
1 3 81227
minist er</w> 81164
ch ild 81163
hel d</w> 81076
d own</w> 81021
त ब</w> 80941
सक ती</w> 80927
o h 80924
क्र िया</w> 80907
ख ् 80751
जी वन</w> 80603
प श् 80557
m s</w> 80557
part y</w> 80556
ध ी 80428
t re 80418
ord er</w> 80400
ord ing</w> 80372
v al 80362
या र</w> 80305
m p 80283
च र् 80162
ti ce</w> 80019
mar k 79978
Pun j 79899
im port 79789
रा म 79708
2 5</w> 79644
हाला ंकि</w> 79635
विभि न्न</w> 79593
ए क 79525
an .</w> 79490
rec ei 79467
st and 79454
स्ट े 79451
od y</w> 79431
ना ग 79427
स्वा स्थ 79418
ग ई।</w> 79358
जाए गा।</w> 79308
पू रा</w> 79303
स ब</w> 79280
t ain</w> 79263
j ust</w> 79241
po st 79227
si on 79197
अस्प ताल</w> 79152
ना ओं</w> 79120
ं द</w> 79102
व हीं</w> 78945
Gand hi</w> 78941
regist ered</w> 78882
स हा 78836
ब न 78763
1 6 78729
v ir 78714
ए ल 78644
परि वार</w> 78634
Al l</w> 78618
ं ट</w> 78533
t ly</w> 78528
माम ला</w> 78448
त र् 78378
w s</w> 78365
हो गा</w> 78341
a k</w> 78320
v en 78253
आ ने</w> 78191
से वा</w> 78151
उत् तर</w> 78147
pro jec 78104
2 4</w> 78099
ंग ् 78034
r ic 77923
कें द्र</w> 77910
अल ग</w> 77900
ec onom 77863
H e 77823
G od</w> 77767
आप को</w> 77688
1 1</w> 77595
पं जा 77595
कश् मीर</w> 77555
I f</w> 77486
ut e</w> 77468
प ित</w> 77349
के वल</w> 77306
pl ace</w> 77257
h ow</w> 77227
rele as 77143
pres ent</w> 77100
tion al</w> 77090
e qu 77006
अं तर 76872
मी डिया</w> 76731
व्य क्ति</w> 76674
in ju 76559
इस लिए</w> 76533
2 . 76518
Kum ar</w> 76500
कर ें</w> 76488
g ener 76478
op er 76434
नर ेंद्र</w> 76428
मौ के</w> 76387
kno w</w> 76352
C ourt</w> 76350
p a 76270
g ar 76267
c la 76262
मु ंब 76103
or d</w> 76079
pl ac 76015
इस की</w> 76011
म ,</w> 75988
क्ष ि 75915
तै यार</w> 75829
se ver 75808
Indi a,</w> 75802
p ass 75789
c ourt</w> 75708
p end 75635
b ro 75633
20 20</w> 75597
f ur 75596
य त</w> 75484
ची न</w> 75402
lak h</w> 75395
श्र ी 75386
year s</w> 75381
उ ठा 75364
Ra h 75364
t ur 75299
i gh 75269
आ धार</w> 75192
a ve</w> 75134
I s 75116
पा ल</w> 75111
fi ed</w> 75088
in ce</w> 75046
प्र कार</w> 74973
मै च</w> 74973
1 , 74967
लै ंड</w> 74910
वि भाग</w> 74884
नी ति</w> 74815
या न</w> 74814
ज ल</w> 74809
्या लय</w> 74792
ros s</w> 74751
जे पी</w> 74710
O n 74694
प्र ी 74556
ci al</w> 74484
S he</w> 74435
ap pl 74428
Indi a 74416
स ौ 74401
ड ियो</w> 74370
मि क</w> 74364
क ौ 74362
H is</w> 74338
ज य</w> 74290
स्वास्थ ्य</w> 74164
m emb 74135
य हो 74111
आव श्य 74009
G B</w> 73965
h ol 73853
G od 73824
c our 73820
K han</w> 73775
ur ity</w> 73729
r un 73726
अव सर</w> 73635
हा ँ</w> 73611
क द 73558
S up 73409
इस ी</w> 73378
h .</w> 73376
F or</w> 73371
A b 73317
1 00</w> 73300
बा इ 73288
an i</w> 73269
ंब र</w> 73130
S hi 73119
र ण 73114
re li 73099
go ing</w> 73086
क ल् 73057
ट ल</w> 72995
t ook</w> 72993
.. .</w> 72820
H ind 72775
हम ारी</w> 72665
is ion</w> 72619
ow n 72514
दि ए</w> 72475
ch ed</w> 72475
र ल</w> 72452
प्र या 72432
cas es</w> 72418
a x 72349
a h</w> 72313
ॉ र् 72304
हा सि 72239
g ed</w> 72138
ऑ फ</w> 72131
सं बंध</w> 72114
"" " 72078
ट ू 72060
तर ी 71901
d ue</w> 71845
U S</w> 71800
o k 71782
bec ause</w> 71761
आरो प</w> 71682
d er 71674
क भी</w> 71659
कर ती</w> 71551
pers on 71472
distric t</w> 71469
ए च 71445
al leg 71354
ल ता</w> 71348
ब र 71327
रा हु 71232
Ma har 71219
l y,</w> 71217
tr ans 71209
ख ो 71189
स् तर</w> 71109
ह रा 71090
रे ल 71083
चाहि ए</w> 71032
विश् व</w> 71009
tod ay</w> 70993
oc cas 70933
g overnment 70827
oun d 70797
ियो ज 70748
क्ष ा 70720
र ै 70603
वा लों</w> 70561
अधिकार ियों</w> 70511
ever y</w> 70461
ष् ट 70432
ou th</w> 70328
soc ial</w> 70257
5 0 70255
रो ध</w> 70222
यहो वा</w> 70200
ना थ</w> 70188
न जर</w> 70173
मै ंने</w> 70163
स् कू 70159
गा र</w> 70055
द र 70050
बा त 70010
t en</w> 69962
जा ती</w> 69927
2 1</w> 69829
e br 69813
व ार् 69779
मु द् 69775
c es</w> 69771
ष ण</w> 69767
वि ष 69728
sec ond</w> 69718
स दी</w> 69709
tion ,</w> 69707
ex t 69687
201 9</w> 69649
ot al</w> 69636
v ill 69625
c c 69618
ac t</w> 69617
av ail 69547
ए ल</w> 69540
vari ous</w> 69526
h ere</w> 69506
Sab ha</w> 69453
res ul 69429
th at 69414
स ें 69407
य ता</w> 69400
li fe</w> 69388
no w</w> 69357
बी जेपी</w> 69334
V i 69326
राहु ल</w> 69313
C O 69288
' t</w> 69248
for m</w> 69223
se e</w> 69211
ब ना</w> 69208
meet ing</w> 69194
ऐ सी</w> 69186
pos i 69120
द ृ 69052
hel p</w> 69044
g row 68927
त ार 68892
them .</w> 68838
f arm 68803
सम र्थ 68781
धार ित</w> 68742
1 4</w> 68717
e ach</w> 68631
ज्ञा न</w> 68601
ज ें 68598
पर ियोज 68564
in f 68543
t ure</w> 68537
सचि व</w> 68521
or t</w> 68502
an y 68501
3 0 68491
Com mis 68475
c ol 68448
1 7 68358
uc h</w> 68337
famil y</w> 68302
C B 68294
ज ों</w> 68239
peo pl 68146
र न</w> 68100
ब न</w> 68054
b ack</w> 67968
I P 67961
‘ ‘ 67888
n ext</w> 67869
In ter 67861
s ent</w> 67836
अनु सार</w> 67832
b us 67724
read y</w> 67722
त ना</w> 67695
J eh 67657
वि धान 67576
c ent 67533
ment s</w> 67530
f our</w> 67513
ve st 67494
As s 67452
v ice</w> 67412
can did 67399
su cc 67391
re ,</w> 67385
म ही 67377
S u 67365
id enti 67340
sit u 67331
id es</w> 67296
s ame</w> 67203
it y.</w> 67194
न् द्र</w> 67182
अमेरि का</w> 67144
Kap o 67129
मह ारा 67109
om e 67107
ब ड़ा</w> 67095
हो ते</w> 67080
S o</w> 67013
pres ent 66791
व ों</w> 66698
त्व पूर्ण</w> 66639
i z 66619
मि ले 66604
रि पोर्ट</w> 66553
te am</w> 66552
er ing</w> 66521
Prad esh</w> 66498
व ो</w> 66480
m or 66428
ता कि</w> 66376
t old</w> 66368
न ्यू 66364
u res</w> 66360
th or 66327
वर् ष 66312
lead er</w> 66278
द् ध 66192
w rit 66162
K h 66155
उपलब् ध</w> 66138
wor ld</w> 66105
s ide</w> 66091
सं गठ 66048
मौजू द</w> 66030
शि क्षा</w> 65977
उस का</w> 65975
as s</w> 65945
गिरफ् तार</w> 65939
al a</w> 65913
ल ू 65843
Af ter</w> 65827
R o 65809
द क्षि 65717
नि का 65699
च् च</w> 65610
arrest ed</w> 65610
wor l 65609
ध ारा</w> 65602
Jeh ov 65600
म् म 65490
res pec 65473
नाग रि 65434
M P</w> 65429
प त्र</w> 65391
भू मि 65322
is i 65290
बंध न</w> 65218
coun tri 65212
भ ु 65206
र् फ</w> 65149
कर् म 65135
स मि 65111
I D 65104
bas ed</w> 65075
जि स</w> 65057
ann ounc 64973
j ar 64951
व्यव स्था</w> 64942
qu es 64925
ग े 64906
eni or</w> 64873
Sec ret 64866
g o</w> 64857
p ic 64809
को वि 64801
त्र ी</w> 64781
ab l 64766
में ट</w> 64743
जिस के</w> 64679
च ो 64671
b al</w> 64647
ha l 64643
ac tion</w> 64582
s m 64574
बा हर</w> 64536
inc id 64516
ed uc 64514
स मु 64487
h um 64482
उप योग</w> 64480
क पू 64459
अ न 64445
माम लों</w> 64413
क ट</w> 64400
क म 64367
se at 64314
gi ve</w> 64300
d r 64281
ap pe 64271
प ढ़ 64198
आ र्थ 64196
ं कि 64157
pres ident</w> 64154
सम ू 64147
comm it 64133
त् ‍ 63808
comm un 63784
निश् चित</w> 63779
पा ंच</w> 63772
ex c 63760
जि न् 63753
ar ound</w> 63733
mon th 63717
मा ंग</w> 63668
म ता</w> 63657
लग भ 63656
Rah ul</w> 63618
w ater</w> 63610
ul ar</w> 63603
अ र 63600
क्षे त्रों</w> 63599
बं द</w> 63587
lo w</w> 63553
क्रि केट</w> 63460
पंजा ब</w> 63457
C or 63448
m ust</w> 63445
वि क</w> 63404
Mahar ash 63373
स् ट्रे 63311
r or 63302
ou gh</w> 63254
पर मे 63239
th ers</w> 63217
a z 63144
च े</w> 63113
लगभ ग</w> 63084
गु ज 63051
pers on</w> 63006
शि का 62947
an j 62945
दे ते</w> 62917
ट्र ो 62884
in s</w> 62863
पश् चि 62829
li am 62826
करी ब</w> 62717
पु र 62692
प्रदर् शन</w> 62690
con nec 62624
U tt 62563
call ed</w> 62536
स ित</w> 62400
ह ों</w> 62318
en ,</w> 62299
soc i 62275
मुंब ई</w> 62261
प ार 62239
विधान सभा</w> 62228
उम्मी द 62149
s :</w> 62101
लि क</w> 62099
आतं क 62090
enc y</w> 62041
प्र का 62038
प क्ष 61962
का ब 61841
gr ou 61830
i a</w> 61813
ई ,</w> 61782
अ ति 61769
पा नी</w> 61756
ac coun 61736
em ent 61728
कृ ष 61693
ick et</w> 61627
ig n 61616
ग ृ 61599
स ों</w> 61535
वि द 61525
ay .</w> 61514
ve l</w> 61495
ab il 61474
Wor ld</w> 61468
m er 61442
echn olog 61413
s on</w> 61411
m ed</w> 61369
f ri 61342
ते माल</w> 61315
pow er</w> 61309
le .</w> 61297
4 0</w> 61212
आ र</w> 61184
ac ross</w> 61180
B eng 61161
l it 61148
ध र् 61123
ब यान</w> 61055
offic ial</w> 61052
कै से</w> 61045
भ ो 61036
ap p 60949
offic i 60894
त ्या 60878
क्ष ित</w> 60868
re n</w> 60862
अ दा 60860
जि से</w> 60827
आर्थ िक</w> 60824
h on 60700
ध्या न</w> 60694
c oll 60666
ro l</w> 60660
था .</w> 60643
ख ा</w> 60633
b ody</w> 60626
हु आ 60614
ep t</w> 60597
it h</w> 60499
l ine</w> 60400
et .</w> 60383
are d</w> 60362
कर के</w> 60356
w at 60331
ू त</w> 60324
महि ला 60291
201 8</w> 60276
द् धि</w> 60271
pro t 60217
1 3</w> 60185
inju red</w> 60172
l at 60149
व रि 60072
Ac c 60053
emb ly</w> 60010
प्र त्य 59998
तुम्ह ारे</w> 59997
di st 59986
प न</w> 59947
M us 59891
m aj 59869
ड र</w> 59860
फैस ला</w> 59854
Gu jar 59841
संबंध ित</w> 59821
be g 59790
मह त्वपूर्ण</w> 59762
e e</w> 59730
ri gh 59725
ब ड़े</w> 59696
stud ents</w> 59667
v o 59636
रा म</w> 59593
वज ह</w> 59593
J an 59539
च ै 59503
al ong</w> 59502
ben ef 59496
M ad 59494
it al</w> 59449
9 9 59447
पी एम</w> 59413
do es</w> 59408
Wh en</w> 59388
develop ment</w> 59372
is m</w> 59351
ग ें 59257
v ide 59200
ना ,</w> 59148
re ach 59147
कार ्र 59109
दि व 59102
रा ज</w> 59100
s ing</w> 59090
B har 59059
ले ने</w> 59057
sever al</w> 59028
स के 59000
स ल 58984
ं त्र 58980
म ध 58966
p ur</w> 58962
w ant</w> 58909
सु न 58905
न गर</w> 58893
जि ले</w> 58834
चु के</w> 58820
ai l</w> 58804
6 . 58773
सह योग</w> 58717
महारा ष् 58656
म जब 58647
क् यों</w> 58622
J amm 58597
ha m 58595
st or 58567
1 6</w> 58561
f un 58547
तर फ</w> 58493
se en</w> 58479
c ro 58478
फी सदी</w> 58471
7 0</w> 58451
बा द 58450
ण ् 58447
ल ंब 58436
3 . 58431
राज्य ों</w> 58423
e ther</w> 58416
th in 58357
क ल 58339
वी डियो</w> 58319
स ार 58281
पर े 58275
al e</w> 58212
pub lic</w> 58192
f ore 58181
गा ,</w> 58175
Lo k</w> 58152
S ch 58146
e ve</w> 58133
र ण</w> 58117
दि नों</w> 58110
वा न</w> 58108
टे स्ट</w> 58104
un i 58081
विश् व 58019
न्याया लय</w> 57995
fur ther</w> 57947
p ut</w> 57931
1 8</w> 57921
वि चार</w> 57908
ay ,</w> 57879
ci p 57861
en .</w> 57858
प्र शा 57818
शर् मा</w> 57797
tr a</w> 57775
भार ी</w> 57774
differ ent</w> 57771
ish ed</w> 57763
t ow 57736
हो गी।</w> 57733
di v 57728
क प् 57705
इस् तेमाल</w> 57655
F in 57599
मा ध्य 57582
रह ने</w> 57553
द बा 57507
का ं 57499
पा र</w> 57490
हो ना</w> 57484
ला ने</w> 57450
न व 57438
2 5 57416
al ity</w> 57403
वा यर 57354
w on</w> 57350
en ed</w> 57303
हू ं।</w> 57302
ए .</w> 57271
tor s</w> 57239
li on</w> 57197
star ted</w> 57197
उ ल् 57193
मे री</w> 57151
ec tion</w> 57101
टि ंग</w> 57086
con duc 57083
या ।</w> 57034
P l 56930
घा यल</w> 56892
पू छ 56887
ल क्ष 56818
ain ed</w> 56814
मु ता 56791
compl et 56765
आरो पी</w> 56751
सि र्फ</w> 56737
n ess</w> 56722
ल ना</w> 56712
fi ve</w> 56689
t otal</w> 56664
कार्र वाई</w> 56664
पे श</w> 56658
com ing</w> 56646
oo l</w> 56635
t ter</w> 56628
of f</w> 56623
201 7</w> 56599
BJ P 56583
kill ed</w> 56519
ण ों</w> 56484
उ द्यो 56474
em ploy 56429
न ियों</w> 56393
in iti 56385
Prad es 56383
sel f</w> 56364
सु र 56355
pro gr 56343
hi t</w> 56264
re gi 56226
निय म</w> 56220
R am 56206
आ योग</w> 56199
n t</w> 56155
स्ट ा 56136
ti es</w> 56001
ेंग े।</w> 55922
ment .</w> 55884
in de 55857
उ पा 55775
त क 55766
ग ू</w> 55766
te e</w> 55750
व ु 55734
ti s 55732
का म 55731
ou se</w> 55680
त ृ 55677
भ व</w> 55659
से वा 55656
cons id 55618
स ल</w> 55616
सह ित</w> 55609
हिस् सा</w> 55575
vic es</w> 55558
sup port</w> 55539
गा .</w> 55512
श ं 55495
ri ght</w> 55444
ब्र ि 55383
r ul 55319
Har y 55289
ag es</w> 55228
ला इ 55206
d ri 55179
part ment</w> 55160
व री</w> 55151
पि ता</w> 55132
in n 55126
sh ow 55120
पू रे</w> 55108
wom en</w> 55072
b at 55071
ग र् 55050
19 9 55046
श्‍ वर</w> 55030
जन ता</w> 55006
fil m 54950
जिस से</w> 54934
ध ित</w> 54883
ला ई</w> 54869
b re 54857
pol l 54846
अच्छ ा</w> 54818
गं भी 54806
या त्रा</w> 54782
ल ते</w> 54755
4 . 54754
import ant</w> 54740
e k 54738
en ing</w> 54734
ट् स</w> 54706
हू ं</w> 54698
M L 54672
c ame</w> 54663
us tice</w> 54607
d u 54595
कृष ि</w> 54515
memb ers</w> 54496
श्र े 54486
Sha h</w> 54480
व हां</w> 54417
अ म 54380
ग ए।</w> 54375
त्य ा</w> 54368
की मत</w> 54348
सं युक्त</w> 54284
कार ों</w> 54277
Punj ab</w> 54270
ता ,</w> 54221
रख ा</w> 54218
कृ त</w> 54166
f ound</w> 54147
B h 54141
क् टर</w> 54122
हासि ल</w> 54116
ex pec 54095
Centr al</w> 54073
ख री 54046
ph one</w> 54042
n or 54031
2 2</w> 54027
l and 54003
ne ed 53968
आरो प 53965
s ome 53953
आ देश</w> 53905
बच्च ों</w> 53894
उ च्च</w> 53858
ल् ड</w> 53808
े क</w> 53792
सं स् 53765
ड ो 53764
ec t</w> 53756
देश क</w> 53749
कानू न</w> 53738
आयोज ित</w> 53733
इ न् 53705
er n</w> 53681
N o</w> 53671
लोक सभा</w> 53660
ret ur 53658
U S 53612
E l 53527
say s</w> 53527
1 7</w> 53516
तं त्र</w> 53504
disc us 53487
1 9</w> 53468
कपू र</w> 53399
जा ते</w> 53352
कि सा 53342
G ener 53311
प्र क्रिया</w> 53290
भूमि का</w> 53266
ह ,</w> 53262
gre at</w> 53257
द ी।</w> 53243
Th ese</w> 53220
d oc 53173
बल् कि</w> 53135
b oo 53120
W est</w> 53120
b el 53115
मं दि 53110
sec urity</w> 53094
en si 53087
fe at 53064
परमे श्‍वर</w> 53060
A ustr 52944
ट क</w> 52920
न - 52887
ter ror 52866
समि ति</w> 52860
चाह ते</w> 52851
em p 52846
Jamm u</w> 52843
ak e</w> 52824
avail able</w> 52817
vie w</w> 52814
जरू रत</w> 52801
P at 52793
w ell 52792
दे ता</w> 52773
bec ome</w> 52755
Austr ali 52725
o ther 52720
pr ic 52707
day .</w> 52675
En gl 52642
व ार 52631
चर् चा</w> 52582
ए ंग 52518
सा थ 52506
he av 52489
H ow</w> 52471
समर्थ न</w> 52460
सं र 52438
अ न् 52416
्‍ य 52410
m uch</w> 52363
F r 52344
sch em 52288
शा ह</w> 52274
श हर</w> 52262
बो र्ड</w> 52250
ter .</w> 52249
B ank</w> 52248
ठ ी 52243
को शि 52196
hi gh</w> 52190
सर कारी</w> 52094
B ha 52080
रुप ए</w> 52070
i ,</w> 52069
con cer 51964
ग्रा म</w> 51954
त रि 51952
An d 51951
हर िया 51950
लग ा</w> 51939
स् तु 51931
ent ly</w> 51887
वा प 51855
m od 51845
se e 51828
रह े 51814
प ट 51813
( S 51773
d ing</w> 51756
ए जें 51755
iti z 51749
ar .</w> 51731
ला गू</w> 51722
ज य 51707
as ked</w> 51666
org an 51650
A k 51620
तु म 51594
con stitu 51574
"" "</w> 51508
वित् त</w> 51505
pe ti 51493
l es</w> 51444
ट्र ीय</w> 51442
an other</w> 51424
w ard</w> 51411
ज र् 51378
di tion</w> 51335
ड े</w> 51328
रख ने</w> 51324
वी ं</w> 51318
P e 51294
ti c</w> 51278
fi el 51266
d ra 51259
नी तिक</w> 51218
अदा लत</w> 51218
ला इन</w> 51206
जग ह</w> 51196
जवा ब</w> 51185
Di rec 51182
l ong</w> 51167
कह ना</w> 51163
l oo 51129
l and</w> 51122
ी न</w> 51012
7 . 51005
ार ो 50993
man ag 50975
ं .</w> 50974
parti cip 50924
प द</w> 50906
el op 50882
ार् थ 50855
वरि ष्ठ</w> 50819
i red</w> 50810
th .</w> 50798
or ts</w> 50774
प क</w> 50764
O ff 50755
S er 50741
Kashm ir</w> 50736
5 . 50726
in ess</w> 50725
ste m</w> 50718
बना या</w> 50708
सा झ 50703
ब स</w> 50700
CO V 50696
प्र ौ 50682
ot e</w> 50676
se as 50674
p op 50664
खे ल</w> 50659
contin u 50648
ह री</w> 50634
ra p 50617
0 0 50569
posi tion</w> 50566
pos ed</w> 50520
on d 50513
A t</w> 50493
पह चा 50489
सी मा</w> 50480
स् ट्र 50437
in vest 50431
he ad 50421
ज़ ा 50383
cla im 50358
प द 50351
ज़ ि 50325
मही ने</w> 50323
सम स् 50319
em s</w> 50308
politi cal</w> 50289
al ready</w> 50265
i m</w> 50258
ne ver</w> 50239
सहा यता</w> 50230
th ir 50218
पहु ंच</w> 50196
th ,</w> 50185
t y 50182
ेंग े</w> 50154
वा द 50117
Dev elop 50113
ड ा</w> 50066
दू र</w> 50061
द्यो गि 50046
go t</w> 50003
as h</w> 49971
म ॉ 49969
n al</w> 49945
s k 49932
इं टर 49836
it y,</w> 49805
vi ol 49722
6 0</w> 49644
fe w</w> 49620
5 00</w> 49613
त् मक</w> 49574
pl ay</w> 49565
किसा नों</w> 49535
ll eng 49526
li gh 49502
o ol 49497
श क</w> 49496
Shar ma</w> 49389
आ ए</w> 49383
im pl 49363
सं स्था 49354
chang e</w> 49345
ं द 49289
lead ers</w> 49280
वा य 49275
बेह तर</w> 49263
S am 49247
up on</w> 49243
c el 49233
स त</w> 49230
सी बी 49217
et y</w> 49204
ac tiv 49200
जल् द</w> 49145
T o</w> 49119
ist s</w> 49087
li k 49042
inform ation</w> 49037
प्र णा 49014
l os 49001
t og 48993
घोष णा</w> 48980
फ र 48967
countr y.</w> 48967
ख़ ुदा</w> 48962
Acc ording</w> 48959
0 . 48940
Mo di 48929
श् य</w> 48902
Mumb ai</w> 48852
ें स</w> 48844
tr u 48822
र िय 48815
झ ा 48787
ser i 48765
न र</w> 48743
ड़ ा 48741
दक्षि ण</w> 48724
य ही</w> 48673
लगा या</w> 48672
N or 48654
res t</w> 48601
ब ू 48559
s ince</w> 48532
T ha 48520
प्रौ द्योगि 48491
ic i 48485
मार् ट 48472
Sup re 48432
पै दा</w> 48418
reg ard 48399
de ath</w> 48391
न िया 48389
आ त</w> 48388
ap pro 48372
दूसर ी</w> 48360
Supre me</w> 48343
S a 48325
y s</w> 48278
परी क्षा</w> 48278
ig h</w> 48275
er e 48274
माध्य म</w> 48273
ट ै 48196
m er</w> 48148
रा नी</w> 48106
नि वेश</w> 48070
मार् ग</w> 48070
सदस् य</w> 48044
भा ई</w> 48017
का ल</w> 47998
ला भ</w> 47985
ग ण 47969
minist r 47897
वु ड</w> 47868
र् ष</w> 47867
प क्ष</w> 47865
L i 47835
ं प</w> 47829
बा जार</w> 47815
ें ट</w> 47780
Sing h,</w> 47776
L e 47766
स म</w> 47763
L ord</w> 47744
t s.</w> 47739
pl y</w> 47662
c entr 47644
महाराष् ट्र</w> 47643
प्रया स</w> 47638
आ त् 47631
b est</w> 47621
प्र स्ता 47607
मु काब 47588
l ess</w> 47582
स ड़ 47563
आ य 47547
अमेरि की</w> 47547
ex pres 47540
कह ते</w> 47518
करेंग े।</w> 47511
h ist 47452
ut y</w> 47438
आप के</w> 47408
स ार् 47404
sti t 47380
know n</w> 47380
ज ल 47358
ar ly</w> 47350
l y.</w> 47346
compl ain 47340
pos si 47327
I S 47292
मी टर</w> 47279
child ren</w> 47275
क् ता</w> 47245
भाव ना</w> 47233
उन से</w> 47227
खु द</w> 47227
पी छ 47182
अ क् 47130
ट ,</w> 47116
ारि श</w> 47103
अ प्र 47059
prov ide</w> 47047
िया न</w> 47039
दु र् 47038
S outh</w> 47036
िया .</w> 47017
जा य 47016
s enior</w> 47013
कृ ति</w> 46921
त ने</w> 46918
ren g 46853
ष् य</w> 46847
वि देश</w> 46831
परि णा 46822
occas i 46817
Raj as 46806
क्ष मता</w> 46805
u ary</w> 46798
s )</w> 46793
शु रु 46758
il d</w> 46756
mak ing</w> 46741
Indi as</w> 46731
को रो 46715
श नल</w> 46685
म ारी</w> 46611
ang u 46595
pr is 46553
spec ial</w> 46506
वा स्त 46500
d om 46474
शे यर</w> 46461
On e</w> 46461
with out</w> 46457
in ation</w> 46418
o p</w> 46381
तर् गत</w> 46344
बं गा 46323
n es 46303
th re 46302
्‍ य</w> 46299
d one</w> 46268
sa y</w> 46254
ब ्रा 46211
g lo 46210
कै म 46208
ती सर 46195
ब र् 46164
चु की</w> 46117
fac il 46059
aw ay</w> 46055
ro le</w> 46050
ल ब</w> 46041
8 . 46021
H igh</w> 46001
au gh 45986
pri v 45948
नि ग 45943
in ing</w> 45912
ल ौ 45903
लि त</w> 45896
N C 45893
Ra m</w> 45848
laun ched</w> 45846
he ad</w> 45786
ri bu 45779
द ल</w> 45768
la w 45734
in ed</w> 45718
p ay 45712
कद म</w> 45712
जि ला</w> 45680
ष्ट ि</w> 45679
ली ,</w> 45671
पु न 45668
ra m</w> 45655
पर् या 45652
ec ted</w> 45623
गंभी र</w> 45619
M al 45615
मि ली</w> 45583
M on 45565
tak ing</w> 45553
अच्छ ी</w> 45547
it ,</w> 45535
P h 45534
त् ता</w> 45525
announc ed</w> 45503
2 4 45443
शिका यत</w> 45437
day s</w> 45430
t a 45411
vis it</w> 45400
र ह</w> 45387
या द 45382
ल िया।</w> 45327
an ti 45320
उ सी</w> 45297
कोशि श</w> 45296
लि ए,</w> 45295
y w 45287
B ang 45276
ट् वी 45275
प ना</w> 45268
श ै 45191
आ म</w> 45178
spec i 45172
निर् ण 45169
Gener al</w> 45131
repor ted</w> 45130
ther e 45082
को ह 45078
म े</w> 45065
medi a</w> 45064
reach ed</w> 45038
g et 45031
1 ,</w> 45010
st reng 44999
him .</w> 44991
ठी क</w> 44937
he alth</w> 44907
हम ले</w> 44900
g ir 44880
s ing 44853
Kapo or</w> 44827
मंदि र</w> 44789
201 9 44773
l ic 44760
pers ons</w> 44728
ति म</w> 44704
tion s.</w> 44649
I I 44645
म न 44632
m en 44632
pr ice</w> 44623
अति रि 44613
dec ision</w> 44587
r ang 44567
en a</w> 44549
न्या य 44533
वि रोध</w> 44530
st s</w> 44519
reli gi 44519
B S 44509
वि द्य 44451
पश्चि म</w> 44449
wor king</w> 44430
सो शल</w> 44427
end ra</w> 44426
C C 44416
H ome</w> 44389
च ना</w> 44383
m ain 44375
to p</w> 44351
O ur</w> 44337
वृ द्धि</w> 44333
offici als</w> 44324
स्ट ि 44264
वर ण</w> 44262
com es</w> 44258
या त</w> 44237
उस से</w> 44204
गुज रात</w> 44185
ली वुड</w> 44128
ध ा</w> 44115
fri end 44105
u tion</w> 44100
ड ्र 44066
वा दी</w> 44058
हरिया णा</w> 44045
ti ll</w> 44040
निय ंत्र 44032
गृ ह</w> 44010
Utt ar</w> 43996
s et 43980
ऊ र् 43966
बि हार</w> 43954
us ing</w> 43948
mat ter</w> 43938
र िया</w> 43920
countri es</w> 43910
ust ri 43909
समू ह</w> 43894
p ra 43879
S on 43874
Ra il 43871
appl ic 43869
d eli 43842
n s</w> 43818
di tional</w> 43794
j ud 43792
अग ले</w> 43749
महिला ओं</w> 43738
भा ग 43727
an cial</w> 43725
ep t 43713
क्र म 43633
ever y 43630
li f 43610
म् मे 43581
ह मे 43557
ul t</w> 43556
ग यी</w> 43537
oll yw 43504
ex p 43496
li m 43489
ंग ा</w> 43488
मं डल</w> 43477
ग ढ़</w> 43465
Par liam 43458
न ै 43455
t e</w> 43438
l ow 43427
p ed</w> 43393
ment ,</w> 43367
श ु</w> 43361
स ही</w> 43358
le d 43358
on t</w> 43327
sti ll</w> 43319
जाए ंग 43303
Y ad 43302
in t</w> 43292
de f 43260
am s</w> 43259
ण ,</w> 43247
लगा तार</w> 43209
di ed</w> 43203
cam er 43203
ट ो</w> 43186
ले बा 43186
ह त्या</w> 43141
ear ch</w> 43105
पह ला</w> 43101
बात ची 43098
S al 43073
la w</w> 43072
प ॉ 43067
o thers</w> 43064
ad v 43042
जि क</w> 43041
द् धा 43003
cas e.</w> 42998
च ं 42990
au thor 42986
n ame</w> 42983
य ी 42980
श ब् 42961
s our 42959
लग ता</w> 42928
बि ना</w> 42884
ए ं 42824
् र</w> 42800
an sp 42783
ak ing</w> 42776
oo per 42774
शि व 42769
विशे ष 42752
हमे शा</w> 42732
ग ौ 42724
ट्वी ट</w> 42716
ult ure</w> 42711
tow ards</w> 42688
स्कू ल</w> 42676
ri b 42647
ग ति</w> 42621
ख ंड</w> 42618
S at 42610
A p 42606
र ं 42604
cha lleng 42591
re f 42572
ग ति 42548
ह जार</w> 42547
फ ा</w> 42538
A ff 42527
जि न</w> 42505
ro l 42494
ं चा 42489
inc ident</w> 42487
D ay</w> 42482
आ धारित</w> 42448
िय म</w> 42392
COV ID 42392
el s</w> 42368
टे ड</w> 42357
व ारों</w> 42353
मं जू 42346
बातची त</w> 42342
उद्यो ग</w> 42338
8 0</w> 42328
राज नीतिक</w> 42262
पत् नी</w> 42258
A si 42236
oc i 42215
K oh 42209
N o 42206
ग ल 42169
z e</w> 42155
हा द 42104
Develop ment</w> 42072
मे रा</w> 42064
रा व 42059
र् जी</w> 42048
m en</w> 42046
mit ted</w> 42039
inter national</w> 42023
sp ir 42015
चा ल 42010
elec tion</w> 42008
respon si 41994
इन में</w> 41986
सु निश्चित</w> 41956
व्य क् 41934
उम्मी द</w> 41926
प्रति नि 41912
issu ed</w> 41872
बल् लेबा 41842
n a</w> 41837
नि देशक</w> 41808
स मान</w> 41801
w ar</w> 41791
ac hi 41785
बना ए</w> 41781
can not</w> 41776
थ े,</w> 41771
वि रा 41762
st ates</w> 41750
दे ना</w> 41745
ज न् 41734
शा ं 41726
व न 41674
हो ,</w> 41672
सम ारो 41661
le ar 41659
री ज</w> 41650
पहचा न</w> 41636
V ir 41594
र सू 41563
comp any</w> 41555
प्र ि 41545
मजब ूत</w> 41538
ad ,</w> 41519
देख ा</w> 41509
vide o</w> 41495
आई सी 41490
बि ज 41442
z ed</w> 41406
b an</w> 41396
or ,</w> 41373
b ir 41367
de ep</w> 41357
र ॉ 41352
l ater</w> 41314
C oun 41304
अव धि</w> 41304
c ust 41262
D ec 41243
मध ्य</w> 41228
e :</w> 41217
l y 41211
ear li 41210
ation s.</w> 41204
लॉ न् 41194
ब चा 41181
d augh 41154
J ustice</w> 41154
विद ्यालय</w> 41153
एक् स 41151
A sh 41128
s . 41102
O c 41101
सार् वज 41090
mov i 41076
maj or</w> 41073
त्र ि 41071
देश ी</w> 41061
echnolog y</w> 41051
T est</w> 41046
अं तिम</w> 41032
r an</w> 41022
तुम् हें</w> 41022
सु धार</w> 41019
पर् य 41009
भ र् 41003
समझ ौ 40999
चि कि 40987
vers ity</w> 40986
अधि कार</w> 40982
are a</w> 40981
ind er</w> 40981
ग्र ी</w> 40929
air s</w> 40927
ब न् 40922
वा ह</w> 40896
D r 40895
स वाल</w> 40874
recei ved</w> 40838
this .</w> 40835
रि ए</w> 40827
h ya</w> 40815
2 , 40809
। "</w> 40807
त ः</w> 40795
on - 40774
T w 40754
ला ल</w> 40749
सं शो 40738
h ic 40718
के न् 40694
जाए गा</w> 40687
ध ु 40686
ha l</w> 40679
rec over 40664
थ ो 40663
ले ख 40634
मा ना</w> 40630
curren tly</w> 40625
ex pl 40615
कोरो ना</w> 40597
त् य</w> 40582
क िया,</w> 40576
ह ा</w> 40565
ना एं</w> 40560
स्था नीय</w> 40556
सु प्री 40554
वर्त मान</w> 40551
fun c 40539
h ome</w> 40531
em ents</w> 40501
issu e</w> 40478
पुर स् 40441
व क</w> 40419
पीछ े</w> 40413
T hat</w> 40410
या द</w> 40393
हैं ?</w> 40384
या चि 40369
ag e.</w> 40366
b ank 40303
su ff 40296
अ फ 40287
p ati 40266
m ed 40265
w a 40264
ब िक</w> 40263
ब ा</w> 40262
ने ताओं</w> 40257
p at 40243
enc e.</w> 40243
चु नौ 40225
ने ट</w> 40222
वि क 40216
न रे 40203
shi p 40202
In d 40191
port un 40191
tre at 40187
bu ild 40183
r ate</w> 40118
सार्वज निक</w> 40109
20 0</w> 40097
कर ने 40096
ला या</w> 40096
ण ि 40091
H im 40084
play ed</w> 40059
le vel</w> 40056
कप् तान</w> 40049
le ad</w> 40043
re port</w> 40042
दे ं</w> 40037
beli ev 40031
डॉ लर</w> 40029
नि शा 40027
di g 40026
am ,</w> 40023
स्ट ो 40023
l i</w> 40015
अप रा 39980
sp ot</w> 39972
2 3</w> 39940
por ts</w> 39905
आ वे 39893
ve hic 39867
ढ ा 39860
निर्ण य</w> 39847
ap prov 39845
to o</w> 39844
ग्र ह</w> 39842
मु ला 39840
म नो 39830
चु का</w> 39828
Pe o 39806
S o,</w> 39786
वि ज्ञान</w> 39776
cl os 39770
t s,</w> 39768
h and</w> 39761
thin k</w> 39752
thir d</w> 39744
राष् ट्र</w> 39715
u n</w> 39683
B ollyw 39676
w al</w> 39669
in es</w> 39668
नि जी</w> 39666
includ e</w> 39666
loc al</w> 39665
प्रभा वित</w> 39665
ब रा 39660
9 . 39652
भ र 39645
situ ation</w> 39637
cel ebr 39630
च न</w> 39624
f ut 39599
घ ं 39588
सि त 39584
त ला 39570
ल ो</w> 39556
2 8</w> 39550
all ow 39550
St at 39529
य ,</w> 39519
संगठ न</w> 39514
रेल वे</w> 39513
Maharash tra</w> 39495
ए फ</w> 39491
er s 39485
mat ch</w> 39451
ति हा 39449
चाह ता</w> 39438
विधा यक</w> 39438
ट्र ा 39431
त स्वी 39404
nat ak 39394
pro f 39344
b er 39337
प्रौद्योगि की</w> 39337
सं घ</w> 39329
follow ing</w> 39328
मू ल् 39308
मे लन</w> 39297
op portun 39289
Kar natak 39286
h o 39285
s al 39284
कार ो 39279
ब ार 39269
उन में</w> 39253
I ts</w> 39235
र हा 39232
ठ ा</w> 39226
ता ।</w> 39221
with in</w> 39199
ub lic</w> 39198
बॉ लीवुड</w> 39173
समारो ह</w> 39082
con struc 39055
कार् ड</w> 39051
पो र् 39047
fil ed</w> 39035
farm ers</w> 39002
हा थ</w> 38998
l ook</w> 38975
य ू</w> 38891
sy stem</w> 38884
( P 38883
डॉ .</w> 38868
पे ट्रो 38867
g g 38864
गां व</w> 38840
y s 38813
भर् ती</w> 38809
छा त्रों</w> 38778
b ur 38745
ब ह 38740
त न</w> 38725
ऊर् जा</w> 38717
at eg 38708
s es 38705
201 6</w> 38703
k ar</w> 38690
R an 38646
फि ल 38639
are as</w> 38631
का उ 38622
त री</w> 38621
या ,</w> 38613
अभ ियान</w> 38602
ने ं</w> 38599
अ र्थ 38596
T e 38594
le t</w> 38592
ए श 38588
विष य</w> 38585
स ियों</w> 38570
अ नि 38565
आ या</w> 38559
मि ला</w> 38559
कृ तिक</w> 38514
Secret ary</w> 38498
peri od</w> 38497
R A 38482
Ma h 38482
ले क् 38477
ध ो 38473
श ि</w> 38473
a v</w> 38473
प्र शि 38467
larg e</w> 38466
प्रणा ली</w> 38438
them ,</w> 38433
in e 38431
Par ty</w> 38418
हो गी</w> 38411
न या</w> 38397
on es</w> 38394
प्रत्य ेक</w> 38392
स मे 38381
टा इ 38377
बंगा ल</w> 38366
le ,</w> 38361
y oun 38347
M y</w> 38338
enc es</w> 38323
फा य 38309
परि वर्त 38271
201 8 38259
Hary ana</w> 38257
जाए गी।</w> 38253
2 6</w> 38249
सं बो 38247
J un 38242
abil ity</w> 38231
वि धान</w> 38224
श री 38219
said :</w> 38210
C ol 38192
y et</w> 38184
econom ic</w> 38166
est abl 38162
म ि</w> 38161
s es</w> 38151
व ें</w> 38141
d el 38120
c ity</w> 38115
चिकि त् 38114
I N 38105
Am it</w> 38089
tim e.</w> 38084
दी प</w> 38074
ser ies</w> 38073
di es</w> 38062
क ह</w> 38053
अप्र ै 38000
20 20 37955
s us 37938
प्र योग</w> 37923
inv ol 37907
व ही</w> 37899
ह ॉ 37888
फा इन 37880
स्था पित</w> 37878
oo d 37870
ग्रा मी 37842
lo t</w> 37839
ं क 37834
ग ई 37814
N av 37814
जिस का</w> 37795
परि ष 37756
st and</w> 37743
De partment</w> 37738
अ मित</w> 37671
विश् वास</w> 37670
सामा जिक</w> 37654
मो ह 37653
( C 37651
W ith</w> 37644
न ्य 37626
201 4</w> 37616
वाप स</w> 37616
be tter</w> 37574
K er 37557
201 7 37555
निर् देश</w> 37524
ul ti 37509
प ृ 37462
थ े.</w> 37457
ल् स</w> 37451
k ,</w> 37450
J es 37448
seat s</w> 37446
al ways</w> 37443
जा न</w> 37440
w in</w> 37435
p i 37431
ne w 37419
सामा न्य</w> 37419
pro bl 37410
कोवि ड 37398
in stitu 37368
Kashm ir 37357
19 8 37353
Tr um 37326
कोह ली</w> 37311
ab in 37305
part n 37281
ं प 37280
ह ् 37274
ब ड़ 37273
ick et 37253
am b 37249
( N 37248
pro g 37238
ते जी</w> 37231
i ght</w> 37230
Com mit 37229
id d 37223
C r 37215
inform ed</w> 37187
3 1</w> 37183
Q u 37182
I m 37171
hospit al</w> 37117
आ ग</w> 37116
grow th</w> 37110
sha red</w> 37105
vill age</w> 37100
च ार् 37095
f ar</w> 37092
g y</w> 37085
incid ent.</w> 37058
K e 37049
परियोज ना</w> 37021
म ति</w> 37004
tim es</w> 37001
s ci 36998
वि केट</w> 36997
Ch and 36967
मू ल</w> 36963
फ ु 36956
थ ी,</w> 36953
id ing</w> 36898
कर् ना 36892
det ail 36887
तक नी 36874
ag re 36865
wi fe</w> 36854
w ent</w> 36851
सी ट</w> 36850
मी न</w> 36846
t le</w> 36844
क िये</w> 36808
ri ed</w> 36786
ch ar 36781
St ates</w> 36774
our s</w> 36762
He alth</w> 36741
this ,</w> 36740
c a 36736
dem and 36723
A h 36705
beli eve</w> 36693
il y</w> 36689
Gujar at</w> 36682
c ul 36658
Chin a</w> 36656
er ic 36645
सी टों</w> 36610
ac tor</w> 36600
ab ad</w> 36598
स् पे 36567
di sp 36566
आ द 36550
CB I</w> 36538
क ला 36508
समा ज</w> 36506
c itiz 36494
अतिरि क्त</w> 36486
h op 36480
j ur 36441
br ought</w> 36426
ने तृ 36403
Commis sion</w> 36354
th ings</w> 36333
il e,</w> 36321
उन् ‍ 36308
क्‍ त</w> 36298
H y 36289
मिल ने</w> 36285
con f 36270
प क 36230
जो र</w> 36212
उम्मीद वार</w> 36212
मुता बिक</w> 36201
चि ं 36180
fac e</w> 36169
f ol 36162
वर् ग</w> 36138
br ing</w> 36135
D ef 36093
( A 36085
स्ट्रे लिया</w> 36053
day ,</w> 36010
us .</w> 35996
J u 35987
2 3 35983
दे ख</w> 35976
m ess 35973
हुआ ।</w> 35961
प्रदर् श 35915
सुप्री म</w> 35908
so on</w> 35895
निय ु 35892
च रण</w> 35887
it ing</w> 35882
होंग े।</w> 35869
साइ ट</w> 35857
ser v 35842
S ar 35825
Ass embly</w> 35825
enc e,</w> 35811
व ॉ 35805
" .</w> 35798
comp an 35791
कोविड -19</w> 35783
ई - 35772
हो ।</w> 35767
बच्च े</w> 35749
no w 35739
k a</w> 35737
करा या</w> 35722
स्प ष्ट</w> 35686
2 7</w> 35675
च र</w> 35671
ड़ ों</w> 35661
ser vices</w> 35641
o - 35636
ब ता</w> 35622
य हाँ</w> 35582
t our 35570
सम ी 35557
re ad</w> 35541
ou l 35536
ख़ ुदा</w> 35515
कि लो 35496
er ship</w> 35469
राष् ‍ 35452
us ,</w> 35447
ank a</w> 35428
qu ar 35427
h y 35409
sec tion</w> 35401
ful l</w> 35401
ad .</w> 35385
ख ू 35370
Inter national</w> 35360
ी ल</w> 35339
ने शनल</w> 35328
e y 35319
ch es</w> 35319
फिल हाल</w> 35313
Un ited</w> 35307
ट ॉ 35292
उत्पा दन</w> 35282
h om 35278
क मी</w> 35276
साम ना</w> 35232
भाष ा</w> 35227
सां सद</w> 35225
en n 35215
म ना 35193
विक सित</w> 35184
देख ते</w> 35183
k ey</w> 35179
G ur 35173
fer ence</w> 35173
id ence</w> 35170
h ous 35165
de ath 35160
र - 35149
हम ारा</w> 35147
vir on 35141
u ,</w> 35109
n ess 35100
ens ure</w> 35095
A n</w> 35094
त नी</w> 35093
elec tions</w> 35084
दि शा</w> 35068
ar ri 35061
जि म्मे 35055
शुरु आत</w> 35040
l angu 35037
in .</w> 35027
आवश्य कता</w> 35024
A fr 35017
si x</w> 35016
के स</w> 35016
ex peri 34958
s h</w> 34952
m et 34922
वायर स</w> 34920
fin ancial</w> 34919
G S 34907
eff ec 34900
उद् दे 34898
h owever,</w> 34891
impl ement 34888
sel f 34869
am .</w> 34858
Am eric 34828
ro ad</w> 34824
इ ल</w> 34816
बद ला 34797
त रा 34791
glo bal</w> 34774
त ू 34764
ने क</w> 34756
am oun 34751
r up 34743
releas ed</w> 34734
u re 34718
mil it 34699
su m 34698
आयोज न</w> 34693
ti fic 34692
ati c</w> 34660
ए यर 34647
ir e</w> 34647
m it</w> 34643
prov ided</w> 34630
क्ष क</w> 34610
Bo th</w> 34591
er al</w> 34575
वे ब 34569
ult ural</w> 34565
दिव स</w> 34558
li ght</w> 34550
कौ न</w> 34525
d own 34512
oc r 34507
know led 34500
Mus li 34488
ए ँ</w> 34472
ar s</w> 34462
m i</w> 34461
o ve</w> 34458
र ो</w> 34455
dec ided</w> 34454
In de 34452
भू मि</w> 34452
आई पी 34435
b ack 34434
बै ं 34433
दा य 34422
ज म् 34420
ag ar</w> 34389
at ely</w> 34380
का त</w> 34379
te ach 34378
it y 34376
sh ow</w> 34376
an ted</w> 34373
रे ल</w> 34371
करेंग े</w> 34371
Mumb ai 34370
A ir</w> 34367
T am 34364
श व</w> 34359
मि ला 34359
Bo ard</w> 34359
ख तर 34357
pl es</w> 34344
b ed</w> 34343
C M</w> 34340
D uring</w> 34333
त - 34309
ता ब</w> 34303
sec tor</w> 34291
सी सी 34289
me as 34284
द ू</w> 34283
au g 34283
मंजू री</w> 34275
candid ates</w> 34271
कर ें।</w> 34252
l ad 34247
रा शि</w> 34232
we b 34224
fir e</w> 34178
m ember</w> 34165
ज रिए</w> 34163
संबंध ी</w> 34161
म गर</w> 34130
j ay</w> 34110
दा वा</w> 34108
धि कार 34106
run s</w> 34104
Ac t</w> 34101
L a 34091
f und 34063
d ou 34059
wh y</w> 34045
सफ ल</w> 34038
राज स्थान</w> 34015
आ दि</w> 33962
Wh y</w> 33953
आ र् 33951
N ov 33949
a j</w> 33944
he al 33941
T el 33938
याद व</w> 33926
im um</w> 33924
sp ok 33889
t a</w> 33883
Delhi ,</w> 33864
Bi har</w> 33848
m ur 33845
सल मान</w> 33841
फ्र ी 33821
ind ustr 33808
oc k</w> 33806
direc ted</w> 33803
रू प 33792
expec ted</w> 33791
क्षे त्र 33790
COVID -19</w> 33790
lik ely</w> 33780
म र 33779
v ot 33779
im medi 33754
grou p</w> 33750
सूच ी</w> 33745
a ut 33743
increas e</w> 33737
प्र बंधन</w> 33734
तु लना</w> 33732
भ वि 33728
S y 33727
lo ve</w> 33717
th ough</w> 33711
al i</w> 33705
सं सद</w> 33701
sp ot 33701
नि त</w> 33684
ध िक</w> 33632
j our 33625
न् तु</w> 33624
थी .</w> 33609
proc ess</w> 33598
ha ving</w> 33591
यो गी</w> 33591
l ing</w> 33585
ar y,</w> 33548
. """</w> 33520
उ दा 33518
ब ज 33506
av ir 33497
वै श् 33496
सं सा 33489
I A 33485
Bollyw ood</w> 33484
rec ord 33472
कर् ता</w> 33467
p an 33461
स ला 33460
Tw o</w> 33452
घोष ित</w> 33438
t ob 33434
कि ल</w> 33426
wh ile,</w> 33425
bil ity</w> 33419
hum an</w> 33404
re port 33402
कि स</w> 33396
enti re</w> 33393
il i 33388
wom an</w> 33384
don t</w> 33379
ous ly</w> 33377
India 's</w> 33358
तरी के</w> 33353
ci l</w> 33339
J a 33327
आरोप ियों</w> 33302
mil lion</w> 33298
contin ue</w> 33267
कंप नियों</w> 33265
d ata</w> 33246
ब् ल 33245
नेतृ त्व</w> 33245
Peo ple</w> 33243
ब ढ़</w> 33239
अनु मति</w> 33236
फैस ले</w> 33234
्रा ष् 33214
st ri 33206
ते ज</w> 33198
ac t 33187
पुरस् कार</w> 33187
क्र े 33183
क्ष ता</w> 33180
ke ep</w> 33177
की ,</w> 33170
सा त</w> 33167
c y 33146
c ooper 33141
ा ई</w> 33131
g ave</w> 33128
देख ने</w> 33128
sy st 33126
छ ह</w> 33124
ग ़ 33111
ain s</w> 33102
2 8 33100
f ree</w> 33091
J o 33084
अच्छ े</w> 33078
सम् मेलन</w> 33076
f re 33072
tion ed</w> 33056
सदस् यों</w> 33044
Afr ic 33038
F I 33028
आ खि 33012
w r 33008
rel ated</w> 32998
Wh ile</w> 32994
सिं ह,</w> 32971
( M 32970
2 6 32966
त य</w> 32943
sch ool 32940
1 .</w> 32939
नु क 32934
गें दबा 32923
स प् 32921
ज ता 32900
me et</w> 32894
च ों</w> 32861
end ing</w> 32846
ऊ पर</w> 32835
201 5</w> 32822
मू र् 32821
छ ु 32813
फ ़</w> 32802
or t 32801
v ol 32799
S anj 32799
ग्र ह 32793
N a 32732
s id 32717
ब ारिश</w> 32703
री ,</w> 32697
on avir 32689
enti al</w> 32684
fin al</w> 32680
Jehov ah</w> 32658
ग ये</w> 32643
विश् ‍ 32638
R ed 32635
रो क 32629
वि देशी</w> 32625
ed ly</w> 32625
v s</w> 32616
g a 32605
vi l</w> 32594
sit e</w> 32594
O p 32580
ंकि ,</w> 32543
व क्ता</w> 32541
यू नि 32536
श ू 32524
हर ण</w> 32519
g ri 32517
fin d</w> 32512
ल कर</w> 32499
बे टे</w> 32494
D es 32485
जा ए</w> 32471
Com m 32464
दे व 32451
न )</w> 32437
जिन में</w> 32431
or i 32414
ha b 32413
पो स्ट 32409
w el 32407
Me an 32393
सीबी आई</w> 32386
समे त</w> 32363
पी ड़ 32334
स्वी कार</w> 32318
आं क 32292
समु दा 32292
टे ल</w> 32291
बढ़ा ने</w> 32266
वैश् विक</w> 32250
कर ी</w> 32232
pop ul 32229
ते ल</w> 32195
इ तिहा 32184
ब ने</w> 32163
ं भ</w> 32152
abin et</w> 32150
pro b 32130
रह ते</w> 32120
in st 32119
C o 32117
G o 32084
C l 32076
E ar 32072
issu es</w> 32060
Fin ance</w> 32051
M uk 32034
अनु सं 32034
प्रा थ 32019
priv ate</w> 31993
सड़ क</w> 31982
विध ा</w> 31955
3 5</w> 31935
अंतर राष्ट्रीय</w> 31935
2 9</w> 31932
le ft</w> 31907
क मा 31903
ति ,</w> 31902
an di 31901
S te 31890
ब द्ध</w> 31872
att ack</w> 31872
2 ,</w> 31867
D ist 31863
इ ंग् 31856
h ouse</w> 31855
tog ether</w> 31854
द् वि 31848
pr ac 31843
c ost</w> 31840
s il 31836
ati ves</w> 31835
O r 31788
न वा 31775
याचि का</w> 31769
उन को</w> 31754
s l 31726
fer red</w> 31719
लॉन् च</w> 31712
vel y</w> 31699
पर् क</w> 31699
Jes us</w> 31699
आवे दन</w> 31676
for c 31675
लिख ा</w> 31664
tr ac 31663
प्रस्ता व</w> 31658
श् वर</w> 31654
सर् व 31650
Centr e</w> 31648
म र् 31635
Koh li</w> 31631
S pe 31625
struc ture</w> 31625
al li 31621
हु ई।</w> 31614
हाला ंकि,</w> 31612
रि श् 31600
f el 31595
आ न 31591
add ed.</w> 31590
2 7 31589
मू ल 31585
si ons</w> 31575
E duc 31564
org ani 31564
Vir at</w> 31556
h us 31551
d ate</w> 31550
प ड़ा</w> 31541
ore ,</w> 31526
Th en</w> 31522
बेह द</w> 31503
वा सी</w> 31496
stit ute</w> 31476
pro mis 31425
ass oci 31404
s mar 31400
प सं 31393
अधि नियम</w> 31378
अ हम 31372
Mad hya</w> 31371
L ord 31370
करा ने</w> 31368
k .</w> 31365
mon ey</w> 31357
ज नों</w> 31356
b ook</w> 31356
mis sion</w> 31350
मा ण 31339
व क्त</w> 31335
9 0</w> 31331
O D 31330
el ,</w> 31330
श क्ति</w> 31324
C )</w> 31324
क त</w> 31322
ला ,</w> 31316
आ दि 31311
अंतर ्राष् 31310
लग े</w> 31301
I s</w> 31298
आवश्य क</w> 31279
h old</w> 31276
R us 31257
S ur 31257
bi g</w> 31253
कर ें 31246
ed ul 31241
ट्र ंप</w> 31236
ले ं</w> 31227
pro test 31225
विरा ट</w> 31224
Ar my</w> 31220
C our 31209
परिष द</w> 31208
am me</w> 31201
ne ws</w> 31201
प्र ार 31196
jec t</w> 31173
मुला कात</w> 31164
19 7 31158
" The</w> 31152
क ट 31148
ध र 31137
प् प 31134
mark et</w> 31132
poin ted</w> 31121
G overn 31113
h ra</w> 31112
’ ’</w> 31112
भु ग 31112
रख ते</w> 31106
अ थ 31096
लगा ने</w> 31088
is m 31081
जै सी</w> 31078
भवि ष्य</w> 31075
रो ज 31065
A T 31043
लि मि 31038
ab or 31029
यी शु</w> 31017
ser vice</w> 30997
or ity</w> 30996
p et 30988
पा लन</w> 30974
c are 30969
शा दी</w> 30948
ध े</w> 30947
ल )</w> 30934
dec la 30925
,   30924
नी चे</w> 30897
e )</w> 30894
l ist 30893
f oo 30883
ई मान</w> 30882
S ept 30876
जै सा</w> 30876
projec t</w> 30859
Tam il</w> 30850
स हम 30832
प्रशा सन</w> 30830
लक्ष ्य</w> 30823
4 0 30814
D r</w> 30800
ther ,</w> 30786
Oc tob 30786
on al</w> 30783
Cong res 30761
ग्रामी ण</w> 30755
Prades h,</w> 30751
ud e</w> 30745
ए ंड</w> 30744
bec ame</w> 30739
मौजू दा</w> 30733
नुक सान</w> 30722
cr icket</w> 30715
ag ed</w> 30708
ris ti 30701
इन कार</w> 30691
ब ह</w> 30685
बदला व</w> 30685
कल् प</w> 30682
u fac 30681
ब धा 30679
वाय ु</w> 30655
er i 30644
ब े</w> 30639
पहु ँ 30634
S i 30626
परिणा म</w> 30626
succ ess 30621
ठ ि 30620
ation s,</w> 30619
vie w 30614
add res 30610
नि ष् 30606
कें द्र 30599
वा ह 30588
प्रभा व</w> 30587
सु विधा</w> 30581
do ing</w> 30580
res ol 30564
कर्ना टक</w> 30562
वर्ष ों</w> 30554
स् टी 30548
investig ation</w> 30547
mon th</w> 30545
ड़ ने</w> 30537
medi cal</w> 30498
हाद से</w> 30470
or .</w> 30469
M ay</w> 30467
सी रीज</w> 30467
ne l</w> 30458
t ou 30455
रा ब</w> 30444
Aff airs</w> 30443
f y</w> 30438
फ़ ि 30438
स न् 30428
अ नेक</w> 30425
fi c</w> 30412
ले ख</w> 30410
कर ो</w> 30398
C an 30382
sm all</w> 30376
pos t</w> 30350
प ्या 30348
st ep 30347
ad ministr 30344
तार ी 30336
उस में</w> 30335
म सी 30326
ar i</w> 30304
विश्व विद्यालय</w> 30299
म् प 30291
I )</w> 30286
Mar ch</w> 30283
क प</w> 30281
मूल् य</w> 30270
उप स्थित</w> 30261
eff orts</w> 30260
b ow 30243
alleg ed</w> 30241
Mean while,</w> 30241
ar t</w> 30238
संबो धित</w> 30196
div id 30190
व्या पार</w> 30177
cri tic 30175
o s</w> 30168
op en</w> 30167
अं तर्गत</w> 30161
bus iness</w> 30161
I T 30159
क्र ा 30156
f oc 30123
l am 30122
p aren 30109
ru n</w> 30108
ट र् 30107
ला न</w> 30101
on e.</w> 30082
र ही 30070
क थ 30068
pre vi 30012
anc es</w> 30010
न ंबर</w> 30009
f ail 30006
" I</w> 29999
th y</w> 29997
ne ar</w> 29995
de st 29989
सं भावना</w> 29978
fa ther</w> 29960
गया ,</w> 29943
earli er</w> 29943
अ फ्री 29931
par tic 29926
कर े</w> 29920
मा ंग 29917
टी वी</w> 29887
par ts</w> 29885
जान ते</w> 29878
stat ement</w> 29870
res h</w> 29851
Ch risti 29822
ह ार् 29814
स्‍ था 29807
सी )</w> 29806
रि त</w> 29804
sec ret 29766
l ost</w> 29757
t en 29749
j e 29743
you .</w> 29741
लिख ित</w> 29737
al ed</w> 29711
educ ation</w> 29689
writ ten</w> 29687
शा न 29676
u ro 29674
धर् म</w> 29671
्य ों</w> 29660
हो कर</w> 29660
शी र्ष</w> 29657
pric es</w> 29654
र् च</w> 29649
f ood</w> 29644
जु ड़े</w> 29636
201 6 29619
ह रा</w> 29596
sup por 29589
ब नी</w> 29580
ना इ 29567
बे टी</w> 29558
acc us 29554
व ् 29547
r in 29541
v al</w> 29541
stat e.</w> 29526
जम् मू 29520
m ot 29515
Commit tee</w> 29501
त त् 29497
cl ose</w> 29493
charg e</w> 29492
जे ल</w> 29485
tod ay.</w> 29464
p ha 29463
ए ड 29455
ta x</w> 29450
m a 29447
पा या</w> 29443
औ र 29431
मुद् दे</w> 29425
cap ac 29419
रह े।</w> 29400
in ,</w> 29398
भा व</w> 29398
Bang lad 29387
a ir</w> 29385
ग्र े 29379
inter est</w> 29378
म्म ू</w> 29364
प् ले 29355
कृ ष् 29352
च लते</w> 29346
न्याया धी 29333
मो बाइ 29327
A g 29310
c ause</w> 29308
G er 29307
मु स् 29287
श ों</w> 29273
re ly</w> 29264
mi ght</w> 29262
सं विधान</w> 29259
ज म्मू</w> 29256
en ci 29256
b or 29248
त ू</w> 29245
ing s.</w> 29244
tr ansp 29237
stand ing</w> 29229
R ec 29198
o red</w> 29188
Off ic 29188
जिन् होंने</w> 29186
S ci 29176
S e 29169
ग्रह ण</w> 29163
प्र वेश</w> 29158
t arg 29139
क हीं</w> 29121
ch ec 29119
ल - 29118
यु वा</w> 29116
दूसर ा</w> 29115
िय र</w> 29112
f o 29109
anc e,</w> 29100
अनुसं धान</w> 29099
le vel 29091
cle ar</w> 29082
कॉ ले 29077
नियंत्र ण</w> 29060
वि धि</w> 29057
भे ज</w> 29047
nec ess 29045
आ ती</w> 29035
M u 29033
N ad 29020
gener al</w> 29020
se ,</w> 29013
For mer</w> 29009
se qu 29006
n or</w> 29002
2 9 28998
a di 28996
योग दान</w> 28977
इला ज</w> 28976
आ इ 28972
से ,</w> 28960
सम् मान</w> 28959
IP L</w> 28955
t ers</w> 28954
कि सान</w> 28952
कैम रा</w> 28950
peopl e.</w> 28947
S ub 28931
inter est 28924
समस् या</w> 28924
p en 28923
वित् तीय</w> 28922
S w 28918
get ting</w> 28905
कर् ताओं</w> 28900
4 5</w> 28898
M is 28882
बिज ली</w> 28872
her e.</w> 28865
अधि क 28848
ब च 28843
Uni versity</w> 28840
Trum p</w> 28838
फ ्रा 28828
that .</w> 28826
es s.</w> 28825
fore ign</w> 28810
ठ ी</w> 28808
ir man</w> 28793
व्य क्त</w> 28784
re present 28780
भ ्र 28776
is ,</w> 28751
ख बर</w> 28747
complain t</w> 28726
m ulti 28719
li ve</w> 28719
i ve</w> 28717
high er</w> 28706
l ov 28705
"" "" 28701
ni fic 28697
gr at 28694
Rus si 28684
म्म द</w> 28683
खिला ड़ी</w> 28672
तै य 28671
p un 28641
वेब साइट</w> 28641
व हन</w> 28639
G overnment 28627
3 , 28616
Nor th</w> 28603
du ce</w> 28600
ल यों</w> 28591
Coun cil</w> 28590
A ir 28589
होंग े</w> 28588
ज र 28585
cent ur 28562
ब ढ़ 28560
सं भा 28552
im prov 28540
si m 28536
curren t</w> 28518
अर ब</w> 28506
A ug 28492
सं घ 28491
डा य 28487
क् ट</w> 28484
star t</w> 28474
elec ted</w> 28470
f our 28466
उत् ‍ 28461
पु रु 28458
अ ग्र 28447
l ong 28447
et c 28438
l ist</w> 28436
con di 28434
स रा 28411
Jehov ah 28405
आ वा 28404
N D 28399
बढ़ा वा</w> 28373
you ,</w> 28368
as k</w> 28366
करे गा</w> 28365
A u 28362
सं पर्क</w> 28352
be h 28351
cam pa 28348
1 - 28338
Is ra 28331
प्रका श</w> 28326
मा इ 28323
7 5</w> 28319
me ans</w> 28314
d ro 28307
ग री 28303
नही ं,</w> 28290
S un 28286
स त्र</w> 28280
लो क</w> 28275
reg ul 28275
मान व</w> 28270
c ir 28261
wh ol 28259
शी ल</w> 28248
केन् द्रीय</w> 28239
Gand hi 28223
B ank 28222
म र</w> 28205
नागरि क</w> 28205
घ ु 28198
y e</w> 28192
र वि 28188
D is 28179
say ing</w> 28174
t oo 28171
द रा 28169
स् ते</w> 28168
स् मार्ट 28153
ex ist 28149
ro w</w> 28147
G re 28142
मोबाइ ल</w> 28139
यु द्ध</w> 28107
ip al</w> 28105
Rajas than</w> 28101
Def ence</w> 28091
म ध्य 28087
S ome</w> 28076
And hra</w> 28064
as ,</w> 28063
p e</w> 28056
pri l</w> 28043
द् य</w> 28035
e k</w> 28033
ज़ रू 28027
acc ording</w> 28026
tim e,</w> 28017
प्र िय 28014
जिस ने</w> 28000
ob ile</w> 27994
छो टे</w> 27982
आ स 27978
and ,</w> 27972
I M 27969
ज ,</w> 27964
पु रा 27942
Con stitu 27935
e ?</w> 27925
शां ति</w> 27924
करा र</w> 27921
सुन वाई</w> 27921
पाकि स्ता 27913
वै ज्ञा 27912
re ve 27909
शु ल् 27906
अ ली</w> 27897
अध्य यन</w> 27893
hus b 27890
उद्दे श्य</w> 27888
wh om</w> 27882
मार् च</w> 27877
ful ly</w> 27877
चा लन</w> 27860
ol d 27852
ra in</w> 27845
sh are</w> 27844
c over 27843
फाइन ल</w> 27830
भुग तान</w> 27815
no v 27807
qu e</w> 27801
स्व य 27800
जम्मू - 27798
er c 27787
कर्म चार 27786
सुर क्षित</w> 27783
P et 27779
ट ें</w> 27767
et ,</w> 27767
म् स</w> 27765
claim ed</w> 27761
T V</w> 27751
c al 27720
T u 27711
3 2</w> 27701
सु विधा 27684
er y</w> 27671
पूर् ति</w> 27653
att ack 27638
गठ बंधन</w> 27632
n ath</w> 27623
त् म</w> 27619
Al i</w> 27614
le ast</w> 27594
ter ,</w> 27591
सा फ</w> 27589
Australi a</w> 27580
दो ष 27568
मे गा 27539
भे जा</w> 27537
movi e</w> 27519
प्र स्तु 27512
शान दार</w> 27512
ari es</w> 27502
pro per 27496
जरू री</w> 27487
त ें</w> 27483
fiel d</w> 27471
इतिहा स</w> 27455
em ent.</w> 27453
need s</w> 27453
at ,</w> 27438
बा व 27434
S ri</w> 27427
pl e 27410
d at 27409
सं भव</w> 27406
ब जे</w> 27398
ं का</w> 27391
D o</w> 27378
ud d 27352
4 , 27345
दि ल</w> 27331
Beng al</w> 27330
मिल कर</w> 27322
मुकाब ले</w> 27307
larg est</w> 27299
दि सं 27285
त्र ियों</w> 27284
कल ्या 27282
पहु ंचा 27272
in fl 27270
सि टी</w> 27270
decla red</w> 27264
B e 27259
diff ic 27258
se ar 27228
form ation</w> 27221
m e.</w> 27217
im p 27203
र ु</w> 27202
अ क्ष 27198
te gr 27196
के रल</w> 27193
प ौ 27187
tion s,</w> 27168
रोज गार</w> 27165
प त्र 27164
ear ly</w> 27164
Jun e</w> 27164
िया ई</w> 27151
A pril</w> 27144
ro ad 27141
w ard 27138
h ur 27136
N E 27135
कार ा 27129
W om 27124
ac y</w> 27123
Yad av</w> 27123
gar h</w> 27120
vis i 27112
ए )</w> 27111
Dec ember</w> 27103
त )</w> 27100
R s. 27089
सार ,</w> 27089
वि मान</w> 27082
च् ‍ 27082
िया ँ</w> 27074
नी ,</w> 27074
मृ त्य 27070
उदा हरण</w> 27061
organ is 27058
Cor por 27057
we ek 27037
जिन् हें</w> 27031
फ ू 27019
expres sed</w> 27014
परिवर्त न</w> 27007
टि व</w> 27006
प्रशि क्षण</w> 26990
( 1 26989
pos iti 26985
c ra 26969
2 - 26967
न त</w> 26949
offic ers</w> 26924
ham m 26921
19 6 26893
sc re 26880
m us 26872
cre ated</w> 26872
occasi on.</w> 26872
ऑ न 26867
u ally</w> 26862
pp ed</w> 26848
स्थ ल</w> 26845
ut es</w> 26813
in aug 26812
ल ू</w> 26811
च ारों</w> 26805
con c 26804
identi fied</w> 26804
tic le</w> 26797
leg al</w> 26797
b ank</w> 26791
अभि नेता</w> 26785
polic y</w> 26770
I r 26759
य द</w> 26756
G r 26755
for man 26755
ट् टी</w> 26744
र म</w> 26739
अं क</w> 26737
दे ंग 26727
आ धिकार 26714
si ve</w> 26714
ल ें 26703
रो हित</w> 26703
f av 26691
अ हम</w> 26685
गया .</w> 26679
फ र् 26662
ac tive</w> 26662
A y 26654
क् शन</w> 26652
ag ain</w> 26645
प ारी</w> 26643
त ियां</w> 26640
सु बह</w> 26640
rec ently</w> 26638
pur pos 26638
वास्त व</w> 26636
val u 26632
साथ - 26632
B I</w> 26629
र ता</w> 26623
su gg 26620
ans w 26617
B ri 26610
त मिल 26607
" "</w> 26606
पी ठ</w> 26606
बा ंग् 26605
F ebr 26601
Y og 26592
ना ड 26591
2 .</w> 26587
am a</w> 26582
projec ts</w> 26559
च ू 26558
बज ट</w> 26551
sa f 26550
rec i 26549
att ended</w> 26545
च ला</w> 26542
अप ील</w> 26539
3 7 26534
accoun t</w> 26525
vis ion</w> 26520
वि जय</w> 26518
ush ed</w> 26517
सके ।</w> 26517
rem ain</w> 26505
बधा ई</w> 26505
रो क</w> 26489
c all</w> 26488
ther .</w> 26486
Shi v 26480
re d.</w> 26466
em er 26462
ro r</w> 26455
मुस् लि 26445
c are</w> 26440
जी एस 26424
ऑ स्ट्रेलिया</w> 26412
विध े 26406
शो क</w> 26402
work ers</w> 26400
P an 26398
anc e.</w> 26365
मा ं</w> 26362
व ,</w> 26355
ou gh 26349
o .</w> 26346
द्र ा</w> 26345
गी .</w> 26345
ने ट 26338
f are</w> 26336
p ay</w> 26330
centr al</w> 26326
3 5 26314
हि मा 26314
आधिकार िक</w> 26298
man ufac 26293
increas ed</w> 26286
पसं द</w> 26286
सी एम</w> 26278
es ides</w> 26276
produc tion</w> 26267
बाद ,</w> 26264
stor age</w> 26261
ली न</w> 26258
dec isi 26255
घ रेल 26253
add ed</w> 26252
इंग् लैंड</w> 26247
मा ने</w> 26242
p ot 26238
सं स्थान</w> 26231
" We</w> 26221
अध ीन</w> 26214
ag e,</w> 26213
onavir us</w> 26203
ज स्टि 26197
य े 26197
खि ल</w> 26191
jud g 26174
feat ures</w> 26172
amoun t</w> 26165
achi ev 26162
मो हन</w> 26144
इ का 26133
पि क् 26125
बाव जू 26112
स ारे</w> 26106
w al 26101
सा क्ष 26097
resul ts</w> 26088
pec i 26084
n ation</w> 26083
s ure</w> 26081
rel ation 26070
C A 26068
मि शन</w> 26064
B al 26060
8 0 26058
s ist 26046
in jur 26037
fi gh 26028
conduc ted</w> 26026
M any</w> 26015
इला के</w> 26005
( R 26002
च ,</w> 25998
g am 25995
T ri 25990
सम र् 25990
यू रो 25989
देश ,</w> 25985
प्र धान</w> 25970
धा नी</w> 25969
r ing</w> 25967
रि ली 25957
in divid 25955
प्र वक्ता</w> 25941
gr ad 25929
क्र िया 25918
pre v 25910
कर्मचार ियों</w> 25908
मै न</w> 25886
po int 25885
tem ple</w> 25885
possi ble</w> 25868
n 't</w> 25853
क ब् 25833
l a</w> 25828
त्र ता</w> 25824
ट रों</w> 25818
ा ओं</w> 25815
भ वन</w> 25815
ob jec 25802
एन सी 25800
t i</w> 25797
हू ँ</w> 25790
m ain</w> 25782
pass eng 25766
Dist ric 25765
sel ves</w> 25756
पत् ति</w> 25750
Ac t,</w> 25743
se ven</w> 25724
ह ार 25714
3 00</w> 25712
it ation</w> 25707
con fir 25703
घरेल ू</w> 25702
ag ric 25701
क्रि य</w> 25699
progr amm 25688
लि ंग</w> 25683
sig nific 25678
Shar m 25669
सप् ता 25664
K ol 25661
politi c 25644
साथ- साथ</w> 25642
गा ँ 25640
जन रल</w> 25628
ar ing</w> 25621
श कों</w> 25618
m ag 25613
releas e</w> 25608
को ल 25607
हम ला</w> 25606
उ च्च 25604
ब ारी</w> 25600
p ast</w> 25591
poin t</w> 25583
tr ad 25578
ch ing</w> 25575
str ong</w> 25572
wh ether</w> 25569
Sal man</w> 25551
hist or 25546
इस् ला 25542
di t</w> 25536
o il</w> 25533
इ लेक् 25532
Punj ab 25512
resul t</w> 25499
साझ ा</w> 25493
E m 25485
थी ं।</w> 25476
tu res</w> 25474
र ब</w> 25454
श क् 25454
ं दा</w> 25453
घा टन</w> 25446
e es</w> 25440
कर वा 25439
छो ड़</w> 25433
लिमि टेड</w> 25423
form ed</w> 25414
बाइ बल</w> 25410
नि भा 25409
मत दान</w> 25409
शा सन</w> 25406
un to</w> 25397
iti es.</w> 25393
off ice</w> 25387
सि क</w> 25383
ज मा</w> 25379
बी र</w> 25373
गु ण 25371
प् ‍ 25370
an e</w> 25367
समुदा य</w> 25366
Hy der 25365
- -</w> 25363
fi ght</w> 25363
build ing</w> 25361
a 's</w> 25359
in ning</w> 25337
re ally</w> 25334
sch ool</w> 25329
ic s</w> 25322
ने ,</w> 25316
gu id 25314
( D 25309
t ed.</w> 25282
प न्न</w> 25281
B as 25278
al s.</w> 25275
हा ई 25270
parti es</w> 25250
उन्‍ होंने</w> 25250
star s</w> 25243
Nov ember</w> 25240
मे ह 25234
दि ग् 25227
t ro 25220
spok es 25220
न् स</w> 25218
pres s</w> 25213
4 .</w> 25207
से )</w> 25200
वा ओं</w> 25196
अभि ने 25195
धार ण</w> 25192
ं ट 25189
भ ग 25189
smar t 25186
pa id</w> 25183
S A 25180
res er 25179
n ation 25178
बन ने</w> 25175
Direc tor</w> 25165
मे डि 25161
क ड़ी</w> 25158
सूच ित</w> 25157
prov isi 25138
अथ वा</w> 25137
आ ए 25107
all y,</w> 25096
pre p 25091
ख ों</w> 25082
सम झ</w> 25074
t on 25073
बांग् ला 25070
आ उ 25066
कार ्या 25059
De ep 25058
हिं सा</w> 25058
अंतर्राष् ट्रीय</w> 25057
cont rol</w> 25054
n on- 25051
en viron 25045
k ind</w> 25036
ev ent</w> 25031
w id 25024
e ed 25015
fr ont</w> 25013
Ro hit</w> 24994
t om 24986
S P</w> 24986
रि ंग</w> 24983
न न</w> 24979
previ ous</w> 24979
अनु सार,</w> 24963
int ro 24963
ले ,</w> 24942
Ju ly</w> 24930
गति विध 24929
तर ण</w> 24919
w ro 24906
का ,</w> 24905
रा इ 24893
daugh ter</w> 24884
डि स् 24879
at ory</w> 24859
at e 24838
de b 24820
पुन र् 24804
schem e</w> 24799
ch ,</w> 24794
P M 24785
फ ॉ 24784
ug e</w> 24759
5 - 24755
परे शा 24751
inf ra 24750
El ec 24748
R i 24745
च य</w> 24744
सं देश</w> 24733
c ateg 24716
हा लत</w> 24710
em or 24702
government .</w> 24697
D ep 24696
क्रम ण</w> 24694
un ic 24693
जम्मू- कश्मीर</w> 24671
स्मार्ट फोन</w> 24670
सू स</w> 24658
ं दर</w> 24657
रि कॉ 24654
नरे न्द्र</w> 24654
प्रे स</w> 24643
मौ सम</w> 24625
है दरा 24619
जस्टि स</w> 24619
C up</w> 24618
हि रा 24615
di seas 24613
cer tain</w> 24610
ग य 24598
P ublic</w> 24596
ला गत</w> 24596
youn g</w> 24596
झ ू 24587
compan ies</w> 24585
नि क 24580
सं जय</w> 24575
u re.</w> 24551
respec t</w> 24548
ज री 24546
अ त्य 24537
ques tion</w> 24532
add ress</w> 24531
Commis sion 24521
ग लत</w> 24516
अ लग 24510
निर् धारित</w> 24510
ऑन लाइन</w> 24503
न दी</w> 24502
म् ‍ 24489
C abinet</w> 24486
pass ed</w> 24475
Octob er</w> 24470
जी बी</w> 24464
4 8</w> 24462
ग न</w> 24451
बद ल</w> 24444
मोह म्मद</w> 24429
per forman 24428
ड ,</w> 24427
झ ु 24420
अप्रै ल</w> 24405
me t</w> 24403
त ियो 24401
म रा 24401
ब ित</w> 24400
्य ता</w> 24399
ab ove</w> 24394
R s.</w> 24392
r ish 24385
ता प 24381
इंड ियन</w> 24374
वृ त् 24374
सफ लता</w> 24373
J ap 24368
4 ,</w> 24362
cap tain</w> 24362
खा स</w> 24357
in - 24356
n er</w> 24351
गि राव 24351
polic e.</w> 24340
Man ag 24328
re comm 24323
श ो</w> 24322
वि वाद</w> 24319
ग ल</w> 24312
म नी</w> 24303
व ही 24301
ह टा 24300
en se</w> 24300
A gr 24295
B ar 24293
ंड ी 24293
le y</w> 24290
ना य 24285
T wit 24281
ic k</w> 24268
ख त्म</w> 24267
हि न् 24264
Jan uary</w> 24260
T ra 24252
tor y</w> 24248
कथ ित</w> 24247
V ice</w> 24234
व ें 24233
worl d.</w> 24233
Sept ember</w> 24231
no thing</w> 24226
छा त्र</w> 24226
इ म 24210
ं स 24203
करे गा।</w> 24201
जू न</w> 24197
E D</w> 24196
रे ज</w> 24195
फ ॉर् 24188
is ing</w> 24187
तमिल नाड 24187
re duc 24176
ass embly</w> 24173
N ag 24172
camer a</w> 24169
Wh o</w> 24165
कार ्यालय</w> 24158
म ारे</w> 24157
दे ह</w> 24157
Me dic 24155
proc ess 24134
Karnatak a</w> 24131
Pri y 24116
उद् घाटन</w> 24114
v i</w> 24107
न्या य</w> 24103
ग ी,</w> 24098
i .</w> 24093
कि ंग</w> 24085
सा य 24084
C ap 24076
qu ality</w> 24066
पा त</w> 24064
हिरा सत</w> 24062
C ent 24040
at ure</w> 24033
H ospit 24030
st ated</w> 24030
किलो मीटर</w> 24018
पर वर 24017
ter m</w> 24009
requ i 24003
त् सा 23986
परवर दि 23986
ज ित</w> 23984
j ee</w> 23977
occas ion</w> 23971
per cent</w> 23966
म ई</w> 23959
aw a 23956
m other</w> 23942
si on.</w> 23941
, 99 23938
Pr as 23929
pl eas 23928
मा नित</w> 23925
beh ind</w> 23925
p ing</w> 23921
t on</w> 23917
bas is</w> 23914
ass ist 23907
pr inc 23900
खा द्य</w> 23892
ac e 23886
उ द्य 23878
वा ,</w> 23877
5 ,</w> 23872
si mil 23872
भ रो 23866
ad mitted</w> 23859
ra ph 23833
ज ॉ 23828
elec tr 23826
Parliam ent</w> 23824
hal f</w> 23823
राज नीति</w> 23804
गु रु 23796
t el 23794
दिखा ई</w> 23779
दी ,</w> 23778
स लाह</w> 23775
b ri 23766
ग िक</w> 23755
प्र चार</w> 23754
rec og 23750
y 's</w> 23746
परवरदि गार</w> 23746
child ren 23743
E uro 23739
अनु भव</w> 23726
सा द</w> 23719
N ar 23718
रा हत</w> 23715
स्ट र</w> 23712
पा न</w> 23707
H igh 23702
ल ग</w> 23698
b all 23697
ड़ ियों</w> 23694
प िक</w> 23691
an a,</w> 23691
ent s.</w> 23691
निर् वा 23687
प्र थ 23685
ne t</w> 23680
मत लब</w> 23662
समी क्षा</w> 23661
syst em 23655
li g 23653
तीसर े</w> 23653
for ces</w> 23642
समा प्त</w> 23641
B ab 23630
छो ड़ 23621
ac hal</w> 23611
वि चार 23604
परी क्षण</w> 23602
कु ल 23581
th ous 23577
se par 23576
an 's</w> 23574
b ig 23567
B ra 23567
प ें 23561
क्र ो 23560
बा ल</w> 23547
O f</w> 23545
मुद् दों</w> 23539
ध ियों</w> 23529
क्र ी</w> 23529
क् र</w> 23525
ऑ फि 23502
c ast 23501
सप्ता ह</w> 23494
ह वाई</w> 23484
ra ,</w> 23480
गै स</w> 23477
ribu tion</w> 23472
मह सूस</w> 23467
on al 23466
ener gy</w> 23466
Fr id 23464
Educ ation</w> 23464
दिल् ली 23462
cap ital</w> 23455
आ ता</w> 23454
स् थ</w> 23451
ind ustri 23445
st .</w> 23433
मु श् 23429
ड ब्ल 23428
अप ना 23419
Hind i</w> 23414
st re 23412
जिस की</w> 23410
है :</w> 23398
कर नी</w> 23398
व्या पक</w> 23394
on ce</w> 23390
B l 23383
वा ही</w> 23381
Ch enn 23380
प्रका श 23374
अ प</w> 23356
आप की</w> 23346
os s</w> 23338
In stitute</w> 23326
capac ity</w> 23321
N ir 23310
as .</w> 23305
sh oo 23304
न वी 23302
य म</w> 23301
C E 23292
w w 23283
इ च्छ 23276
su st 23265
hospit al.</w> 23258
g ov 23247
आं ध 23238
र दार</w> 23232
सि स्ट 23229
comm on</w> 23223
Delhi .</w> 23218
year .</w> 23217
मंत्र ि 23216
कल्या ण</w> 23212
रु ख</w> 23210
जा म</w> 23196
A z 23190
ख र</w> 23188
ph ot 23188
s ?</w> 23186
अर्थ व्यवस्था</w> 23186
n et 23169
pro ve</w> 23166
Sanj ay</w> 23166
स क्रिय</w> 23165
फो टो</w> 23161
play ing</w> 23159
g old</w> 23154
कि ताब</w> 23150
अ ल</w> 23144
form s</w> 23127
P re 23125
ac qu 23120
छ ि 23115
cl ass</w> 23115
P S 23098
ड ्रा 23097
अध्य क्षता</w> 23092
poin ts</w> 23088
tr ade</w> 23086
उम्मीद वारों</w> 23078
P ad 23075
Maharash tra 23067
S und 23051
201 3</w> 23050
Shi v</w> 23045
gir l 23044
के जरी 23031
et ed</w> 23018
progr amme</w> 23018
चाह े</w> 23017
God s</w> 23017
ट्र ै 23014
or ig 23002
आ यु 23001
t echnology</w> 23001
Ear li 22993
अलग - 22993
inaug ur 22991
beli ever 22989
bo ard</w> 22987
दौ र</w> 22985
sing le</w> 22984
ब र,</w> 22973
J ag 22973
या नी</w> 22966
allow ed</w> 22965
cer tain 22963
ं ख 22962
प्या र</w> 22949
li ves</w> 22927
ल् ‍ 22922
ML A</w> 22917
ni ght</w> 22907
न तम</w> 22900
गिराव ट</w> 22894
al s,</w> 22891
ch .</w> 22889
भा गी 22888
film .</w> 22888
शब् द</w> 22883
जन वरी</w> 22876
ह थ 22874
आ य</w> 22874
M P 22874
ह स्ता 22873
इस् ती 22866
recover ed</w> 22865
Hind u</w> 22858
द ,</w> 22854
परियोज नाओं</w> 22852
Raj ya</w> 22848
V er 22840
lead ing</w> 22837
offic er</w> 22836
\ \ 22835
fut ure</w> 22833
t est</w> 22831
आ एंग 22827
com peti 22826
सं दर् 22824
चिकित् सा</w> 22823
अ ंग्रे 22816
i f 22808
संशो धन</w> 22800
G rou 22796
ु क</w> 22795
3 ,</w> 22781
Bi har 22781
ra ised</w> 22780
उत् तरा 22777
dem ocr 22774
व त</w> 22765
( U 22758
समा धान</w> 22756
st ag 22753
g oo 22752
ख ंड 22738
industr y</w> 22721
ti l</w> 22720
गठ न</w> 22717
19 5 22713
ख र्च</w> 22711
j ri 22708
मा ,</w> 22697
बावजू द</w> 22694
त ना 22693
t - 22691
रहा ।</w> 22689
मूर् ति</w> 22687
t echn 22680
चं द्र 22680
डि ग्री</w> 22677
को ण</w> 22665
tra ining</w> 22662
शा यद</w> 22654
lif e.</w> 22650
bec om 22647
क िया.</w> 22644
c ou 22629
आ ठ</w> 22628
f all 22621
ud get</w> 22609
R E 22605
हर ों</w> 22599
l od 22586
फ ल</w> 22580
month s</w> 22580
प्रिय ंका</w> 22577
Engl and</w> 22573
laun ch</w> 22570
सो म 22569
ट री</w> 22554
चाल क</w> 22554
P o 22552
सेवा ओं</w> 22552
S ush 22551
Ker ala</w> 22551
प्रो त्सा 22549
सू त्रों</w> 22548
mat ter.</w> 22545
तु र 22543
d am 22520
अम री 22504
वि स्ता 22495
s w 22494
tr y</w> 22493
201 2</w> 22486
डि जि 22485
े गा।</w> 22478
म स् 22477
es :</w> 22472
c anc 22454
a ver 22422
राज ा</w> 22397
pow er 22397
iz ed</w> 22394
चुनौ ती</w> 22393
s ou 22383
Ke jri 22383
वी र</w> 22379
up coming</w> 22370
s '</w> 22362
wor ks</w> 22362
att ac 22347
नि कों</w> 22345
न् व 22343
ap pointed</w> 22336
d en 22335
T a 22332
विस्ता र</w> 22329
hand ,</w> 22318
अभिने त्री</w> 22318
ke ep 22315
high est</w> 22314
शुल् क</w> 22282
स्था पना</w> 22278
रा य</w> 22275
w ick 22273
सा बित</w> 22271
some thing</w> 22268
sh a</w> 22256
वा हन</w> 22249
पृ थ 22248
him ,</w> 22240
ri t</w> 22237
फ़ ा 22235
स्वय ं</w> 22229
ट ्यू 22226
छ ू 22220
pro pos 22218
एजें सी</w> 22206
परि वहन</w> 22203
r id 22200
आतंक वाद</w> 22200
प्रा व 22190
medi a.</w> 22187
इं त 22179
es el</w> 22177
े द</w> 22176
6 0 22165
c ar</w> 22157
y - 22139
pur ,</w> 22135
Febr uary</w> 22127
इ तना</w> 22119
मृत्य ु</w> 22118
re ach</w> 22114
P )</w> 22107
जि लों</w> 22106
3 6</w> 22102
चे न् 22096
रे ट</w> 22086
4 00</w> 22084
plac es</w> 22076
1 1 22072
र् ष 22067
nam ed</w> 22063
ंड ा</w> 22062
न्यायाधी श</w> 22059
for ce</w> 22057
includ es</w> 22057
k il 22053
Bi ble</w> 22046
spot .</w> 22038
""" "</w> 22027
जु लाई</w> 22025
de p 22016
तो ,</w> 22014
edul ed</w> 22011
आद मी</w> 22005
गी त</w> 21998
N iti 21997
rec ent</w> 21995
cre ate</w> 21992
प्र ती 21986
Bhar at</w> 21959
D av 21955
benef it</w> 21951
c y</w> 21950
e al 21935
नही ं।</w> 21933
happ y</w> 21929
मि श्र 21927
पिक् सल</w> 21917
F ore 21916
ब लों</w> 21913
के न्द्र</w> 21909
candid ate</w> 21909
अफ्री का</w> 21906
s un 21900
उप भो 21892
अं तरि 21883
mar k</w> 21881
शा ह 21878
J oh 21876
distric ts</w> 21876
च यन</w> 21874
fe el</w> 21872
थ ि</w> 21865
positi ve</w> 21860
मेडि कल</w> 21849
ह े</w> 21842
knowled ge</w> 21841
बढ़ कर</w> 21838
ल् म</w> 21833
उ चित</w> 21825
m om 21825
A N 21825
T er 21823
सु झा 21815
mo ve</w> 21815
शा ंत</w> 21807
Aug ust</w> 21801
केजरी वाल</w> 21796
pub l 21791
nor m 21787
अ ब् 21783
pe ace</w> 21783
pl at 21780
w ill 21771
पाकिस्ता नी</w> 21764
heav y</w> 21763
वि रो 21758
S M 21756
मै चों</w> 21756
P er 21741
ec u 21738
ra il 21731
follow ed</w> 21730
श हरी</w> 21725
Th e 21725
राज्य पाल</w> 21722
शु क्र 21715
acc id 21713
बि क्री</w> 21702
ारि ज</w> 21691
च ारी</w> 21690
A R 21687
आ गा 21681
od e</w> 21675
op s</w> 21674
प्र गति</w> 21669
at .</w> 21663
whol e</w> 21662
ि ता</w> 21659
t un 21648
कारो बार</w> 21648
बात ें</w> 21645
Distric t</w> 21640
भी तर</w> 21635
पर्य टन</w> 21630
पु ष्टि</w> 21629
न ग 21627
G ang 21614
खु शी</w> 21612
Kol k 21608
commun ity</w> 21606
r ushed</w> 21594
व ्‍य 21589
in tegr 21580
हे तु</w> 21579
न ती 21578
पद क</w> 21576
w an</w> 21571
ec h</w> 21566
नागरि कों</w> 21566
अ रु 21560
l ab 21555
जा ति</w> 21545
रह ता</w> 21534
includ ed</w> 21533
esti c</w> 21525
of ten</w> 21521
ध ार् 21516
ur s 21510
हा इ 21510
n om 21506
नि ंग</w> 21505
तै ना 21497
gi ving</w> 21495
ठ ो 21488
मा नों</w> 21485
म नु 21480
स्टा र</w> 21474
मि ले</w> 21473
em on 21468
डी जल</w> 21468
अलग- अलग</w> 21467
detail s</w> 21466
स् त्र</w> 21453
इ यों</w> 21452
लग ी</w> 21449
ser ved</w> 21446
il t</w> 21442
Pol ic 21439
ad ha 21434
ड ्यू 21433
ार् थ</w> 21426
so ,</w> 21425
ain ing</w> 21421
नेट वर् 21419
s am 21398
ली टर</w> 21393
J am 21392
construc tion</w> 21388
Priy anka</w> 21385
राज धानी</w> 21382
एक - 21382
requ ired</w> 21379
lo g 21378
j it</w> 21373
S ik 21372
नि पट 21368
न ॉ 21364
पा ने</w> 21360
invest ment</w> 21360
टि प्प 21359
ad em 21353
प थ</w> 21343
न् त</w> 21336
es peci 21328
संबंध ों</w> 21321
मुस्लि म</w> 21321
दी न</w> 21319
J os 21317
श्री लं 21315
बु निया 21306
c u 21285
Is lam 21284
res earch</w> 21280
R ep 21279
aff ected</w> 21279
tr ying</w> 21275
cooper ation</w> 21273
सि ंग</w> 21263
B CC 21262
leg is 21261
कोल का 21251
retur n</w> 21250
et ing</w> 21246
स ारी</w> 21245
r at 21243
सु ना 21242
way .</w> 21231
mp i 21228
Jehovah s</w> 21213
( ऐ</w> 21212
mar ri 21199
हु ए।</w> 21198
प्रथ म</w> 21195
प टेल</w> 21181
ति गत</w> 21181
te ams</w> 21165
ज ्य 21151
प्राथ मि 21137
ter nal</w> 21136
वा णि 21133
स्व तं 21131
प्रतिनि धि 21130
accus ed.</w> 21127
सा हि 21126
li mit 21114
हू ँ 21114
W ed 21110
ट्र ॉ 21109
तला श</w> 21109
घं टे</w> 21106
sig ned</w> 21104
2 1 21088
अपरा ध</w> 21087
F il 21079
et h</w> 21077
अधि निय 21073
पा य 21068
दर् शन</w> 21058
end s</w> 21056
6 5</w> 21054
ले ते</w> 21049
स् तर 21043
रा र</w> 21038
Cr icket</w> 21037
ट ली</w> 21027
o k</w> 21022
क ़</w> 21005
दौ रे</w> 21005
develop ed</w> 20990
प्रा धि 20986
अनु मान</w> 20984
मान ना</w> 20979
h uge</w> 20976
con dition</w> 20974
especi ally</w> 20969
un til</w> 20967
er ial</w> 20966
बि ल् 20961
सि द्ध</w> 20958
ग्रा ह 20957
an im 20956
कॉ न् 20946
उ ड़ा 20938
Minist ers</w> 20931
ट् वि 20929
and s</w> 20928
D ha 20924
applic ation</w> 20922
पूर् वी</w> 20920
दिसं बर</w> 20915
नही ं 20912
ब राम 20907
pl an</w> 20893
व ती</w> 20884
at ed.</w> 20879
क्र मों</w> 20878
ंद गी</w> 20870
शरी र</w> 20870
Man o 20869
en h 20867
enci es</w> 20865
s qu 20855
g one</w> 20852
करो ड़</w> 20848
शिव सेना</w> 20846
treat ment</w> 20844
परि जनों</w> 20843
ord in 20836
प ड़ 20830
M r</w> 20830
v e.</w> 20821
अ स 20813
2 )</w> 20805
र ंग</w> 20800
worl d 20800
द ारों</w> 20799
अक् टू 20796
प्रस्तु त</w> 20796
S ena</w> 20792
वही ं,</w> 20782
Musli m</w> 20779
M r 20778
ed :</w> 20776
st ar</w> 20773
अं त</w> 20773
ट ने</w> 20766
थ े 20765
M ost</w> 20765
est ed</w> 20764
( एन 20761
गाँ व</w> 20761
ing s,</w> 20758
ti t 20753
Dep uty</w> 20745
ब ,</w> 20744
पर ,</w> 20731
हैदरा बाद</w> 20730
शु भ 20729
tri b 20728
ख ारिज</w> 20725
्य ू</w> 20720
बल्लेबा ज</w> 20717
गुण व 20717
pra y 20715
Ch andi 20712
reas on</w> 20711
produc ed</w> 20708
pl ann 20707
well .</w> 20703
अफ गा 20703
in come</w> 20696
no t 20696
big g 20692
ृ ंख 20681
स ीय</w> 20669
ch o 20661
े श</w> 20656
en tion</w> 20653
commit tee</w> 20652
es h 20649
हु ई 20648
बांग्ला देश</w> 20642
cr icket 20637
A A 20634
at i</w> 20631
pati ents</w> 20631
? "</w> 20630
c k 20629
जान ता</w> 20629
connec tion</w> 20626
नि धन</w> 20617
ंक न</w> 20616
राज ्‍य</w> 20615
व की 20607
द ार 20604
धर ती</w> 20598
स च्च 20592
चा ई</w> 20592
कॉले ज</w> 20592
नव ंबर</w> 20566
मै दान</w> 20563
वि शि 20561
in dic 20554
नि वे 20552
person al</w> 20550
secret ary</w> 20546
ष् ठ 20545
ad vis 20542
मॉ डल</w> 20522
ए यर</w> 20504
ला ना</w> 20495
z ation</w> 20494
J e 20487
ज हा 20482
शा सित</w> 20481
S p 20475
से ल् 20471
स ब् 20464
ch ild</w> 20460
ver si 20459
आंध ्र</w> 20457
बराम द</w> 20456
tor ,</w> 20455
on line</w> 20452
ण् ड</w> 20451
de ad</w> 20446
3 3</w> 20445
S an 20435
for ward</w> 20429
पेट्रो ल</w> 20425
च ले</w> 20414
sci enti 20414
s em 20410
fe ar</w> 20409
loc ated</w> 20407
त े।</w> 20391
न ो</w> 20383
tem per 20380
regi on</w> 20376
Govern or</w> 20365
pit e</w> 20356
i ed</w> 20351
h u</w> 20347
Kum ar,</w> 20346
सहा यक</w> 20342
E ast</w> 20337
पहुंच ी</w> 20336
cust om 20336
च ी</w> 20320
8 ,</w> 20317
beg an</w> 20317
K al 20315
घा य 20311
रसू ल</w> 20305
संर क्षण</w> 20300
समस् या 20300
de al</w> 20276
R eg 20266
regard ing</w> 20264
Th ose</w> 20263
St ud 20261
c hi 20258
P ow 20251
su per 20245
J ud 20243
पक्ष ीय</w> 20240
ष् ‍ 20239
necess ary</w> 20236
at or</w> 20223
wor d</w> 20213
जाए ।</w> 20213
res our 20211
chec k</w> 20208
आतं की</w> 20197
stud y</w> 20194
टि स</w> 20190
विधे यक</w> 20189
activ ities</w> 20184
Y our</w> 20183
ac tu 20181
M at 20179
Minist er,</w> 20176
ती स 20170
निय र</w> 20169
झ ार 20166
inde pend 20162
S he 20160
ju di 20159
ह रे</w> 20152
you th</w> 20151
an g</w> 20149
पा ठ 20144
तुर ंत</w> 20143
A S 20140
fic ation</w> 20140
स त 20134
नि म् 20133
tr ue</w> 20126
Chin ese</w> 20126
सं के 20124
com b 20121
उस को</w> 20119
prov iding</w> 20116
म ती</w> 20113
col leg 20112
de fin 20109
रा व</w> 20105
repor ts</w> 20103
ses sion</w> 20096
सि फ 20094
f esti 20093
val ue</w> 20086
intro duc 20085
grat ul 20083
आ पूर्ति</w> 20079
च ंडी 20072
S pec 20064
V ar 20062
at s</w> 20062
आ ते</w> 20061
4 7</w> 20059
भरो सा</w> 20057
लि खा 20043
g ing</w> 20038
S im 20038
स )</w> 20022
प्र श् 20022
सी टें</w> 20013
ex per 20009
N S 20002
exc ept</w> 20001
स ॉ 19997
ष् टि 19993
oc k 19985
Tu es 19984
गौ र 19982
क )</w> 19974
फर वरी</w> 19972
Agr ic 19972
संदर् भ</w> 19970
R ash 19966
रिली ज</w> 19962
s ens 19945
him self</w> 19944
9 9</w> 19942
us es</w> 19941
do m</w> 19941
D hon 19936
de l</w> 19935
lit tle</w> 19933
rec ord</w> 19929
Sec tion</w> 19929
tur n</w> 19929
dem and</w> 19928
U r 19922
एस पी</w> 19917
step s</w> 19917
As soci 19915
जिन के</w> 19906
ment al</w> 19900
श्रे ष्ठ</w> 19892
seri ous</w> 19887
न ारा 19886
st ,</w> 19886
डिजि टल</w> 19882
a - 19879
ast ern</w> 19878
मुता बि 19878
res .</w> 19876
ear th</w> 19875
द् वी 19865
F ir 19863
R S 19861
year s.</w> 19861
ए ंड 19860
har d</w> 19854
वो ट</w> 19852
T im 19850
person nel</w> 19849
म ियों</w> 19846
द्धा ं 19845
स्वा गत</w> 19838
हा ई</w> 19831
फ र</w> 19829
प्र साद</w> 19829
har k 19826
आत् म 19822
f ound 19819
ar a</w> 19817
as e</w> 19809
टे न</w> 19807
क्षेत्र ीय</w> 19806
m obile</w> 19802
स के</w> 19799
direc tor</w> 19799
g overn 19797
manag ement</w> 19792
मा त्र</w> 19785
min al</w> 19785
Medic al</w> 19785
शि प</w> 19777
राज नाथ</w> 19776
तुम्ह ारी</w> 19775
" ,</w> 19768
po or</w> 19761
Dr .</w> 19758
दे कर</w> 19755
अ सर</w> 19752
B ach 19746
मे ल</w> 19744
religi ous</w> 19741
gir l</w> 19731
संसा धन</w> 19730
आ धु 19729
Sharm a,</w> 19729
अग स्त</w> 19722
wh ose</w> 19721
में )</w> 19719
3 .</w> 19709
3 70</w> 19703
प्र तियो 19703
क्ष र</w> 19695
h s</w> 19693
द स्ता 19685
Pakist ani</w> 19685
W e 19684
प्रभा वी</w> 19683
year - 19676
अं दर</w> 19673
t 's</w> 19663
्र ो 19653
रिकॉ र्ड</w> 19653
ha y 19649
5 5</w> 19646
ser vic 19642
A li 19640
ची नी</w> 19640
कौ शल</w> 19639
वि कल्प</w> 19631
कर ,</w> 19630
स क्ष 19629
इला कों</w> 19627
ू ं 19621
loo king</w> 19617
j i</w> 19605
ड़ ी</w> 19600
ज़ ा 19594
ay a</w> 19590
ter ms</w> 19588
म तों</w> 19580
commit ted</w> 19577
हि र</w> 19576
च्छ ेद</w> 19576
re jec 19575
r ural</w> 19562
pun ish 19561
5 .</w> 19558
बा की</w> 19540
निग म</w> 19538
T od 19533
enc our 19532
म ज 19531
ensi ve</w> 19522
निश् चय</w> 19520
एश िया</w> 19503
तमिलनाड ु</w> 19501
निर् यात</w> 19495
pro be</w> 19492
peopl e,</w> 19492
or ing</w> 19488
st ation</w> 19487
स् वर् 19483
घ न</w> 19477
Th urs 19477
न ि</w> 19476
5 , 19474
a )</w> 19470
हाला त</w> 19469
at eral</w> 19463
दे व</w> 19461
4 2</w> 19460
sp read</w> 19459
b al 19451
p .</w> 19444
ट्र ि 19443
प्र देश,</w> 19429
i es.</w> 19420
फिल् मों</w> 19418
ती नों</w> 19405
Sch em 19391
year ,</w> 19385
चाहि ए.</w> 19381
me an 19375
B an 19370
स क</w> 19360
probl em 19360
हा न</w> 19359
ची ज़</w> 19357
anc ed</w> 19357
consid ered</w> 19353
ने वाले</w> 19349
ar rang 19348
स जा</w> 19347
S en 19346
प्रया सों</w> 19344
Modi ,</w> 19343
p il 19340
मा त्रा</w> 19333
विधा य 19319
reg ard</w> 19316
कानू नी</w> 19315
gr ound</w> 19305
GS T</w> 19305
regard .</w> 19300
या त्रियों</w> 19298
S m 19297
Raj nath</w> 19296
as su 19295
प्रा कृतिक</w> 19291
att emp 19288
fil e</w> 19281
T i 19277
Wed nes 19273
छ त् 19270
जाएंग े।</w> 19260
g le</w> 19256
th i 19255
सं वे 19254
का लीन</w> 19239
es s,</w> 19235
li ving</w> 19230
C i 19227
I ,</w> 19224
कु मार 19224
s ac 19205
M et 19204
simil ar</w> 19204
धार् मिक</w> 19178
Delhi :</w> 19174
dri ver</w> 19174
wh ere 19172
रह ती</w> 19172
i x 19167
6 ,</w> 19165
aw ard 19157
des cri 19152
श िय 19144
व ्य</w> 19127
ला ए</w> 19125
दू री</w> 19123
लो ड</w> 19110
a ther</w> 19109
r o</w> 19106
निग रानी</w> 19106
दा ताओं</w> 19105
को र</w> 19104
श न 19101
ef ul</w> 19099
प्रे म</w> 19098
रि ए 19096
पं चा 19094
b all</w> 19090
सं चार</w> 19086
comp ani 19084
jo ined</w> 19076
वा सियों</w> 19073
cor onavirus</w> 19072
सक्ष म</w> 19068
सित ंबर</w> 19057
ए न</w> 19054
present ed</w> 19052
स्था नों</w> 19049
Sat ur 19048
योग ्य</w> 19047
plac ed</w> 19045
ab le.</w> 19039
जिम्मे दारी</w> 19036
approv ed</w> 19030
ब ्रे 19028
wor th</w> 19028
पर्या वरण</w> 19028
ब ल 19021
चिं ता</w> 19017
Pres id 19014
g ets</w> 19012
आ का 19008
n .</w> 18998
le ave</w> 18994
cor rup 18990
we ek</w> 18982
श हरों</w> 18979
मार्ट म</w> 18979
ताप मान</w> 18978
आ सान</w> 18975
m as 18974
रि क</w> 18972
lod ged</w> 18971
ना ।</w> 18968
Con t 18963
जीएस टी</w> 18956
play ers</w> 18955
under stand</w> 18955
work .</w> 18953
pri me</w> 18952
prac tic 18951
घाय लों</w> 18949
रिय र</w> 18942
R ev 18939
( आई 18937
9 .</w> 18934
is ation</w> 18928
J hark 18926
j ob 18923
ई मान 18921
tu re,</w> 18916
हाई कोर्ट</w> 18916
त् तर</w> 18915
बि ल</w> 18915
m ind 18912
बना ई</w> 18910
बा तों</w> 18909
ध्य क्ष</w> 18909
pl e,</w> 18908
H ouse</w> 18907
भा र</w> 18907
इं जी 18906
कह ने</w> 18905
record ed</w> 18900
गतिविध ियों</w> 18899
w anted</w> 18897
C ov 18894
man ,</w> 18892
hamm ad</w> 18884
us h</w> 18882
पूछ ता 18880
K ul 18877
h ou 18873
Res earch</w> 18872
जन् म</w> 18870
web site</w> 18870
द य</w> 18865
प् ला 18865
स्टे शन</w> 18864
d re 18857
निय मों</w> 18857
रोक ने</w> 18856
रू स</w> 18854
दस्ता वे 18854
qu ir 18849
e x</w> 18848
ad ditional</w> 18844
f ai 18843
आप का</w> 18840
अर् थ</w> 18836
स्वतं त्रता</w> 18829
in nov 18821
af f</w> 18821
10 0 18819
छा त्र 18817
ei ght</w> 18815
le tter</w> 18812
k ind 18811
milit ary</w> 18810
सर् वो 18807
न क</w> 18803
खरी द</w> 18803
वि जे 18790
is .</w> 18788
de fe 18788
6 - 18783
उप चार</w> 18770
o l</w> 18768
on e 18767
भार त- 18767
ex erc 18767
re al 18758
vic tim 18758
a head</w> 18757
Z eal 18756
sa w</w> 18756
mur der</w> 18752
तकनी की</w> 18746
घ रों</w> 18740
मेगा पिक्सल</w> 18740
P T 18739
con om 18739
day s.</w> 18731
bus in 18723
वि स्त 18717
व ं 18709
ष ित</w> 18706
स पा</w> 18704
S ol 18704
बैं कों</w> 18701
हिं दू</w> 18685
out side</w> 18682
ार्थ ियों</w> 18682
em ent,</w> 18679
( सी 18678
hop e</w> 18678
दौ रा</w> 18670
ंग ,</w> 18668
husb and</w> 18665
हो नी</w> 18662
के शन</w> 18662
Sec urity</w> 18662
t ol 18655
og raph 18652
h an 18650
that ,</w> 18645
test ing</w> 18637
Th er 18636
Spec ial</w> 18633
द गी</w> 18629
N ep 18622
ह ौ 18618
bu ilt</w> 18617
छत् तीस 18616
पो स्ट</w> 18613
E conom 18605
ख राब</w> 18604
complet e</w> 18589
meet ing.</w> 18583
k m</w> 18576
रख ी</w> 18576
आं दो 18576
invol ved</w> 18572
el .</w> 18569
न ये</w> 18568
मौ का</w> 18566
ph ys 18562
तस्वी र</w> 18561
महा न</w> 18558
क ियों</w> 18557
3 7</w> 18556
प वि 18553
पह ल</w> 18553
Af gh 18544
K rish 18538
paren ts</w> 18536
' .</w> 18533
4 8 18533
प ण</w> 18524
s ought</w> 18521
dom estic</w> 18521
le m</w> 18518
m y 18515
ज़ ्यादा</w> 18510
d e</w> 18505
sol di 18504
पूछता छ</w> 18500
स ृ 18499
ऋ ण</w> 18499
लै ंड 18499
न क 18493
ष् टा 18490
Prades h.</w> 18490
जन क</w> 18484
सोम वार</w> 18482
3 4</w> 18480
जवा न</w> 18478
क् वा 18475
ठ हरा 18473
द म</w> 18466
In stag 18466
टे ली 18464
अनु च्छेद</w> 18462
Rail way</w> 18462
ृंख ला</w> 18462
3 - 18457
g ra 18456
di esel</w> 18452
दू र 18450
वायर ल</w> 18448
व हाँ</w> 18439
समझौ ता</w> 18437
त ह 18424
मु कद 18421
ha s 18419
पै से</w> 18415
आई )</w> 18414
क ठि 18413
government s</w> 18410
str ong 18404
ख ्या 18399
in di 18399
इं जन</w> 18397
ल िय 18388
up .</w> 18386
p ap 18381
अनु रोध</w> 18381
Com p 18377
ख् त</w> 18375
बरा बर</w> 18375
7 ,</w> 18373
आ श् 18372
स् ता</w> 18368
Rail ways</w> 18368
u ti 18364
क् स 18348
U P</w> 18346
qu ali 18346
sour ces</w> 18339
व स्तु 18338
बुनिया दी</w> 18335
पोस्ट मार्टम</w> 18334
T ata</w> 18333
righ ts</w> 18332
comp ared</w> 18330
di sa 18323
मंत्र ियों</w> 18322
द्यो गिक</w> 18322
mak es</w> 18321
happ ened</w> 18316
ढा ंच 18314
न यी</w> 18306
4 - 18306
tak es</w> 18306
प्र शं 18305
f ra 18302
El ection</w> 18288
का न</w> 18283
hist ory</w> 18283
201 1</w> 18280
इन के</w> 18279
स्वा मी</w> 18274
चुना वों</w> 18272
संस् कृति</w> 18269
c op 18264
र द् 18261
ज र्स</w> 18258
ग ो</w> 18258
सां स् 18255
ent ary</w> 18243
Banglad esh</w> 18241
Col leg 18237
दा ता</w> 18231
Th ree</w> 18230
tis h</w> 18230
Un der</w> 18229
C ,</w> 18216
f all</w> 18214
ad a</w> 18213
अ सम</w> 18212
व ि</w> 18211
con st 18210
पा ई</w> 18209
uk h</w> 18208
ण न</w> 18202
र ख</w> 18199
पर्या प्त</w> 18192
w hat 18185
साझ े 18184
घट ना 18182
पा क</w> 18181
B en 18168
सहम ति</w> 18167
प्रे रित</w> 18161
अप े 18158
h or 18157
v es.</w> 18150
Ar ticle</w> 18146
M eh 18141
सं देह</w> 18139
प ल</w> 18138
m os 18133
le av 18132
पु र,</w> 18122
गा ना</w> 18117
सै न्य</w> 18104
ती श</w> 18100
opportun ity</w> 18099
ब जा 18094
कार्य ों</w> 18093
खु ला 18093
los s</w> 18090
wit ness 18088
es tim 18078
नियु क्त</w> 18074
R eli 18072
c um 18071
मं गल 18071
प्रति क्रिया</w> 18071
तुम्ह ारा</w> 18071
m .</w> 18062
hear t</w> 18058
inde ed</w> 18057
बा न</w> 18048
मुकाब ला</w> 18047
probl ems</w> 18044
ड ु 18042
कि रदार</w> 18042
दे ती</w> 18040
il ,</w> 18039
न ज़ 18037
Afgh an 18037
ड ू</w> 18032
and ed</w> 18031
An il</w> 18028
K am 18026
श र 18022
ा ,</w> 18021
दा यर</w> 18021
निय मित</w> 18010
4 9</w> 18008
लंब े</w> 18008
के न्‍ 18005
Pr o</w> 18004
हु ए,</w> 18002
भे ज 17999
Rajas th 17998
su ic 17994
in al</w> 17993
मुताबि क,</w> 17982
Fore ign</w> 17975
B y</w> 17972
दि ख 17967
न ता</w> 17960
ru pe 17958
commun ic 17954
qu ite</w> 17950
low er</w> 17949
t ax 17947
समझौ ते</w> 17946
w ide</w> 17938
मिल ियन</w> 17938
IC C</w> 17938
सरा ह 17938
पा ंड 17937
smart phone</w> 17936
bel ong 17934
अनि ल</w> 17932
cer emon 17931
fol low</w> 17927
si x 17924
infra structure</w> 17924
विद ्या 17915
4 4</w> 17912
ज ारों</w> 17911
शु रू 17909
सा ह 17903
बा ं 17899
FI R</w> 17897
O di 17896
hat tis 17888
आई टी</w> 17887
meas ures</w> 17887
Ind ustri 17876
c ities</w> 17875
सं क्रमण</w> 17859
स न 17855
6 4</w> 17855
ther e.</w> 17849
sp o 17843
char ac 17843
औ द्योगिक</w> 17841
) :</w> 17831
Americ an</w> 17831
M os 17827
आ जा 17822
too .</w> 17822
के श</w> 17819
आतंक वादी</w> 17816
C S 17815
s anc 17811
ी ज</w> 17807
W el 17803
,0 00 17803
olog ical</w> 17799
bank s</w> 17797
wor ked</w> 17795
w ind 17785
G up 17784
me g 17783
S enior</w> 17778
ei ther</w> 17765
y ed</w> 17762
मृ त 17762
Corpor ation</w> 17757
For ce</w> 17756
C har 17754
etc .</w> 17752
राष्‍ ट्रीय</w> 17750
ति हासि 17749
डे टा</w> 17748
respec ti 17748
ऑ परे 17744
P al 17744
वैज्ञा निक</w> 17740
de dic 17734
हो गा.</w> 17731
ंकि ंग</w> 17730
foc us</w> 17726
prob lem</w> 17721
an ci 17715
खु श</w> 17715
L t 17713
श्रीलं का</w> 17712
क - 17708
ध ् 17707
जा ग 17705
बता या,</w> 17704
पर न्तु</w> 17702
ज म 17700
वन डे</w> 17693
संस्था नों</w> 17690
on e,</w> 17686
ब ों</w> 17677
S .</w> 17674
m ax 17670
हिमा चल</w> 17670
Red mi</w> 17669
वे स्ट 17667
ell ing</w> 17665
n al 17662
off er</w> 17662
उम् र</w> 17662
करे गी।</w> 17656
r ank 17652
Afghan ist 17649
es sion 17648
prog ress</w> 17648
रसू ल)</w> 17647
क ने 17646
' '</w> 17642
con cl 17632
साम ग्री</w> 17629
प्रतियो गि 17627
आ कर् 17624
om b 17624
ra j</w> 17622
र ंग 17619
मिल ता</w> 17619
कोलका ता</w> 17615
fre ed 17613
f ast</w> 17612
( पी 17602
it a</w> 17601
A )</w> 17600
responsi bility</w> 17598
m e,</w> 17597
अ ड् 17595
ख़ ि 17595
any thing</w> 17592
ser ve</w> 17587
immedi ately</w> 17584
P aw 17582
सि द्ध 17582
car ried</w> 17576
प्र ार्थ 17574
rem ov 17573
टा टा</w> 17568
समा चार</w> 17566
det er 17565
भग वान</w> 17560
st u 17559
स् पी 17558
def ence</w> 17552
ic ro 17550
countr y,</w> 17549
ar ak 17545
बढ़ ा</w> 17542
कर ा</w> 17527
ज़ ा</w> 17527
ven tion</w> 17527
व्यक् तियों</w> 17524
an - 17522
उल् लं 17522
प ड़</w> 17514
D E 17514
आन ंद</w> 17512
फ रार</w> 17511
महा मारी</w> 17502
निर् भर</w> 17478
शा ली</w> 17471
शा म</w> 17470
- 20</w> 17465
ent al</w> 17458
ha ,</w> 17457
chang es</w> 17445
ik a</w> 17444
को ,</w> 17443
लगा ए</w> 17443
mess age</w> 17438
मा ल 17437
ne igh 17437
I .</w> 17436
रख ना</w> 17434
म् ब 17433
कारा त्मक</w> 17433
अक्ष य</w> 17432
पहुंच े</w> 17431
कहा नी</w> 17428
tra in</w> 17427
M ay 17424
hear ing</w> 17416
r ation</w> 17415
pro posed</w> 17414
वा ई 17411
फ् ट</w> 17411
j a</w> 17407
मुश् किल</w> 17400
pe ac 17396
नेटवर् क</w> 17387
्य ु 17385
से ट</w> 17384
anc hay 17376
लि का</w> 17374
an t.</w> 17366
econom y</w> 17365
app reci 17365
P ur 17359
au ght</w> 17357
द स</w> 17353
spe ed</w> 17353
us tic 17349
वि शा 17345
re al</w> 17340
न म</w> 17339
प्रि य</w> 17334
comm er 17329
h r 17328
b att 17324
res ,</w> 17322
wr ong 17314
wor ds</w> 17308
तिहासि क</w> 17302
fr on 17294
Kh an,</w> 17289
डि ंग</w> 17284
म )</w> 17283
b od 17282
ne y</w> 17281
सांस् कृतिक</w> 17279
ther n</w> 17278
J D 17276
O ly 17269
y our 17266
7 0 17264
की .</w> 17262
Bri tish</w> 17262
स् क्र 17257
ब ्या 17255
reve aled</w> 17254
तरि त</w> 17248
कू ल</w> 17247
Kejri wal</w> 17247
k ept</w> 17245
H D 17243
पूर् वो 17240
m ary</w> 17239
b order</w> 17239
सं पत्ति</w> 17238
ब्रि टेन</w> 17236
सं कट</w> 17234
ट्वि टर</w> 17232
anti - 17229
wick ets</w> 17228
B hat 17226
loc k 17222
A part</w> 17220
वि ंद</w> 17218
doc um 17217
शुभ काम 17212
अफगा नि 17205
9 ,</w> 17204
म शी 17201
अध ्या 17198
m and 17192
or ies</w> 17179
har m 17179
S in 17178
de part 17178
K ore 17174
Spe aking</w> 17174
वाद ियों</w> 17173
co - 17172
वा इ 17164
t op 17160
h ours</w> 17151
them selves</w> 17149
Tel ang 17149
sup pl 17145
d eni 17144
bro ther</w> 17144
6 , 17143
tur ned</w> 17141
us i 17138
a ur 17137
mon it 17135
ad op 17130
1 50</w> 17124
at ors</w> 17115
L ak 17114
pub lic 17113
राज्य सभा</w> 17112
डाय रे 17107
उ प</w> 17104
t y,</w> 17102
स् पर् 17098
बा नी</w> 17098
मु क्त</w> 17095
्या दा 17094
oul d 17093
व नी</w> 17085
पृथ ् 17081
ग ढ़ 17080
श ही 17067
स्व तंत्र</w> 17067
को च</w> 17064
आ शा</w> 17063
मजब ू 17059
उच्च तम</w> 17059
Indi ans</w> 17057
In formation</w> 17049
गु प् 17043
डि जा 17043
मंत्रि मंडल</w> 17043
iti es,</w> 17042
हिं दी</w> 17034
ent ed</w> 17033
con gratul 17031
G oo 17028
मुख र्जी</w> 17027
ग ,</w> 17026
स त्ता</w> 17024
प् ति</w> 17021
Ch hattis 17021
ver sit 17019
id s</w> 17015
शुक्र वार</w> 17013
on s.</w> 17004
H I 17000
ent ly,</w> 16999
Ak sha 16998
3 8</w> 16986
प्रकाश ित</w> 16980
ben ch</w> 16978
tra vel 16976
sp i 16974
OD I</w> 16973
य ं 16964
दे वी</w> 16962
c ultural</w> 16959
ट्रे स</w> 16959
श्र म</w> 16957
comm is 16953
Vi jay</w> 16952
कर्म चारी</w> 16951
d ail 16936
र् ना 16936
year- old</w> 16936
se at</w> 16935
v e,</w> 16934
बे शक</w> 16933
आगा मी</w> 16928
सं सद 16926
b ha 16925
जा पान</w> 16920
Am b 16917
े गा</w> 16916
पं जी 16910
भा गों</w> 16901
sc ored</w> 16900
E ven</w> 16899
G al 16898
mar ks</w> 16898
ef ore,</w> 16895
आ लो 16890
संवे द 16886
pro m 16883
यु वाओं</w> 16871
i ther</w> 16864
चेन् नई</w> 16863
स्टो रेज</w> 16859
दि ल 16858
investig ating</w> 16858
G e 16856
201 0</w> 16856
see king</w> 16856
b ir</w> 16855
बी एस 16852
ल ी।</w> 16847
फाय दा</w> 16847
10 . 16842
p ut 16838
ह फ् 16833
धो नी</w> 16832
S um 16824
रो ल</w> 16821
t own</w> 16817
द िया.</w> 16815
खा ते</w> 16815
ML As</w> 16815
म री 16812
पू ं 16810
Au thor 16810
Or g 16809
A M 16806
ab ly</w> 16802
dest ro 16802
पार् ट 16801
ध ू 16792
क़ ा 16792
पुरु ष</w> 16792
जाए गी</w> 16791
त् कार</w> 16788
ं गा 16783
डब्ल ्यू 16778
दोष ी</w> 16774
काउ ंट</w> 16771
de ploy 16765
उत्पा द</w> 16764
g ame</w> 16760
campa ign</w> 16752
तैना त</w> 16752
I T</w> 16745
रद् द</w> 16745
don 't</w> 16740
थ ि 16739
सो च 16738
्‍ या 16738
produc ts</w> 16732
ast e</w> 16729
bo dies</w> 16727
n av 16724
dec eas 16724
M ess 16723
वि ल</w> 16720
ट ु 16718
यूनि वर् 16717
पर ं 16714
द ियों</w> 16713
पर माण 16713
मि न 16709
viol ence</w> 16709
F ollow 16708
मिले गा।</w> 16703
institu tions</w> 16701
S id 16699
I ' 16698
उ र् 16696
popul ation</w> 16688
minist ers</w> 16685
जा कर</w> 16683
de partment</w> 16679
द लों</w> 16678
S ever 16677
organ ised</w> 16672
Ch op 16669
Ad v 16666
pet rol</w> 16665
act ress</w> 16663
स िय 16660
relation ship</w> 16657
c ell 16656
दबा व</w> 16656
कह ता</w> 16650
year s,</w> 16644
gi ves</w> 16636
स्था यी</w> 16635
स् पि 16634
दृ ष्टि 16634
Ar v 16627
र ें</w> 16624
ऐ तिहासिक</w> 16620
sear ch</w> 16619
fa ith</w> 16613
इ रा 16607
संगठ नों</w> 16605
a im 16600
क ला</w> 16599
spir it 16594
ig ned</w> 16593
दि क</w> 16587
vehic les</w> 16587
फो टो 16585
h our 16584
Pras ad</w> 16583
N ath</w> 16579
जु र् 16575
ण े</w> 16574
d ed</w> 16573
सर कारों</w> 16568
poll s</w> 16564
le d.</w> 16559
th s</w> 16556
sup ply</w> 16556
si on,</w> 16552
Al so</w> 16550
हो गा,</w> 16548
four th</w> 16543
f ill 16539
su rely</w> 16537
ज त</w> 16535
Grou p</w> 16533
ज हाँ</w> 16530
ह स्त 16530
ें ,</w> 16528
sc en 16527
खा ने</w> 16524
भाष ण</w> 16517
T echnology</w> 16510
ह ल</w> 16509
employ ment</w> 16507
T est 16503
enc ed</w> 16503
पूर् वक</w> 16499
योज नाओं</w> 16499
t ell</w> 16496
Ci vil</w> 16496
4 3</w> 16491
ते लं 16483
acc ep 16482
म ण</w> 16479
खु दा</w> 16479
न्यू जी 16473
i th 16468
अ ना 16467
स च</w> 16464
आ वास</w> 16456
ic .</w> 16455
ay s</w> 16454
K ing 16450
er ation</w> 16448
M ot 16447
चौ ध 16445
Follow ing</w> 16429
आ ग्रह</w> 16428
' ' 16424
W hat 16424
दे र</w> 16421
ज मीन</w> 16420
er n 16420
pop ular</w> 16418
जर् मनी</w> 16416
S ince</w> 16413
ख ी</w> 16411
प्र सार 16411
ni gh 16411
am an</w> 16401
tra ff 16401
कार ,</w> 16400
त ्</w> 16399
प ल 16388
deli ver 16380
jo int</w> 16378
acc ess</w> 16377
ro g 16370
ल ियों</w> 16366
ृ त</w> 16365
वार् ष 16363
u red</w> 16356
l ate</w> 16356
au ti 16355
पश् चा 16355
ou t.</w> 16348
ter ror</w> 16344
गै र- 16343
त ारी</w> 16341
म ला</w> 16341
नि कल</w> 16339
respon se</w> 16330
W at 16328
अधिनिय म,</w> 16327
Commission er</w> 16324
famil ies</w> 16323
c le</w> 16322
टे क् 16321
ve y</w> 16321
प ों</w> 16318
Ra j</w> 16316
फ ार् 16305
hand ed</w> 16303
dou b 16301
निपट ने</w> 16298
सं चालन</w> 16292
आखि री</w> 16291
बचा व</w> 16288
tog e 16287
1 st</w> 16281
p rec 16274
ट्र ी</w> 16269
on ic</w> 16268
ट्रे न</w> 16265
prot est</w> 16263
performan ce</w> 16258
राज ी 16257
आउ ट</w> 16255
वकी ल</w> 16255
dr in 16254
क िया 16250
diffic ult</w> 16246
इस्ती फा</w> 16245
त् त</w> 16236
जु न</w> 16236
b ar 16235
A t 16233
ो ं,</w> 16227
ज्ञा त</w> 16227
3 8 16225
ent s,</w> 16224
( ए 16219
सो निया</w> 16217
y et.</w> 16213
श्र ृंखला</w> 16209
sp ace</w> 16208
uc k</w> 16207
गई .</w> 16207
citiz ens</w> 16203
Oly mp 16203
सं तु 16201
श ख् 16198
L im 16198
oy al</w> 16198
S C</w> 16197
experi ence</w> 16194
काउ ं 16193
T al 16191
shi ps</w> 16190
Utt arak 16184
ट्र िक</w> 16181
off ered</w> 16176
) ।</w> 16172
soci ety</w> 16171
school s</w> 16170
F ar 16169
गें द</w> 16168
न्‍ य</w> 16164
ध ों</w> 16163
ज ्य</w> 16154
bil ateral</w> 16152
b it 16151
g e 16149
सला ह 16149
ें ज</w> 16147
प ड़े</w> 16140
ब ेंग 16136
p ain 16126
an al 16124
ची फ</w> 16123
m oun 16117
langu age</w> 16117
Beng al 16114
ज्ञा पन</w> 16110
end er</w> 16109
dra w 16101
D o 16095
ियो ं,</w> 16091
so on.</w> 16089
तारी ख</w> 16082
स् ती</w> 16080
st ay</w> 16075
स ्रो 16071
K ha 16071
फ्र ें 16071
ag ue</w> 16068
cont ro 16068
उल्लं घन</w> 16066
res id 16065
चाह ती</w> 16056
सर्व श्रेष्ठ</w> 16052
पा द 16049
डा ल</w> 16048
आस पास</w> 16048
डा उन</w> 16047
सुझा व</w> 16046
विधाय कों</w> 16046
बी सीसी 16043
न्‍ न</w> 16037
अधि कां 16035
th ing.</w> 16032
confir med</w> 16032
nat ural</w> 16025
exist ing</w> 16025
tor .</w> 16021
द्वि पक्षीय</w> 16021
अधिक तम</w> 16020
M in 16018
f ast 16018
पश्चि मी</w> 16016
परमाण ु</w> 16015
u v 16014
Him achal</w> 16014
ज्ञ ा</w> 16008
me th 15999
सी धे</w> 15995
th ough 15993
o j 15989
be t 15978
ठ े</w> 15974
w ants</w> 15972
उत् तर 15972
ग ू 15971
min d</w> 15968
दा खिल</w> 15966
do es 15966
लड़ ाई</w> 15965
प हा 15959
सिस्ट म</w> 15956
विशि ष्ट</w> 15955
6 4 15953
and em 15952
टि कट</w> 15952
3 9</w> 15951
u re,</w> 15948
व्यव हार</w> 15946
बु ध 15942
टू र्ना 15942
टिप्प णी</w> 15940
लॉ क 15938
d res 15937
हस्ता क्षर</w> 15933
रे शन</w> 15930
th ank 15929
La w</w> 15928
oper ation</w> 15925
ow ,</w> 15923
st er</w> 15920
st op</w> 15918
आंदो लन</w> 15917
वर् ती</w> 15916
Arv ind</w> 15913
ac ted</w> 15910
वर्ष ीय</w> 15908
J i 15904
provisi ons</w> 15904
sch eduled</w> 15902
भागी दारी</w> 15901
न्याय मूर्ति</w> 15895
ड्रा इ 15890
ड् स</w> 15882
श नि 15879
employ ees</w> 15877
्यादा तर</w> 15875
Pat el</w> 15871
D onal 15870
इ जा 15869
t uring</w> 15865
Na id 15861
ab h</w> 15857
tal ks</w> 15857
ga ther 15849
पा ए</w> 15846
complet ed</w> 15846
कप् ता 15844
r ise</w> 15839
F rom</w> 15839
ने स</w> 15839
sh ot</w> 15816
रु द्ध</w> 15812
श्रे णी</w> 15812
direc t</w> 15801
वर् धन</w> 15786
ं )</w> 15785
U P 15785
ind ra</w> 15784
ल य,</w> 15782
ओ डि 15782
p ul 15782
चा लित</w> 15777
er - 15776
au l</w> 15768
स्व रूप</w> 15767
आईपी एल</w> 15765
op position</w> 15764
issu e.</w> 15762
ओ वर</w> 15760
कर्म ियों</w> 15758
ड न</w> 15754
A D 15753
air cra 15752
ful .</w> 15745
pur cha 15740
U p 15738
f al 15736
बी आई</w> 15733
S o 15726
गुणव त्ता</w> 15722
C .</w> 15720
op ening</w> 15720
अक् सर</w> 15716
b ul 15712
रह ना</w> 15706
स्टे ट</w> 15699
अन् तर्गत</w> 15695
ध र</w> 15694
इन् हें</w> 15692
Son ia</w> 15689
lat est</w> 15687
g en 15682
bigg est</w> 15680
ले ना</w> 15678
infl u 15678
कि न्तु</w> 15677
ल ख 15674
ca used</w> 15673
ब हा 15672
v an</w> 15672
सम् मानित</w> 15671
av o 15669
मंगल वार</w> 15665
Yad av 15664
ज़ ी</w> 15658
थ ों</w> 15657
dis ci 15651
Constitu tion</w> 15648
u .</w> 15643
C ur 15643
fac ing</w> 15639
सौ ं 15628
अ का 15625
V is 15624
continu ed</w> 15623
च ढ़ 15619
ल ती</w> 15617
न्यू नतम</w> 15615
स वार</w> 15607
राजी व</w> 15605
( एस 15603
fel t</w> 15599
partic ul 15598
ई रान</w> 15597
implement ation</w> 15596
acc ident</w> 15592
ता .</w> 15591
ग्र ु 15586
2019 :</w> 15582
दुर् घटना</w> 15577
al most</w> 15574
st ep</w> 15569
सी ,</w> 15567
eff ect</w> 15566
है या</w> 15561
चे यर 15554
establ ished</w> 15547
ध न 15538
200 9</w> 15535
alleg edly</w> 15535
max imum</w> 15535
pha se</w> 15530
administr ation</w> 15528
fil ms</w> 15527
Muk her 15525
demand ed</w> 15524
mi gr 15523
an s,</w> 15520
inc h</w> 15518
sur ance</w> 15510
बा दी</w> 15507
ं टन</w> 15504
0 .</w> 15503
विरो धी</w> 15501
दर् शा 15499
an s.</w> 15497
M ore</w> 15494
ब री</w> 15493
कै ं 15485
author ities</w> 15484
सराह ना</w> 15475
all ow</w> 15471
ह द</w> 15470
टी ,</w> 15469
tal k</w> 15467
म क 15460
डॉ क् 15455
Afric a</w> 15451
tour nam 15450
िया र</w> 15449
BCC I</w> 15447
oc c 15445
बि नेट</w> 15442
मं च</w> 15440
Cha irman</w> 15438
एन डी 15434
n ,</w> 15427
ता - 15426
jo in</w> 15423
प ि</w> 15419
am i</w> 15418
bil lion</w> 15410
रिए ंट</w> 15410
s ent 15408
रही ।</w> 15407
श पथ</w> 15406
ला स</w> 15406
बं दी</w> 15406
ext ended</w> 15393
foo t 15393
B ad 15391
मह त्व</w> 15391
re ti 15388
संस् करण</w> 15388
0 ,</w> 15386
Sever al</w> 15382
यु वक</w> 15379
Jan ata</w> 15379
र जि 15376
स ारा</w> 15376
आरोप ों</w> 15376
आधु निक</w> 15374
M il 15373
तैय ारी</w> 15363
रा य 15362
bir th</w> 15360
ship .</w> 15360
w is 15359
प् ले</w> 15357
prom ote</w> 15357
ecu tive</w> 15351
रख ता</w> 15349
ति न</w> 15344
खिला ड़ियों</w> 15343
S ou 15342
चे ता 15342
Ah med 15342
छू ट</w> 15335
अधिकां श</w> 15334
बी मा</w> 15328
E ver 15325
L eg 15323
ish ing</w> 15323
st ory</w> 15322
ट र्स</w> 15319
मू सा</w> 15319
H on 15318
th ought</w> 15318
जा नी</w> 15318
Tha k 15318
' re</w> 15315
ज् ञ</w> 15314
ठा कु 15314
अक्टू बर</w> 15313
N ot</w> 15312
t y.</w> 15311
हिस् से</w> 15306
की मतों</w> 15305
sa y,</w> 15304
ch e 15302
succ ess</w> 15300
सी मा 15298
ट िक</w> 15297
mov ed</w> 15295
charg es</w> 15292
वाह नों</w> 15291
इस लिए,</w> 15290
The ir</w> 15290
प्र दू 15287
Donal d</w> 15280
s ex 15273
सम ृ 15271
requi re 15271
hand s</w> 15269
other s.</w> 15266
कब् जे</w> 15265
न ही</w> 15259
वा णी</w> 15250
ar ti 15249
vis ited</w> 15245
b us</w> 15242
concer ned</w> 15242
th ou</w> 15241
नी ल</w> 15240
( I 15239
V en 15238
अ ंड 15236
ज मान 15232
prov ides</w> 15230
भ ंड 15229
tw o- 15226
भ ौ 15225
( F 15225
वार्ष िक</w> 15224
ne arly</w> 15223
G ov 15222
Ab d 15214
minist ry</w> 15213
स्‍ व 15211
sh e 15210
च ला 15209
er ve</w> 15206
पे श 15201
संसद ीय</w> 15200
a :</w> 15198
ए ँ 15197
मान व 15195
सी मित</w> 15194
pres ence</w> 15194
ल ियम</w> 15190
अ जय</w> 15189
cour se</w> 15189
' ,</w> 15188
st y 15184
h und 15181
पृथ् वी</w> 15181
दा स</w> 15180
बुध वार</w> 15178
को य 15177
ad i</w> 15175
S rin 15171
सु धार 15170
5 1</w> 15168
ो तरी</w> 15167
C P 15165
har d 15165
( B 15159
x ed</w> 15157
व रों</w> 15153
ati s 15150
God .</w> 15150
i ous</w> 15148
देख ें</w> 15128
sh ort</w> 15127
स श 15125
स् त्र 15125
im prove</w> 15121
ab s 15119
and .</w> 15116
T ur 15115
re ferred</w> 15115
लोक तंत्र</w> 15114
s e.</w> 15113
ने - 15109
spokes person</w> 15098
signific ant</w> 15095
( E 15094
संके त</w> 15090
lit re</w> 15089
ल् ला</w> 15088
ur ban</w> 15085
ड् डी</w> 15084
rang e</w> 15084
टूर्ना मेंट</w> 15084
i - 15081
th r 15079
क ट् 15074
K an 15073
vi a</w> 15068
sub - 15066
o st 15064
H er 15062
effec tive</w> 15051
नाय डू</w> 15049
emb er,</w> 15047
tiv ity</w> 15046
est er 15039
एक् ट्रेस</w> 15035
वि स् 15031
neigh b 15027
P ra 15021
rel ations</w> 15015
प्रा इ 15011
tru th</w> 15007
ना क</w> 15004
ar rest</w> 15003
rem ained</w> 14999
facil ities</w> 14997
कि ,</w> 14994
इम रान</w> 14993
ur g 14989
et er 14985
कै बिनेट</w> 14985
N ow</w> 14977
r ates</w> 14976
God ,</w> 14969
e m</w> 14967
Re al 14963
Ser vices</w> 14962
death s</w> 14960
अ के 14958
भ्र ष्टा 14958
publ ished</w> 14956
stat us</w> 14954
ent er</w> 14949
तना व</w> 14943
अ शोक</w> 14939
नौ सेना</w> 14936
w ish</w> 14935
9 , 14935
ak er</w> 14925
फा ई</w> 14925
सेवा एं</w> 14919
Asi an</w> 14919
f ar.</w> 14916
i er</w> 14912
ter s.</w> 14911
यूरो प 14906
test ed</w> 14905
c ard</w> 14904
जु ड़ी</w> 14904
अला वा,</w> 14904
नि र 14900
मि ता 14898
अर विंद</w> 14894
अ तः</w> 14893
ध नों</w> 14891
मा ता</w> 14891
भ ट् 14890
सम क्ष</w> 14888
B ig 14885
o gi 14881
सि विल</w> 14881
ध ्या</w> 14877
tri ed</w> 14877
क न् 14876
(1 )</w> 14875
peti tion</w> 14868
success ful</w> 14867
did nt</w> 14863
S ach 14858
सो च</w> 14858
ार ी 14856
ni vers 14855
famil y.</w> 14855
B ill</w> 14854
re view</w> 14851
प्रार्थ ना</w> 14851
ड र 14850
st op 14849
उत् पन्न</w> 14843
set t 14837
दृ ष्टि</w> 14834
doc tors</w> 14833
ने पाल</w> 14830
द ंड</w> 14821
Inde pend 14813
उ ंड 14810
शू टिंग</w> 14808
इंटर नेट</w> 14806
Alla h,</w> 14805
अर् था 14805
ड़ े</w> 14803
विद्य ु 14803
st ra 14799
ri p 14799
कार्य क्रमों</w> 14797
ed s</w> 14794
प्र ण 14789
medi c 14785
Ja it 14782
u es</w> 14779
Sch ool</w> 14776
Secret ary,</w> 14769
ic ally</w> 14768
नि रा 14766
o be 14765
प्र त्या 14764
J as 14763
पी )</w> 14763
inter nal</w> 14757
ब ्यू 14755
न ौ</w> 14754
रै म</w> 14754
वा ं</w> 14752
निर्वा चन</w> 14750
म ल् 14744
p ,</w> 14742
जी तने</w> 14737
त :</w> 14736
न ज 14733
coll ec 14732
O ther</w> 14725
20 21</w> 14722
दा म</w> 14722
न्याय िक</w> 14722
J ay 14720
imp act</w> 14719
बना ना</w> 14716
प्रति बंध</w> 14706
men tioned</w> 14701
उल् लेख</w> 14700
saf ety</w> 14698
k et</w> 14691
बद ला</w> 14690
लंब ित</w> 14687
de al 14684
सि न् 14683
या त्री</w> 14681
c lim 14677
V al 14677
ब त</w> 14675
पा स 14673
शि खर</w> 14673
झार खंड</w> 14665
हिं दु 14662
इं स्टा 14661
fr u 14661
v ent 14659
पि का</w> 14659
fi f 14656
7 , 14655
रवि वार</w> 14655
ate gi 14651
सो ने</w> 14646
twe et 14645
200 8</w> 14645
deni ed</w> 14643
reli ef</w> 14636
Hyder abad</w> 14634
की )</w> 14629
proc eed 14628
न्यूजी लैंड</w> 14625
शै क्ष 14621
ac tions</w> 14619
कर् म</w> 14618
4 6</w> 14614
गो वा</w> 14614
आ म 14612
पू जा</w> 14609
Stud ents</w> 14609
Aksha y</w> 14609
सुर क्षा 14608
अफगानि स्तान</w> 14608
g er</w> 14606
कार्य कर्ताओं</w> 14595
cont rol 14594
Ex ternal</w> 14591
ार् ड</w> 14590
con vic 14588
अध ी 14584
Dav id</w> 14584
t ar</w> 14583
recog ni 14582
ध म 14579
स् त्री</w> 14578
cre dit</w> 14576
A w 14575
fac t</w> 14575
as pec 14570
उठा ए</w> 14569
शख् स</w> 14568
द िया,</w> 14566
व चन</w> 14565
संर चना</w> 14564
इंजी निय 14564
cro re.</w> 14563
8 GB</w> 14556
रै ली</w> 14555
जर िये</w> 14554
hol ds</w> 14551
ou s.</w> 14550
उ ठा</w> 14549
वि तरण</w> 14546
au di 14541
5 2</w> 14540
jo y</w> 14534
ए शन</w> 14531
फ ंड</w> 14527
व्यक् तिगत</w> 14527
A jay</w> 14526
म ण् 14523
ord ers</w> 14523
sh i</w> 14522
कार णों</w> 14520
p andem 14514
ड़ ा</w> 14512
discus sed</w> 14509
4 1</w> 14507
jud ge</w> 14507
m ach 14502
j oy 14496
जी ,</w> 14492
wro te</w> 14490
मिल ती</w> 14488
y an</w> 14486
च् छ</w> 14484
शे ष</w> 14484
mov ement</w> 14484
f er</w> 14481
O b 14476
sh ort 14469
M S</w> 14460
ne g 14460
नो टिस</w> 14457
i an</w> 14455
O R 14455
st ood</w> 14454
वा यु 14453
F ace 14448
R ak 14445
ev idence</w> 14443
एम एस 14442
म स 14438
पक्ष ी</w> 14424
विद्य ार्थियों</w> 14419
मिल ते</w> 14415
pot ential</w> 14414
at e.</w> 14412
mo han</w> 14411
wh e 14410
k ill</w> 14409
हू ं.</w> 14409
C R 14405
com pris 14401
संघ र्ष</w> 14391
उप राष्ट्रपति</w> 14390
Rep ublic</w> 14390
निर्मा ता</w> 14387
pre h 14384
Mr .</w> 14383
वास्त विक</w> 14382
Ma j 14381
बी मारी</w> 14379
सम ्‍ 14377
C re 14376
con su 14376
बता ते</w> 14376
त ौ 14375
तुम से</w> 14374
Com mer 14371
del eg 14368
शं कर</w> 14367
main tain 14367
passeng ers</w> 14367
छो टी</w> 14362
फॉर् म</w> 14362
बा ढ़</w> 14355
B r 14351
a us 14350
pri mary</w> 14347
ci vil</w> 14346
आप ने</w> 14346
aver age</w> 14345
G am 14342
सा व 14338
streng th 14335
ब्या ज</w> 14335
Ar ab 14331
ag ency</w> 14328
टि ल</w> 14328
bl ood</w> 14325
sa ve</w> 14324
ix el</w> 14322
believ ed</w> 14320
chang ed</w> 14319
s - 14317
b ra 14317
s man</w> 14316
Ar un</w> 14316
अंतरि क्ष</w> 14315
शनि वार</w> 14311
u el</w> 14308
Ser vice</w> 14303
Sci ence</w> 14303
i v</w> 14299
क न</w> 14293
thre e- 14292
अव ै 14288
on s,</w> 14287
happ en 14287
पा ंच 14283
ली ग</w> 14283
क्रि के 14281
see k</w> 14280
ते ,</w> 14279
grow ing</w> 14278
सु ल 14277
sp orts</w> 14273
tu re.</w> 14273
त ी।</w> 14270
स व</w> 14265
mo del</w> 14261
es )</w> 14258
मे श</w> 14256
ला य 14254
लड़ की</w> 14251
clos ed</w> 14251
appl y</w> 14245
peri od 14234
ं भ 14233
w ise</w> 14233
जन् म 14233
सर् वि 14232
निशा ना</w> 14232
er 's</w> 14230
b esides</w> 14225
त थ 14221
क ीय</w> 14220
exam ination</w> 14220
recei ve</w> 14220
rail way</w> 14220
जा या</w> 14219
se ized</w> 14219
वार् ता</w> 14218
12 . 14216
gre ater</w> 14214
S T 14213
hous es</w> 14211
राष्‍ ट्र 14208
targ et</w> 14206
रि जल् 14205
व ारी</w> 14204
m A 14204
cr is 14204
tific ation</w> 14204
ver s</w> 14203
V ik 14201
नि रं 14200
ए - 14199
India - 14193
and a</w> 14189
एस ो 14189
lit er 14185
L uc 14183
स् य</w> 14183
अब् दु 14182
RA M</w> 14178
e 's</w> 14177
सा गर</w> 14174
func tion</w> 14173
( 3 14172
भार ती 14171
खरी द 14170
p ath 14169
जल ि</w> 14169
बु री</w> 14168
Big g</w> 14168
assist ance</w> 14166
बल्लेबा जी</w> 14165
Wom en</w> 14165
निर् दे 14163
पवि त्र</w> 14163
उठा ने</w> 14161
des ign 14158
F arm 14157
य ौ 14156
ur ged</w> 14156
परि वारों</w> 14155
पड़ ता</w> 14145
भो जन</w> 14145
sus pec 14142
कार्य कारी</w> 14141
op pos 14138
तत् काल</w> 14138
g reg 14133
9 5</w> 14133
grou ps</w> 14129
As sa 14126
Chenn ai</w> 14125
bl ess 14124
friend s</w> 14123
vir al</w> 14117
hear d</w> 14115
u ment</w> 14114
D P</w> 14112
प्र बंध 14109
K o 14099
जाए ँ 14094
पु स् 14085
H er</w> 14081
ह ल् 14079
दी पिका</w> 14079
सं गीत</w> 14077
throu gh 14077
pre par 14076
Re gi 14076
con ver 14072
तस्वी रें</w> 14072
sour ce</w> 14070
मिले गी।</w> 14069
b ag 14064
opportun ities</w> 14064
Me di 14063
पुरा ने</w> 14063
क् यू 14059
. ,</w> 14058
वार् य</w> 14057
soci et 14055
min imum</w> 14053
महा सचिव</w> 14053
lin es</w> 14053
Pr ak 14052
भा ल</w> 14049
W ar 14043
व री,</w> 14035
यू पी</w> 14034
jo b</w> 14034
रा ह</w> 14032
W ater</w> 14029
शर् मा,</w> 14029
उत्पा दों</w> 14027
N R 14025
pro mo 14021
ब ारा</w> 14019
श ौ 14019
सं क्र 14019
बि ल 14015
centur y</w> 14015
जे टली</w> 14014
१ ९ 14012
p u 14008
know s</w> 14008
att end</w> 14005
uc le 14002
R BI</w> 14001
शी घ 13998
ध व</w> 13996
न् द</w> 13987
अनि वार्य</w> 13987
डे ट</w> 13986
जो ड़ 13983
दिव सीय</w> 13983
L at 13977
alli ance</w> 13977
ब ू</w> 13973
y p 13972
मनु ष्य</w> 13972
लंब ी</w> 13970
rap e</w> 13970
S P 13967
स् क</w> 13967
it er 13967
ent er 13966
लॉक डाउन</w> 13962
increas ing</w> 13959
नो ट</w> 13957
bow l 13957
c ent.</w> 13955
अभि न 13955
con d 13954
T our 13949
हा उस</w> 13949
g as</w> 13947
inn er</w> 13945
अ श् 13944
in side</w> 13941
no tice</w> 13937
par liam 13934
bu ild</w> 13933
रहे गा।</w> 13933
श िया</w> 13927
m b 13927
सा नी</w> 13925
anc ing</w> 13925
इंस्टा ग्राम</w> 13924
दो स्त</w> 13920
फ्रा ंस</w> 13920
jour nal 13918
च लता</w> 13917
स् व</w> 13915
मो र् 13915
से ल</w> 13914
responsi ble</w> 13913
F ur 13911
Pr an 13910
ext rem 13907
k ar 13905
म् बर</w> 13897
occasi on,</w> 13897
W it 13896
de pos 13893
घट नाओं</w> 13892
यूनिवर् सिटी</w> 13888
charg ed</w> 13886
mar ried</w> 13885
इ तनी</w> 13883
भ्रष्टा चार</w> 13882
terror ists</w> 13880
B a 13879
ag ing</w> 13876
ग ंगा</w> 13874
c ut</w> 13874
de vo 13874
ल वा 13872
वि पक्ष</w> 13870
कर ण 13864
hou se 13864
आ बादी</w> 13863
freed om</w> 13862
चाहि ए 13857
coll abor 13857
S c 13855
are a.</w> 13852
v ac 13849
तेलं गाना</w> 13846
गिरफ् तारी</w> 13845
डॉ क्टर</w> 13842
Ban er 13839
op ened</w> 13837
ques tions</w> 13836
खू ब</w> 13835
2017 -1 13834
S ports</w> 13831
Twit ter</w> 13831
ou d</w> 13829
सं ग</w> 13826
सद न</w> 13823
ब हन</w> 13821
द या 13820
ligh ts</w> 13820
ant ly</w> 13819
समर् पित</w> 13813
फ्र ंट</w> 13810
द्वी प</w> 13807
मं ड 13806
exam in 13805
U d 13804
9 0 13803
ore .</w> 13799
L et</w> 13796
import ance</w> 13786
fund s</w> 13785
conduc t</w> 13782
करा ई</w> 13781
स्व स्थ</w> 13777
S E 13776
Earli er,</w> 13776
a h,</w> 13775
Ak h 13775
गेंदबा ज</w> 13772
पा दन</w> 13766
pl ans</w> 13763
म ल 13755
in a</w> 13755
c ros 13751
उत्पा द 13750
ard .</w> 13748
8 5</w> 13746
ओ लं 13744
Lord ,</w> 13744
prep ared</w> 13744
er ous</w> 13743
Am it 13732
judi cial</w> 13729
ति थि</w> 13728
P a 13727
पढ़ ें</w> 13724
quir y</w> 13723
Nad u</w> 13721
B oss</w> 13718
post ed</w> 13717
पार ित</w> 13717
celebr ated</w> 13717
el ines</w> 13715
, """"</w> 13714
all - 13714
pay ment</w> 13712
अं तर</w> 13711
के )</w> 13709
ex am</w> 13708
BJP .</w> 13707
w inning</w> 13706
खो ज</w> 13706
m ut 13700
का ओं</w> 13700
righ te 13700
गै र</w> 13696
खुला सा</w> 13696
ol ogi 13695
H um 13694
G lo 13691
P F</w> 13690
cas t</w> 13687
ver se</w> 13685
औ सत</w> 13683
dail y</w> 13680
lead ership</w> 13678
झ ट 13675
र )</w> 13672
en su 13671
सी जन</w> 13662
परि क</w> 13659
गृ ह 13658
particip ated</w> 13657
ord ered</w> 13654
ज़ ि 13653
विस्त ृत</w> 13653
r ich</w> 13652
ribu ted</w> 13652
जमान त</w> 13652
nam es</w> 13651
n e</w> 13649
S C 13648
R ukh</w> 13647
T em 13643
as hi 13639
inju red.</w> 13639
त मा 13638
- वि 13638
spe ak</w> 13637
x a 13632
Engl ish</w> 13631
बड़ ी</w> 13629
S war 13628
prof ession 13626
F C</w> 13624
shi f 13621
Dhon i</w> 13618
मा ह</w> 13613
टि श</w> 13610
appro pri 13610
I D</w> 13609
स्ट ॉ 13607
aw ard</w> 13605
फा इल</w> 13604
नागरि कता</w> 13596
समस्या ओं</w> 13596
प्राव धान</w> 13595
ri ver</w> 13590
um ,</w> 13590
स्‍ थ 13590
श्री मती</w> 13590
र् य</w> 13589
जि ंग</w> 13586
जाए गा.</w> 13586
ब ौ 13584
Ash ok</w> 13583
आ यात</w> 13581
P i 13581
ann ual</w> 13575
चंडी गढ़</w> 13575
8 - 13574
V id 13573
चो ट</w> 13572
Deep ika</w> 13572
H A 13571
as sa 13571
vehic le</w> 13571
सलाह कार</w> 13570
द् धि 13569
क् कर</w> 13567
फा इ 13566
अर् जुन</w> 13565
रि जर् 13561
Am end 13561
र िया 13559
ell ed</w> 13558
te l</w> 13554
घ े 13548
ne ither</w> 13548
चौध री</w> 13545
tion ing</w> 13544
इका ई</w> 13544
princ i 13542
r ying</w> 13539
Econom ic</w> 13537
ग्रु प</w> 13536
त लब</w> 13535
l ess 13534
ल म</w> 13533
है )</w> 13530
क मे 13529
Christi an</w> 13529
tra vel</w> 13528
Ch r 13522
मह त् 13518
ष ों</w> 13513
शब् दों</w> 13513
आ कार</w> 13510
certain ly</w> 13510
ना त्मक</w> 13506
spi rit</w> 13504
fl ow 13501
बा जी</w> 13498
S uch</w> 13497
so .</w> 13497
लि न</w> 13496
सी ख 13494
Ch ou 13492
दि शा 13491
Tr ansp 13490
च लने</w> 13489
ar am</w> 13489
s end</w> 13488
स ौ</w> 13487
‍ या 13487
वि रुद्ध</w> 13487
lo ad</w> 13486
g od 13483
thous and</w> 13481
en coun 13479
ash ed</w> 13479
फे सब 13479
प्रा चीन</w> 13472
स ख्त</w> 13471
Asi a</w> 13471
5 6</w> 13470
s atis 13469
ग ज</w> 13468
मार् ग 13464
स्थि तियों</w> 13463
न्व यन</w> 13463
जल् दी</w> 13454
o di 13453
j ustice</w> 13453
खे ला</w> 13453
cap tain 13453
w ish 13452
temper ature</w> 13451
pres ent.</w> 13448
श ,</w> 13446
अग ली</w> 13445
consid er</w> 13444
5 4</w> 13443
एफ आई 13443
ve er</w> 13438
पहुंच ने</w> 13437
res ign 13436
Mon day</w> 13435
Bengal ur 13434
rem ains</w> 13431
bat ter 13430
चेयर मैन</w> 13430
सै निक</w> 13424
ax y</w> 13424
क्षा ओं</w> 13423
attack .</w> 13422
हफ् ते</w> 13420
ju n</w> 13418
y ?</w> 13417
ste ad</w> 13417
सं वाद 13415
pend ing</w> 13411
oper ations</w> 13410
M and 13404
दा बाद</w> 13401
L ond 13398
बीसीसी आई</w> 13397
हू ं,</w> 13396
ar y.</w> 13392
ल ें।</w> 13391
अहम द</w> 13388
Assa m</w> 13388
all y.</w> 13385
C am 13383
वर् ल्ड</w> 13380
ac ting</w> 13376
exam ple</w> 13376
सचि न</w> 13373
dig ital</w> 13364
M er 13362
fail ed</w> 13361
Agric ulture</w> 13359
con ference</w> 13353
w icket 13350
P A 13350
डे वि 13346
li p 13343
अवै ध</w> 13339
ते रे</w> 13338
Associ ation</w> 13338
य हू 13337
no te</w> 13337
con v 13336
eff ici 13335
spo ke</w> 13330
f em 13327
1 1. 13324
go es</w> 13323
न्या स</w> 13318
condi tions</w> 13318
meg ap 13317
n ap 13316
O ver</w> 13316
Pakist an.</w> 13315
mod ern</w> 13314
Sing h.</w> 13313
प्र सिद्ध</w> 13312
show s</w> 13312
दूसर ों</w> 13311
j an</w> 13308
Pl us</w> 13303
an ath</w> 13300
बना कर</w> 13300
Ro ad</w> 13300
नौ करी</w> 13294
है ।"</w> 13291
बच्च न</w> 13291
Ever y 13289
b le.</w> 13288
के .</w> 13288
लि स्ट</w> 13287
post - 13287
all ,</w> 13282
पड़ ा 13282
d ang 13281
eng ine 13280
Mis sion</w> 13278
अ मिता 13277
हिस् सों</w> 13275
streng then</w> 13275
- based</w> 13273
हि क</w> 13269
cont est</w> 13263
Euro pe 13261
partic ular</w> 13260
श तक</w> 13258
च ली</w> 13254
प्रश् न</w> 13246
ख़ ा 13244
इस ्रा 13240
ani ,</w> 13240
स्कू लों</w> 13240
सें टर</w> 13239
ए ं।</w> 13237
o ts</w> 13230
ती ,</w> 13229
शाह रुख</w> 13224
सै निकों</w> 13218
ध न्य 13217
tr act</w> 13217
oc cur 13216
बिल् कुल</w> 13213
शा ला</w> 13209
maj ority</w> 13200
cas h</w> 13198
Schem e</w> 13198
प्रो फे 13193
इंत जार</w> 13193
m ar</w> 13191
वाप सी</w> 13190
विश्‍ वास</w> 13190
आ ग 13189
विस् फो 13189
a p</w> 13188
नि कट</w> 13182
मरी जों</w> 13177
2 50</w> 13176
nom in 13173
cor por 13171
vic tory</w> 13168
सी ई 13166
सें सर</w> 13163
all .</w> 13162
प्रतियोगि ता</w> 13162
वि वाह</w> 13161
विश् ले 13159
N G 13158
children .</w> 13156
in struc 13152
सं हि 13151
पड़ ो 13150
प्रशा स 13147
दिल् ‍ 13146
t echnolog 13144
लू म</w> 13141
स्तर ीय</w> 13135
शिय ल</w> 13133
cri minal</w> 13130
bor n</w> 13123
eng ine</w> 13118
-1 7</w> 13117
K ov 13116
t able</w> 13106
v es,</w> 13105
hol ding</w> 13105
ri g 13104
cas e,</w> 13104
equ al</w> 13103
set ting</w> 13100
lear n</w> 13099
N ote</w> 13098
F i 13098
ब्रि टिश</w> 13095
organi z 13093
re pe 13092
सि स</w> 13091
क् त 13086
थी ं</w> 13085
gre at 13076
क्‍ ति</w> 13075
tic s</w> 13074
सी न</w> 13072
स्‍ वा 13070
ank ar</w> 13070
मही नों</w> 13069
individ u 13068
नि वासी</w> 13063
को रिया</w> 13063
in s 13058
ख ड़े</w> 13053
elec tions.</w> 13047
Vi j 13046
\\ xa 13042
all ed</w> 13029
रिजर् व</w> 13028
एक् टर</w> 13025
प्र बंध</w> 13021
Naid u</w> 13021
उ तर 13016
तरी न</w> 13016
NC P</w> 13016
अमिता भ</w> 13011
W ill</w> 13007
6 00</w> 13006
खतर ा</w> 13005
A no 13004
शुरू आत</w> 13002
क ना 13000
sun g</w> 13000
fri end</w> 12995
द्र ा 12992
M ish 12987
bir th 12987
Pow er</w> 12987
पूर् व 12986
sil ver</w> 12986
क मि 12984
क ब</w> 12981
ट्र ो</w> 12979
वि वा 12975
need ed</w> 12975
पे ट</w> 12971
Frid ay</w> 12969
कुमार ,</w> 12965
बी ते</w> 12962
agre ed</w> 12961
7 2</w> 12958
P en 12953
मा नी</w> 12952
f resh</w> 12951
head ed</w> 12945
है । 12944
w on 12943
6 .</w> 12943
इच्छ ा</w> 12942
W est 12939
ब द्ध 12938
आई एस 12938
D al 12937
हौ ल</w> 12937
T 20 12936
ple a</w> 12935
सर ों</w> 12930
bl ack</w> 12928
क्ष कों</w> 12926
re ven 12922
Fir st</w> 12922
Bha g 12920
br id 12913
F ood</w> 12911
Im ran</w> 12910
Man mohan</w> 12909
or s,</w> 12907
mA h</w> 12903
साझे दारी</w> 12901
Real me</w> 12898
न लिखित</w> 12896
D M 12893
pic ture</w> 12888
Hospit al</w> 12888
अरु ण</w> 12888
कॉ र् 12886
f am 12885
बेंग लु 12883
मन मोहन</w> 12881
o ever</w> 12879
facil it 12876
स्ट ै 12875
H ous 12872
कार ियों</w> 12872
न्य ू</w> 12871
Mess eng 12867
िय ु 12862
गा ह</w> 12862
ach ed</w> 12852
ओ ं,</w> 12850
recei ving</w> 12849
Ph one</w> 12848
ंग् स</w> 12844
F amil 12843
5 7</w> 12841
मा ँ 12837
का न 12836
दिखा या</w> 12833
Joh n</w> 12833
sub ject</w> 12831
pl an 12827
बढ़ ती</w> 12827
Bhar ati 12826
countri es.</w> 12825
U N</w> 12818
sur vi 12816
वा ना</w> 12814
N I 12813
cl ass 12812
mor tem 12812
un its</w> 12811
ab ad,</w> 12807
लग ने</w> 12806
जल वायु</w> 12805
b ac 12804
de gre 12804
v acc 12802
जी व</w> 12802
उत् तरी</w> 12801
rol es.</w> 12800
एसो सि 12800
L al 12799
परि सर</w> 12797
कि ए।</w> 12795
जवा नों</w> 12795
L ad 12793
20 00</w> 12793
Amit abh</w> 12788
wr ong</w> 12785
rejec ted</w> 12784
शही द</w> 12784
un d</w> 12783
त् मा</w> 12782
छत्तीस गढ़</w> 12782
ro om</w> 12779
ic ,</w> 12779
limit ed</w> 12776
Cha mpi 12775
A mar 12774
deter min 12774
तुम ने</w> 12771
actu ally</w> 12770
Musli ms</w> 12769
बेह तरीन</w> 12761
ha d 12760
b ab 12758
us ion</w> 12758
म मता</w> 12755
या .</w> 12751
er a</w> 12748
Kolk ata</w> 12745
C ar 12742
stud ent</w> 12741
ग वर् 12740
चाहि ए,</w> 12738
क पि 12736
gar h,</w> 12734
जो खि 12732
Alla h 12732
लोक प्रिय</w> 12730
streng th</w> 12730
government ,</w> 12729
श ॉ 12726
Yog i</w> 12726
Th ere 12725
sig n 12725
लिखा ,</w> 12725
क् लिक</w> 12724
तु र् 12724
Pro duc 12716
शीघ ्र</w> 12716
8 , 12713
सि वा</w> 12708
सू रत</w> 12705
बड़ ा</w> 12705
खे लों</w> 12700
मु हैया</w> 12699
न ार 12696
A ,</w> 12694
डा उन 12691
Gal axy</w> 12687
ar ch 12685
h un 12684
था ना</w> 12684
एस .</w> 12683
क ू</w> 12681
s la 12681
म ल</w> 12679
( T 12679
K are 12679
sh own</w> 12678
र खा 12673
सि द्धा 12673
cont rib 12670
प्र माण 12667
निर् मित</w> 12667
डो ना 12666
th - 12664
re - 12664
Cov id 12664
re pl 12662
ech an 12662
ter rit 12660
घं टों</w> 12658
क् वि 12657
सि क् 12651
धर् म 12647
devel op</w> 12646
Ind ustr 12646
aut om 12645
re fl 12644
स भा 12642
पूछ ा</w> 12642
play s</w> 12639
schem es</w> 12639
ओलं पिक</w> 12639
मर् श</w> 12638
सम् बन् 12637
olog y</w> 12637
प्राथमि कता</w> 12637
re ar</w> 12635
सु नील</w> 12635
मा हौल</w> 12633
विजे ता</w> 12632
चेता वनी</w> 12632
heav ens</w> 12630
े गी।</w> 12628
सा थी</w> 12624
centr e</w> 12619
फा न</w> 12618
ौ ती</w> 12617
suic ide</w> 12615
रह ेंगे।</w> 12614
Y ou 12613
स - 12610
bo x</w> 12606
2 :</w> 12603
सा ब</w> 12602
Ad ditional</w> 12601
प्र भ 12600
शक् ति 12599
cou ple</w> 12599
s ale</w> 12598
ong o 12598
ho st 12598
I I</w> 12597
off ers</w> 12597
कर णों</w> 12594
मा ही</w> 12594
tod ay,</w> 12594
I m</w> 12591
ज ्यादातर</w> 12590
bel ow</w> 12588
s elected</w> 12586
द िये</w> 12584
stand s</w> 12583
extrem ely</w> 12582
कम जोर</w> 12579
वि वरण</w> 12573
an nivers 12572
नि ंदा</w> 12571
प े</w> 12570
cha irman</w> 12570
re stric 12568
v ote</w> 12564
D ig 12559
ucle ar</w> 12557
201 5 12555
En g 12553
p ac 12552
un it</w> 12551
अनु ष् 12547
ed ?</w> 12543
se x</w> 12542
रो ग</w> 12542
पूर्वो त्तर</w> 12542
लं दन</w> 12540
( H 12534
7 - 12534
law y 12531
seas on</w> 12529
th us</w> 12528
प्राधि करण</w> 12525
ल ट</w> 12523
कर ू 12519
Zeal and</w> 12518
r am 12516
or s.</w> 12511
समु द्र</w> 12508
st aff</w> 12507
incid ent,</w> 12503
ai f</w> 12501
दृष्टि कोण</w> 12499
er t</w> 12498
thre at 12497
डि ट</w> 12496
R anj 12493
Ker al 12493
क ही</w> 12489
H im</w> 12488
cor respon 12488
Y or 12487
6 7</w> 12485
फ ें 12483
प्रे र 12480
respecti vel 12478
ेंग े,</w> 12476
distric t.</w> 12476
प दों</w> 12475
op in 12475
गो ली</w> 12473
ॉर् क</w> 12473
राष्‍ट्र पति</w> 12473
सर् वे 12471
sec tions</w> 12470
ड ू 12464
6 3</w> 12460
. 0 12459
other .</w> 12457
cour t.</w> 12456
प्रदर्श न 12453
. .</w> 12446
सह योगी</w> 12446
आ दर् 12438
n er 12437
फ ं 12435
le t 12435
any one</w> 12433
d uty</w> 12432
J N 12431
गेंदबा जी</w> 12429
fe el 12426
ड ें 12425
मान ते</w> 12424
स्ट्रे ल 12421
separ ate</w> 12421
उठा या</w> 12420
Ad ity 12419
deceas ed</w> 12419
critic al</w> 12418
U T 12417
Pr inc 12415
मुकद मा</w> 12410
ट्रा ं 12408
नियु क्ति</w> 12407
de g 12406
Modi .</w> 12405
लेख नीय</w> 12405
ud ed</w> 12404
कहा ं</w> 12404
आर एस 12401
ci v 12400
वि भाज 12399
उपा ध्यक्ष</w> 12398
ar m</w> 12397
रं जन</w> 12397
ल क</w> 12395
K at 12395
ou red</w> 12395
खे लने</w> 12390
विशा ल</w> 12389
Sup er</w> 12388
P ati 12387
प्र कट</w> 12387
cont ribution</w> 12387
op en 12386
prot ec 12383
टी मों</w> 12382
cla im</w> 12382
आ धार 12381
citiz en 12381
गा ?</w> 12377
ले ट</w> 12377
च र्स</w> 12375
speci fic</w> 12372
Sec tor</w> 12370
Manag ement</w> 12370
ro le 12369
F ed 12367
re duce</w> 12365
ऐ लान</w> 12360
या तना</w> 12357
introduc ed</w> 12357
सक र् 12354
रो ड</w> 12351
1 ,000</w> 12350
pres sure</w> 12350
गठ ित</w> 12347
main tain</w> 12347
il ed</w> 12346
Bank ,</w> 12345
खा स 12342
मान ्यता</w> 12342
B aj 12339
पु त्र</w> 12338
car ry</w> 12335
उप करण</w> 12334
मिन ट</w> 12334
c row 12333
G h 12333
वि वे 12333
deploy ed</w> 12333
छोड़ कर</w> 12331
des pite</w> 12330
run ning</w> 12330
L al</w> 12328
7 .</w> 12327
G ad 12327
कै प् 12327
dis play</w> 12326
5 9</w> 12321
r ound</w> 12319
गु ना</w> 12317
ri es</w> 12311
लख न 12310
D em 12308
appro ach</w> 12306
Tha ts</w> 12304
month .</w> 12303
शो ध</w> 12300
पा वर</w> 12298
ud i</w> 12298
बा यो 12297
acc ord 12297
la ws</w> 12291
unic ipal</w> 12289
प्रो से 12286
यूरोप ीय</w> 12285
म णि 12282
oo d.</w> 12281
pic tures</w> 12279
प्री त</w> 12276
जाग रू 12274
दो बारा</w> 12273
AA P</w> 12273
सा धारण</w> 12268
o to</w> 12264
रूप ये</w> 12262
5 ,000</w> 12261
Sun il</w> 12259
tra ins</w> 12255
त ें 12253
उ ठ 12253
5 3</w> 12252
मुद् दा</w> 12250
प्रदू षण</w> 12249
treat ment.</w> 12246
b ad</w> 12245
वित् ‍ 12245
traff ic</w> 12243
achi eve</w> 12240
चै ंप 12238
ड ियम</w> 12237
ज ू</w> 12234
al ty</w> 12233
Sim il 12230
जम कर</w> 12230
C el 12226
सु पर 12225
benef its</w> 12225
सु शांत</w> 12224
hel ped</w> 12224
c at 12220
( डी 12218
every one</w> 12217
सि ल 12207
Raj iv</w> 12206
what ever</w> 12206
वे रिएंट</w> 12204
टी )</w> 12204
purpos e</w> 12204
Mukher jee</w> 12204
कमा ंड 12202
ev il</w> 12199
ज मा 12197
ए ह 12196
ऐ प</w> 12193
M am 12193
D ut 12193
गरी ब</w> 12192
स्थि र</w> 12191
5 8</w> 12190
n ine</w> 12188
रख े</w> 12187
गण ना</w> 12187
h is 12186
सु रे 12186
पे ज</w> 12186
terror ist</w> 12186
B est</w> 12182
हा थों</w> 12173
oun ds</w> 12173
Ano ther</w> 12173
मना या</w> 12172
individ ual</w> 12170
estim ated</w> 12170
Bharati ya</w> 12170
agre ement</w> 12169
लाइ ट</w> 12167
न ियां</w> 12166
deg ree</w> 12166
A B 12164
megap ixel</w> 12163
प रा 12161
om i</w> 12161
एन एस 12159
li es</w> 12158
Red d 12158
फेसब ुक</w> 12156
Pro gr 12155
बॉ क्स</w> 12155
pro mot 12147
10 ,000</w> 12142
2 n 12139
अल् प 12139
soldi ers</w> 12139
s le 12138
w ed 12136
ism ,</w> 12136
मा लूम</w> 12135
बु रा</w> 12135
6 8</w> 12133
मृ त</w> 12133
सक ों</w> 12131
सि र</w> 12128
पहुंच ा</w> 12124
काम या 12123
सु पर</w> 12120
कोवि ड</w> 12120
reg ular</w> 12117
f ell</w> 12116
पेट्रो लियम</w> 12115
answ er</w> 12115
particul arly</w> 12110
S )</w> 12109
ip per</w> 12103
sub mitted</w> 12102
जी त 12098
बन र्जी</w> 12097
आ युक्त</w> 12095
कृष् ण</w> 12092
Ma hat 12091
गु र 12085
Off ice</w> 12085
ग म</w> 12083
दि ला 12083
la id</w> 12082
d ar 12079
हु क् 12079
dec lin 12075
Sach in</w> 12074
B us 12073
fr am 12069
pow ered</w> 12067
ग्र ी 12066
An ush 12053
मण् डल</w> 12050
ज ला 12046
अभ ्या 12046
regi onal</w> 12045
ल ीय</w> 12043
रि पोर् 12042
sac ri 12042
आलो चना</w> 12042
न् ना</w> 12040
B esides</w> 12039
नि स् 12039
recomm end 12036
स्‍ ता 12033
राज पू 12029
th ar 12028
al - 12028
खा ना</w> 12024
sec ur 12024
ढ ंग</w> 12022
सुविधा ओं</w> 12022
अ क 12021
न् वित</w> 12020
rul e</w> 12019
समु द्र 12018
त्र ु 12017
कह ती</w> 12017
y :</w> 12013
Am ong</w> 12013
तो ड़</w> 12009
vie ws</w> 12007
ut ,</w> 12005
सक ता।</w> 12002
,99 9</w> 12002
6 2</w> 12001
मान ता</w> 12001
विशेष ज्ञ 12001
e ach 11996
P aul</w> 11995
st ak 11994
N et 11992
P ul 11988
आर पी 11987
he ar</w> 11986
निय ो 11985
prov ision</w> 11985
fun d</w> 11985
pur su 11984
प्रभ ु</w> 11983
keep ing</w> 11982
H a 11981
धि कार</w> 11981
राज स्व</w> 11980
प टा 11979
c han</w> 11978
mortem .</w> 11978
पुलि सकर् 11971
sus p 11970
प ब् 11966
जता ई</w> 11965
सर् वा 11964
भू त</w> 11961
निका ल</w> 11961
इंड ीज</w> 11959
spirit ual</w> 11959
ं ती</w> 11957
cha ired</w> 11955
इ ंच</w> 11954
ill s</w> 11952
स च् 11951
appe ared</w> 11950
environ ment</w> 11950
ब ने 11947
सा मान</w> 11947
d ers</w> 11946
भ व 11944
M ur 11944
bre ak 11940
केंद्र ित</w> 11940
it self</w> 11937
ex change</w> 11936
N at 11935
प्रत्य क्ष</w> 11935
ar my</w> 11933
दिल् ली,</w> 11932
self .</w> 11926
nat ure</w> 11917
व्या व 11916
मु सल 11914
T rib 11911
ज ह 11909
be auti 11908
जिम्मे दार</w> 11905
जि ए</w> 11901
Su per 11900
चो पड़ा</w> 11900
ना मा 11899
काब ू</w> 11898
emer g 11898
स ो</w> 11896
Pro c 11893
abl es</w> 11892
ौ म</w> 11890
Mo ham 11890
ट - 11889
rele v 11888
गो यल</w> 11884
te es</w> 11883
Ch ri 11882
कॉ ल</w> 11880
म हो 11879
P C 11879
becom es</w> 11875
स कारात्मक</w> 11874
st - 11870
Ad ministr 11870
Can did 11865
investig ation.</w> 11863
O ne 11859
वा दा</w> 11858
तकनी क</w> 11858
करे गी</w> 11856
con fer 11854
आ सानी</w> 11853
at e,</w> 11851
रिजल् ट</w> 11851
प राम 11850
ख ड़ा</w> 11849
h ood</w> 11847
ing :</w> 11846
Cont rol</w> 11846
था ने</w> 11845
ता कत</w> 11842
ठाकु र</w> 11834
पीड़ ित</w> 11833
pre ne 11829
prot ect</w> 11828
rul es</w> 11828
shoo ting</w> 11828
B udget</w> 11827
worl d,</w> 11825
मु फ् 11823
क क्षा</w> 11820
i a 11819
सा लों</w> 11818
सिफ ारिश</w> 11815
केन् द्र 11814
feat ure</w> 11813
फ़ि ल्म</w> 11811
c ue</w> 11806
eas y</w> 11806
पराम र् 11806
M C</w> 11805
Ta x</w> 11804
Bach chan</w> 11802
M or 11796
- 19 11794
वे ट</w> 11794
we ap 11793
vill ag 11793
cri p 11792
M as 11789
स्व च्छ 11789
tr ust</w> 11787
acc ept</w> 11787
ि ंग</w> 11784
ने वाला</w> 11784
प ,</w> 11781
Cha ir 11778
respec tive</w> 11777
आ मंत्र 11775
आ क 11773
भ ी,</w> 11770
ई डी</w> 11769
अंग्रे जी</w> 11768
En er 11767
ad :</w> 11766
ग्राह कों</w> 11766
कठि न</w> 11761
Famil y</w> 11758
प ारि 11756
ear ing</w> 11756
cl es</w> 11754
हि साब</w> 11751
y ester 11750
अभि ष 11749
अ ंग 11748
dis mis 11747
नि री 11746
प्‍ त</w> 11745
L anka</w> 11744
यु व 11739
self - 11739
सर् च</w> 11737
अ सल</w> 11735
जा ,</w> 11734
I t's</w> 11729
pres id 11727
develop ing</w> 11726
web sit 11725
कि तना</w> 11724
दे गा</w> 11722
कपि ल</w> 11722
राज मार्ग</w> 11718
P and 11716
gr anted</w> 11716
Instag ram</w> 11714
str ategi 11713
मा य 11711
sc rip 11708
BS P</w> 11708
exam ple,</w> 11707
ग ए.</w> 11706
रा स्ते</w> 11706
for tun 11704
st age</w> 11702
F )</w> 11701
accid ent.</w> 11701
aw are</w> 11699
associ ated</w> 11696
Prak ash</w> 11696
पो षण</w> 11692
establ ish 11685
फु ट 11685
C itiz 11684
retur ned</w> 11680
बद ले</w> 11675
बै टरी</w> 11674
Con ference</w> 11674
per f 11673
it 's</w> 11669
wi f 11669
प्रदर्श ित</w> 11668
Kashmir .</w> 11667
ग ई,</w> 11666
A I 11664
Pro f 11664
fac ed</w> 11663
ongo ing</w> 11661
j i 11659
wor ship</w> 11659
ess ential</w> 11659
( the</w> 11658
चे क</w> 11658
Bang al 11656
शुभकाम नाएं</w> 11656
गुप् ता</w> 11655
घो टा 11652
मर ने</w> 11652
भू षण</w> 11646
S E</w> 11639
beg in</w> 11638
तर् क</w> 11637
b it</w> 11635
en ough</w> 11635
bre ak</w> 11635
a g</w> 11631
डोना ल्ड</w> 11628
R em 11624
equ i 11624
M i 11621
चु ना</w> 11620
क च्च 11619
fai th 11619
नी तीश</w> 11617
Punjab ,</w> 11615
inaugur ated</w> 11614
कमे टी</w> 11611
is es</w> 11610
ना थ 11609
Chop ra</w> 11608
4 9 11607
सा उ 11607
का ंक</w> 11606
रण वीर</w> 11606
स्ट्र ी 11606
ण िक</w> 11604
ev ent.</w> 11602
c over</w> 11600
ra inf 11600
vot es</w> 11600
तरि क</w> 11599
Kare ena</w> 11593
be at</w> 11589
udd in</w> 11589
ti m</w> 11587
आर ंभ</w> 11586
bas e</w> 11586
ग ड 11585
Ar jun</w> 11585
स्ट ार् 11584
Author ity</w> 11582
Pran ab</w> 11582
Maharashtra ,</w> 11581
Niti sh</w> 11581
प्रोत्सा हित</w> 11579
s ides</w> 11575
sub jec 11570
ज ंग 11568
ver dic 11568
निर् दि 11564
मार् ट</w> 11563
वि चारों</w> 11562
परेशा न</w> 11560
p ass</w> 11559
जिन का</w> 11559
ल ेंगे।</w> 11555
ris k</w> 11552
ी .</w> 11549
stri ke</w> 11548
organi zed</w> 11548
r ally</w> 11543
सूच कांक</w> 11543
call s</w> 11543
उपा य</w> 11542
बजा य</w> 11541
आप दा</w> 11538
aircra ft</w> 11538
6 6</w> 11537
Y oj 11537
proper ty</w> 11537
scre en</w> 11537
In v 11534
Goo gle</w> 11533
नि ए</w> 11532
f ind 11531
ic ity</w> 11530
play er</w> 11528
Tues day</w> 11525
m al 11523
every thing</w> 11522
p al</w> 11521
ं / 11519
J av 11519
भी ड़</w> 11518
Uni versit 11517
fin e</w> 11516
Ma ha 11514
8 00</w> 11513
ंभ िक</w> 11512
b er</w> 11508
दू त</w> 11508
Anush ka</w> 11505
challeng es</w> 11500
programm es</w> 11498
girl s</w> 11496
म श 11492
र नों</w> 11491
वि पक्षी</w> 11491
id amb 11490
8 .</w> 11487
ac adem 11487
ad dition</w> 11487
चि द 11487
बढ़ ने</w> 11486
Kap il</w> 11485
वै धा 11484
Jhark hand</w> 11480
ह वा</w> 11479
लि टी</w> 11478
th en,</w> 11476
Kapo or,</w> 11474
श न,</w> 11473
कहा -</w> 11471
om et 11470
द् दीन</w> 11470
p as 11469
mat erial</w> 11469
Europe an</w> 11469
direc tly</w> 11468
चुना वी</w> 11467
phys ical</w> 11467
ism .</w> 11466
के ट 11465
plac e.</w> 11464
स्ट ू 11463
accep ted</w> 11463
u 200 11462
महा निदेशक</w> 11459
सर्वो च्च</w> 11455
बी न</w> 11453
Wit ness 11453
अ न्‍य</w> 11452
डी पी</w> 11452
जु ट</w> 11451
अ त्या 11449
complet ely</w> 11449
ear th 11448
Mahat ma</w> 11448
बना म</w> 11447
मस् जि 11447
all oc 11446
suff ered</w> 11443
सं तो 11442
R el 11440
आ ध्या 11439
ब् ‍ 11439
मा ण</w> 11438
ap point 11435
आखि र</w> 11435
f it 11434
बढ़ ोतरी</w> 11434
propos al</w> 11434
एक- दूसरे</w> 11433
0 - 11432
जी ता</w> 11427
T end 11425
w . 11424
o ted</w> 11422
मि ट</w> 11419
prog res 11418
att ers</w> 11417
L )</w> 11416
identi al</w> 11416
म नी 11414
tu al</w> 11414
दृ श्य</w> 11409
Colleg e</w> 11409
disci pl 11409
L ast</w> 11408
देख भाल</w> 11408
7 4</w> 11407
दु ख</w> 11405
अ य 11403
bas ic</w> 11401
से क्टर</w> 11399
च क्र 11395
प ढ़ 11394
c ulture</w> 11393
H ere</w> 11392
an t,</w> 11391
exerc ise</w> 11391
अ गु 11390
न र् 11389
हिस् से 11389
Mo hammad</w> 11388
politic s</w> 11387
ही ,</w> 11386
ल ड़ 11384
be d 11384
M ag 11383
sha res</w> 11383
7 1</w> 11381
दाय ि 11381
M y 11379
Mal ay 11375
le d,</w> 11374
Ran veer</w> 11373
us ers</w> 11372
And ro 11370
हथ ियार</w> 11369
कार्य वाही</w> 11368
इन की</w> 11368
मु ना 11366
ला भ 11362
G old</w> 11360
-1 6</w> 11360
दिल्‍ ली</w> 11358
ँ च</w> 11357
st one</w> 11357
ं दी</w> 11353
ग्र स्त</w> 11353
10 00</w> 11352
S oc 11351
Isra el</w> 11351
f f</w> 11350
Offic er</w> 11350
घ ु</w> 11346
डिजा इन</w> 11344
भे जे</w> 11340
A .</w> 11339
अस्प ता 11339
ओडि शा</w> 11336
थ ियों</w> 11333
ार् थी</w> 11330
ट्र क</w> 11324
cir cum 11323
अधिकार ों</w> 11319
tu red</w> 11318
2n d</w> 11317
M ir 11314
वा स्ते</w> 11313
लगा ई</w> 11309
w as 11308
d en</w> 11306
ज़रू रत</w> 11305
tr i</w> 11304
co ach</w> 11304
ट कर</w> 11302
att ention</w> 11302
lo an</w> 11299
ज़ ो 11298
R C 11296
rul ing</w> 11296
चि न् 11294
s elec 11292
खु श 11292
पत् थ 11292
il s</w> 11289
डा ला</w> 11288
मु द्रा</w> 11286
मसी ही</w> 11286
कि स् 11285
करी ना</w> 11285
पक्ष ों</w> 11283
Wednes day</w> 11283
एश ियाई</w> 11277
h ot 11272
believer s</w> 11268
techn ical</w> 11267
प्र देशों</w> 11266
लेख क</w> 11266
ब् लै 11265
भाष ा 11264
S ang 11263
re r</w> 11263
दिल्ली :</w> 11263
मा लिक</w> 11260
से ज</w> 11259
2017-1 8</w> 11257
व ्‍या 11255
proc ed 11253
कॉ म</w> 11248
P .</w> 11247
आई ए 11246
ant s.</w> 11246
मु ठ 11245
it es</w> 11242
industri al</w> 11242
उत् सा 11237
dra w</w> 11236
coun ter 11235
Cl ass</w> 11235
आध्या त् 11235
वे तन</w> 11233
Glo bal</w> 11232
क श</w> 11231
इं सान</w> 11231
ख़ ु 11230
challeng e</w> 11228
R is 11227
मिला ।</w> 11227
ex cl 11225
b ail</w> 11223
Reli ance</w> 11223
ul la 11221
dedic ated</w> 11220
vic tim</w> 11219
गा ने</w> 11218
अ काउंट</w> 11214
r ac 11213
च ने</w> 11211
pat i</w> 11210
agric ulture</w> 11209
T )</w> 11208
मनो हर</w> 11207
इ मार 11205
कश् मी 11204
sub st 11202
अमरी की</w> 11199
pro duce</w> 11195
ज ें</w> 11194
पुस् तक</w> 11194
प्रतिनि धि</w> 11191
Ac tor</w> 11190
आतंक वादियों</w> 11190
च रण 11188
r ound 11186
award ed</w> 11183
fl ed</w> 11182
महिला एं</w> 11182
सि ने 11179
Gandhi ,</w> 11179
जोखि म</w> 11179
role um</w> 11178
मुठ भे 11177
Farm ers</w> 11174
B ir 11173
आत् मा</w> 11172
तीसर ा</w> 11172
स्वर् ण</w> 11171
es sion</w> 11170
अनुष् का</w> 11170
vill ages</w> 11165
हार् दिक</w> 11165
य - 11164
discus s</w> 11164
संहि ता</w> 11164
ग ें</w> 11162
re p 11162
g res 11160
निरं तर</w> 11160
en joy 11159
b ann 11158
str ug 11158
pris on 11158
ल स</w> 11157
s on,</w> 11157
terror ism</w> 11157
इलेक् ट्रॉ 11156
सु ख 11154
heal th 11153
प्री म 11152
Go a</w> 11152
il .</w> 11150
con dem 11149
goo ds</w> 11146
through out</w> 11146
in e,</w> 11144
Chand r 11144
अध ्‍य 11143
फ्र ेंस</w> 11140
Te am</w> 11138
teach ers</w> 11138
म द् 11136
क्षे प</w> 11136
c ant</w> 11134
कर् ज</w> 11132
पि ंग</w> 11130
एक् स</w> 11130
j un 11129
मेह नत</w> 11128
be y 11127
प्रण ब</w> 11126
डाउन लोड</w> 11123
Kashmir ,</w> 11122
m ,</w> 11119
देख ी</w> 11117
तमा म</w> 11115
car rying</w> 11114
मे ट्रो</w> 11113
कार्य कर्ता</w> 11111
al ter 11109
Krish na</w> 11107
ton n 11106
accoun ts</w> 11105
tri c</w> 11103
e en</w> 11101
ब ला 11098
ing ing</w> 11098
festi val</w> 11098
S tr 11096
initi ative</w> 11094
oun d.</w> 11093
I O 11092
sk ipper</w> 11089
Soc ial</w> 11089
चार् ज</w> 11087
j ail</w> 11085
प्रशास निक</w> 11084
निम् नलिखित</w> 11083
al ities</w> 11081
प्रतिनिधि त्व</w> 11080
is tic</w> 11079
m ir 11074
la st 11073
R O 11070
appe al</w> 11069
ं सी</w> 11067
conf idence</w> 11065
स्व च्छ</w> 11064
अधिक तर</w> 11064
वस्तु ओं</w> 11060
Moham med</w> 11056
al og 11052
ro om 11050
व स्त 11049
gener ation</w> 11048
im m 11047
वा सन</w> 11045
का ने</w> 11044
Ne ws</w> 11044
Sush ant</w> 11044
p ack 11043
il li 11042
arri ved</w> 11041
tom or 11038
fin ance</w> 11036
approv al</w> 11036
निर्दे शन</w> 11036
in stead</w> 11035
पाठ ्य 11035
चार िक</w> 11034
\ "" 11032
ac ts</w> 11030
m icro 11029
immedi ate</w> 11024
net work</w> 11020
प्र योग 11019
Cur ren 11019
i es,</w> 11018
B ag 11018
आईसी सी</w> 11015
ard ,</w> 11013
आदि त्य 11013
क्रम श 11007
हुक् म</w> 11006
li fe 11005
pp ing</w> 11005
बढ़ त</w> 11004
जि ंदगी</w> 11003
समू हों</w> 11003
F o 11002
sh aring</w> 11002
fi g 11002
initi atives</w> 11001
कर ियर</w> 11000
ए च</w> 10999
ty pe</w> 10999
e th 10997
ment s.</w> 10995
nes s.</w> 10995
Thurs day</w> 10995
l ative</w> 10994
h u 10994
B ec 10994
त भी</w> 10990
op al</w> 10989
ढांच े</w> 10989
आं तरिक</w> 10985
P ers 10984
ए की 10983
ह ड़ 10981
स् वि 10981
श्र द्धां 10981
au r</w> 10979
्यू टर</w> 10978
प वार</w> 10977
व स्‍ 10977
न ारे</w> 10975
विद्यु त</w> 10975
ँ ,</w> 10972
ंब र,</w> 10971
th es 10968
नी ति 10968
म य</w> 10967
न ),</w> 10966
Mumbai .</w> 10965
द शक</w> 10962
p ir 10962
b ar</w> 10962
गु ना 10962
वि न 10961
y )</w> 10960
H ol 10959
ur ,</w> 10958
tri al</w> 10957
7 7</w> 10956
film ,</w> 10955
ow s</w> 10954
cle an</w> 10951
g es</w> 10950
ay ing</w> 10947
वै से</w> 10947
न्‍ द्र</w> 10947
partn ership</w> 10946
व ल 10945
seat s.</w> 10944
पार् क</w> 10943
dr ag 10943
दिल च 10942
ti vely</w> 10941
प ंच 10934
manufac turing</w> 10934
aren ess</w> 10928
Tend ul 10926
बद लने</w> 10924
bat sman</w> 10924
D R 10920
जा नें</w> 10920
D ar 10917
i v 10916
निर् देश 10916
Al l 10914
ha v</w> 10913
lig ence</w> 10911
2020 :</w> 10910
दे न</w> 10906
Pakist an,</w> 10903
B ook</w> 10902
E astern</w> 10901
पु रा</w> 10901
रा स्ता</w> 10900
ap ost 10900
n ar 10899
तीसर ी</w> 10899
नै तिक</w> 10899
n ic 10896
Res our 10892
लाय ंस</w> 10890
On ly</w> 10889
कु ं 10888
बा हरी</w> 10885
M it 10884
m id 10881
e ed</w> 10878
au th 10878
e !</w> 10877
a u</w> 10875
sig n</w> 10875
तुम को</w> 10874
manag ed</w> 10873
Al so,</w> 10871
tic al</w> 10870
idd le</w> 10868
सं स्था</w> 10864
addres sed</w> 10864
Ch idamb 10862
ऊ ंच 10858
Wh ere</w> 10854
Ra o</w> 10851
यौ न</w> 10851
महा त्मा</w> 10849
सि ंग 10848
नि धि</w> 10846
इ तने</w> 10845
करें .</w> 10845
bro ad 10844
ne ar 10843
Op position</w> 10842
A pr 10841
mor ning</w> 10839
वस्त ु</w> 10838
C ity</w> 10837
w a</w> 10833
म ना</w> 10832
m ad 10830
continu es</w> 10829
कि तनी</w> 10824
n ations</w> 10823
हैं :</w> 10817
Candid ates</w> 10816
pro per</w> 10811
comp u 10811
हाला ँ 10809
ha .</w> 10807
ha m</w> 10807
Mano har</w> 10802
G i 10800
hi ,</w> 10800
d oll 10798
2 ,000</w> 10797
पी .</w> 10797
alleg ations</w> 10797
ill ,</w> 10796
fir m</w> 10792
Wel fare</w> 10792
ref used</w> 10790
Telang ana</w> 10790
sa fe</w> 10783
उल् लेखनीय</w> 10775
का यम</w> 10773
initi ated</w> 10773
oun der</w> 10772
Ab out</w> 10770
सहम त</w> 10770
नज़ र</w> 10769
avo id</w> 10769
pro sp 10766
form ing</w> 10766
en 's</w> 10765
ch em 10765
Nir m 10763
in i</w> 10762
संख ्य 10759
appropri ate</w> 10758
ल म् 10757
दो पह 10757
Jait ley</w> 10754
NE W</w> 10753
de v 10749
R T 10742
वैधा निक</w> 10740
पढ़ ें 10739
pl om 10738
Jo int</w> 10738
प्राथ मिक</w> 10737
Elec tr 10736
पी एम 10735
क्ष ी</w> 10734
प्रति स्पर् 10734
सिन् हा</w> 10734
3 :</w> 10731
De part 10730
commer cial</w> 10730
फि र 10729
attac ks</w> 10728
h er.</w> 10727
चौ हान</w> 10727
लु स</w> 10723
b udget</w> 10722
ass ess 10722
gu il 10721
जय ंती</w> 10718
4 )</w> 10717
निर् देशक</w> 10716
ा र</w> 10713
आत् मह 10713
J er 10712
कं प</w> 10712
m echan 10711
% ),</w> 10711
prene ur 10710
L ank 10709
200 7</w> 10707
norm al</w> 10707
n it 10706
ond ary</w> 10705
Cour t.</w> 10704
Si thar 10704
गौर तलब</w> 10704
victim s</w> 10703
el a</w> 10702
एफ सी</w> 10700
b h 10699
तैय ार 10698
बाइ क</w> 10697
res ear 10694
प्रो जे 10692
suppor ted</w> 10691
ट क्कर</w> 10687
i Phone</w> 10687
6 GB</w> 10687
at el 10684
ti fied</w> 10682
mat ches</w> 10677
m ast 10676
f ans</w> 10676
बि ग</w> 10672
ver .</w> 10671
p age</w> 10668
DE L 10665
राजपू त</w> 10660
पु री</w> 10659
च लाने</w> 10656
re d 10655
resour ces</w> 10654
प्रसार ण</w> 10653
Dr . 10652
चि त्र 10650
पी एस 10648
पूं जी</w> 10644
ha th</w> 10642
स्क्र ीन</w> 10639
Andro id</w> 10639
ल घु</w> 10638
दे शा 10636
कि म</w> 10635
स्रो त</w> 10635
ति माही</w> 10633
घा टी</w> 10633
छो टा</w> 10633
some one</w> 10633
s kill 10630
Transp ort</w> 10626
e e 10625
F ren 10624
hi r</w> 10624
wh er 10623
M C 10622
हटा ने</w> 10621
a z</w> 10620
z ing</w> 10620
सा ई</w> 10620
वे यर</w> 10619
do .</w> 10618
आंक ड़ों</w> 10618
numb ers</w> 10616
शु द्ध</w> 10615
जिन की</w> 10614
ck er 10614
wit ness</w> 10611
punish ment</w> 10609
ऑफि स</w> 10606
ell s</w> 10604
आ या 10601
सफ र</w> 10601
s we 10600
cor rec 10600
आ समान</w> 10596
प्र कृति</w> 10596
dem on 10596
ढ़ ी</w> 10595
an a.</w> 10594
स त्य</w> 10593
ई )</w> 10591
F our</w> 10589
ati c 10589
dec ad 10589
बद्ध ता</w> 10587
Ch ild 10584
देख कर</w> 10584
ऊ ँ 10582
S ad 10581
ना मक</w> 10581
शिका य 10581
there fore</w> 10579
plat form</w> 10578
i . 10577
Re ad</w> 10577
न मू 10576
िय न 10572
सं भाव 10566
Pad uk 10565
कल् पना</w> 10564
गय े।</w> 10563
संक्र मित</w> 10563
ने हर 10559
mat eri 10559
con greg 10556
6 1</w> 10554
we alth</w> 10552
पौ लुस</w> 10552
y a,</w> 10549
व्यव सा 10546
शै तान</w> 10545
वृत् ति</w> 10545
Op en</w> 10543
टै क्स</w> 10541
चुनौ तियों</w> 10541
पै सा</w> 10539
डिस् प्ले</w> 10539
सच् चाई</w> 10539
A adha 10538
सि ल</w> 10538
sit ting</w> 10538
सर्वे क्षण</w> 10538
Sund ay</w> 10536
6 9</w> 10533
वेस्ट इंडीज</w> 10533
pl ant</w> 10532
जा निए</w> 10531
sci ence</w> 10527
Tha cker 10524
mus ic</w> 10524
n uclear</w> 10523
ing ly</w> 10522
कि शो 10521
cha ir 10519
अभ्या स</w> 10519
Lat er,</w> 10518
7 8</w> 10517
rem aining</w> 10509
ब म</w> 10507
अ ट 10505
inv ited</w> 10504
stat e,</w> 10503
Mumbai ,</w> 10503
ह टा</w> 10501
li qu 10498
T E 10497
b ill</w> 10496
सं चालित</w> 10496
स् ना 10494
mar g 10494
cro res</w> 10491
RS S</w> 10489
Pr ab 10487
ष क</w> 10486
equ ip 10485
बैं क,</w> 10483
M ic 10480
टे क</w> 10477
t own 10475
प्रार ंभ</w> 10472
r y,</w> 10471
ता एं</w> 10469
ख े</w> 10468
मा ं 10468
S ind 10466
c ut 10465
ty p 10465
B u 10464
S ain 10464
वि जन</w> 10462
आप रा 10460
J ai 10457
Islam ic</w> 10453
legis lat 10453
busin ess 10453
हि त 10450
विष यों</w> 10450
claim s</w> 10449
gov . 10448
फ े</w> 10447
3 9 10447
ले श</w> 10447
द स्त</w> 10444
की न</w> 10444
व्या पार 10442
bro thers</w> 10442
का )</w> 10441
Russi a</w> 10440
comp ens 10439
प्रस्ता वित</w> 10439
क् की</w> 10438
Pan de 10437
Ay od 10436
L ED</w> 10435
rem ember</w> 10435
ent ered</w> 10432
स का</w> 10431
स् मृ 10429
E very</w> 10425
ख ी 10423
7 3</w> 10423
sti c 10423
सिल सि 10420
र ज</w> 10419
कट ौती</w> 10418
V in 10417
br an 10415
man .</w> 10413
f le 10411
Satur day</w> 10410
mot or 10409
श ारी 10408
मद् दे 10408
स त् 10404
tra pati</w> 10403
दिलच स् 10403
ध वन</w> 10402
मु ं 10402
सौ ंप</w> 10402
ए गा</w> 10401
en em 10401
कैं सर</w> 10399
shif ted</w> 10399
खतर े</w> 10398
का ंत</w> 10397
H us 10396
द त्त</w> 10394
corrup tion</w> 10394
द् दा 10389
ेंग े.</w> 10389
स्ट िक</w> 10384
pre dic 10384
शुरु आती</w> 10384
facil ity</w> 10384
m atters</w> 10383
Pro t 10382
रिश् ते</w> 10376
ay an</w> 10372
ड ों</w> 10369
read ing</w> 10369
way ,</w> 10368
उ द 10367
Ap p</w> 10366
ए कता</w> 10365
cons ist 10365
ser ving</w> 10364
ग् र</w> 10364
ra ther</w> 10363
स् मि 10362
Ra v 10361
( नि 10357
हिस्से दारी</w> 10356
धार कों</w> 10351
prev ent</w> 10351
ई ं 10350
Ger man</w> 10350
एजें सियों</w> 10347
f lo 10346
str ateg 10341
तरी का</w> 10341
im posed</w> 10340
Ar e</w> 10338
प् लान</w> 10337
चिद ंब 10337
ev en 10336
k g</w> 10335
खू ब 10334
ay ed</w> 10333
मै ने 10332
s or 10331
a uc 10330
wat ch</w> 10328
C M 10327
Org an 10326
लु ओं</w> 10324
grad u 10323
st ock</w> 10321
de vice</w> 10321
हे ल् 10321
stat ement.</w> 10319
m u 10318
cre ating</w> 10318
सुरे श</w> 10318
नारा य 10317
आ ह् 10315
Gujar at,</w> 10312
लौ ट</w> 10312
ay :</w> 10311
अनु रूप</w> 10311
रिय ल</w> 10311
ंड ों</w> 10310
Government s</w> 10310
Eng ine 10309
R en 10308
cond ol 10308
cas es,</w> 10305
it able</w> 10304
wel fare</w> 10304
कार्य काल</w> 10302
मिश्र ा</w> 10300
found ation</w> 10298
सर्वा धिक</w> 10297
K ab 10295
बचा ने</w> 10293
ic es</w> 10291
मि र</w> 10291
mor n 10290
nes s,</w> 10289
संभा वित</w> 10288
ब चा</w> 10287
सिं ध 10284
( L 10280
part y.</w> 10275
कि ता 10274
religi on</w> 10274
माइ क्रो 10274
figh ting</w> 10274
ut i</w> 10272
गुरु वार</w> 10271
m emor 10269
toge ther.</w> 10267
क्रिके टर</w> 10266
अं दा 10265
आपरा धिक</w> 10253
enc y.</w> 10252
road s</w> 10247
occ up 10244
1 :</w> 10238
mil li 10238
ph ones</w> 10236
adv ant 10236
multi ple</w> 10233
min ent</w> 10232
tol l</w> 10232
susp ended</w> 10232
आध्यात् मिक</w> 10230
A ar 10228
भ रा</w> 10225
ध ता</w> 10222
जी वित</w> 10222
id ,</w> 10220
भारती यों</w> 10220
त रह 10217
कि तने</w> 10216
y al</w> 10215
हुआ ,</w> 10214
श्रद्धां जलि</w> 10214
assu red</w> 10213
Kar an</w> 10212
ide a</w> 10210
धन्य वाद</w> 10210
s old</w> 10208
n one</w> 10207
ला खों</w> 10206
इंटर नेशनल</w> 10206
त ट 10204
एफआई आर</w> 10204
दर् शकों</w> 10203
ठा करे</w> 10203
u200 d 10203
गा य 10201
शे य 10201
appe ar</w> 10201
सड़ कों</w> 10201
injur ies</w> 10200
प त</w> 10198
कि मी</w> 10197
रे ड्डी</w> 10197
res ult 10191
बहु मत</w> 10191
एंग े।</w> 10190
अ यो 10188
ना ं 10186
एच डी 10186
S oci 10185
are ,</w> 10185
गां वों</w> 10185
12 5</w> 10185
be ha 10183
या ता 10183
and er</w> 10183
सं यं 10182
नियंत्र ित</w> 10182
in e.</w> 10180
देख ना</w> 10180
रा ई</w> 10179
गृह मंत्री</w> 10179
on e- 10178
sc ore</w> 10177
adv oc 10174
resol ution</w> 10172
Face book</w> 10171
डॉक् टरों</w> 10168
भ विष 10162
क म्प 10160
spe aking</w> 10158
ल ्यू 10157
म ज़ 10156
विद्या लयों</w> 10156
An and</w> 10153
ट् स 10153
ari ,</w> 10151
D )</w> 10149
3 2 10148
प्र माण</w> 10146
addres sing</w> 10146
आ ज 10141
ed y</w> 10141
Le ague</w> 10141
7 6</w> 10139
lock down</w> 10139
देश भर</w> 10136
अका द 10136
demon str 10136
ap ex</w> 10135
pric ed</w> 10135
N T 10134
ai ,</w> 10129
com for 10127
ड् डा</w> 10127
भविष ्य 10126
s at 10125
An n 10124
commit ment</w> 10123
becom ing</w> 10123
t a,</w> 10121
अनु कूल</w> 10116
झु ठ 10114
समुद्र ी</w> 10114
आई टी 10113
high - 10113
Gad k 10111
cons ult 10105
s ensi 10104
transp ort</w> 10103
anci ent</w> 10102
त ल</w> 10096
फ सल</w> 10096
hom e.</w> 10095
bey ond</w> 10095
d y 10094
ह ृ 10092
in quiry</w> 10092
sour c 10092
50 ,000</w> 10090
लॉ जी</w> 10089
मृ तक</w> 10089
de pend 10087
constitu ency</w> 10087
cle an 10086
st res 10084
te m</w> 10083
20 2 10081
ar ly,</w> 10080
पु णे</w> 10078
En viron 10076
क्रे डिट</w> 10076
J it 10072
us ive</w> 10071
ag encies</w> 10071
कोवि ंद</w> 10070
Covid -19</w> 10066
अ ज्ञात</w> 10065
tr ou 10065
उप - 10063
मान क</w> 10063
pend it 10063
ve - 10062
बैठ े</w> 10062
रे खा</w> 10060
reas ons</w> 10060
चै नल</w> 10059
कैम रे</w> 10059
पै माने</w> 10058
loo ked</w> 10058
प्ले ट 10058
खा न,</w> 10056
her e,</w> 10054
बह स</w> 10054
से क्स</w> 10052
आ शी 10047
hi d</w> 10047
लि ंक</w> 10045
द ै 10043
es ?</w> 10038
त त्व 10036
दी पक</w> 10036
sig ns</w> 10035
I' m</w> 10035
शि क्षा 10034
spe ak 10032
P rem 10031
Ur ban</w> 10031
ceremon y</w> 10031
Industr y</w> 10031
आदित्य नाथ</w> 10031
Leg is 10029
ru g</w> 10028
इस ने</w> 10027
खा ली</w> 10024
dres sing</w> 10022
re ply</w> 10021
इस को</w> 10020
pre mi 10018
देंग े।</w> 10018
आत्मह त्या</w> 10017
आय ु</w> 10016
discus sion</w> 10015
ला इस 10014
ति त्व</w> 10014
पा ल 10010
मान सिक</w> 10010
ra ise</w> 10008
CE O</w> 10008
1 -1 10003
गु ला 10003
दौ रा 10003
के ं</w> 10000
पें शन</w> 10000
nor th</w> 9998
वायु सेना</w> 9998
consid er 9997
t ren 9996
trad ing</w> 9995
Lim ited</w> 9994
say :</w> 9993
marri age</w> 9993
- - 9990
अन ं 9990
em o 9989
ev ents</w> 9989
t ar 9987
उत्तरा खंड</w> 9987
de but</w> 9985
जाए गा,</w> 9985
implement ed</w> 9985
निर्दि ष्ट</w> 9985
re view 9984
ang e</w> 9984
rel ating</w> 9984
तें दु 9981
dec l 9979
y a 9978
एक मात्र</w> 9978
खे ले</w> 9977
Mo han</w> 9977
fam ous</w> 9975
eff ort</w> 9974
Y outh</w> 9972
Sam sung</w> 9970
requ est</w> 9968
आमंत्र ित</w> 9967
eas e</w> 9966
lin k</w> 9965
Jap an</w> 9964
आ लिया</w> 9962
i a,</w> 9960
al ised</w> 9960
शि कार</w> 9957
independ ent</w> 9956
स्पी ड</w> 9956
श राब</w> 9954
वा नी</w> 9953
dom in 9953
s ons</w> 9952
Aff air 9949
pol l</w> 9948
sever e</w> 9947
परेशा नी</w> 9947
f ear 9942
compani ed</w> 9942
no ted</w> 9941
ट र,</w> 9939
est s</w> 9938
ver sion</w> 9936
King dom</w> 9936
b a</w> 9935
cust ody</w> 9935
o x 9934
Afghanist an</w> 9932
ज गत</w> 9925
( G 9925
for th</w> 9922
um .</w> 9922
ण ु 9920
t ab 9919
coun t</w> 9919
दाय िक</w> 9919
क् का</w> 9917
नि तिन</w> 9916
स्वच्छ ता</w> 9913
स पोर्ट</w> 9911
ड़ े 9905
5 %</w> 9902
खु ले</w> 9899
rou t 9899
sex ual</w> 9899
Mam ata</w> 9896
promis e</w> 9894
चौ थे</w> 9893
गय ी।</w> 9891
Niti n</w> 9891
concer n</w> 9889
साक्ष ी</w> 9887
diseas e</w> 9886
p ath</w> 9885
d ated</w> 9885
level s</w> 9885
सी सी</w> 9884
annivers ary</w> 9881
sp ent</w> 9877
जरू र 9877
test s</w> 9877
टर् न</w> 9875
केन्‍ द्रीय</w> 9873
धा नों</w> 9872
sust ain 9872
( एम 9871
आ शं 9870
ex - 9870
सब ूत</w> 9867
गर् व</w> 9866
द म 9863
s ong</w> 9863
Ener gy</w> 9863
tra ditional</w> 9862
स िया 9861
af ter 9859
exc ell 9859
show ed</w> 9857
La un 9854
me an</w> 9853
In do 9851
सी एस 9847
वि न</w> 9846
ले कि 9846
श् त</w> 9845
Am az 9845
it ya</w> 9842
relev ant</w> 9842
ह र्ष 9840
st ations</w> 9840
मा फी</w> 9838
सं दिग् 9838
ंत्र िक</w> 9838
F und</w> 9837
Prad han</w> 9836
सी ल</w> 9831
रि लायंस</w> 9830
DEL HI 9830
ail .</w> 9829
mark ets</w> 9828
( अ 9824
दो हरा 9824
U K</w> 9823
on a</w> 9823
सी तार 9822
Odi sha</w> 9822
ग ियों</w> 9821
सं कल्प</w> 9821
सिद्धा ंत</w> 9819
Su resh</w> 9816
as si 9815
. )</w> 9814
निर् देशों</w> 9814
प्र क्रिया 9812
इंड स्ट्र 9811
नेहर ू</w> 9811
as k 9810
वर् मा</w> 9810
मनो ज</w> 9810
dou ble</w> 9810
विभि न्‍न</w> 9808
ot t 9807
uni que</w> 9807
wat er.</w> 9806
ज़ ी 9805
disa p 9805
आह् वान</w> 9802
श ता 9792
J on 9792
prot ection</w> 9791
मि त्र</w> 9788
नो ं,</w> 9788
Commer ce</w> 9786
correspon ding</w> 9785
हो टल</w> 9783
ali zed</w> 9782
द्र ो 9781
लि ए 9780
X ia 9779
Ali a</w> 9779
उन पर</w> 9773
ter s,</w> 9771
पत्र कार</w> 9771
एल )</w> 9769
Em ploy 9769
आदर् श</w> 9769
w adi</w> 9768
in spir 9767
c ore</w> 9764
कर ना,</w> 9762
Ac t 9761
मसी ह</w> 9760
ढ े 9757
spe ech</w> 9756
are as.</w> 9755
M ake</w> 9754
टी 20</w> 9753
ची ज</w> 9751
लक्ष ् 9751
ac companied</w> 9750
ach ing</w> 9749
l al</w> 9747
प्रोफे सर</w> 9743
ess or</w> 9742
8 4</w> 9739
ri c</w> 9739
inform ation,</w> 9737
la m</w> 9735
ग ार 9732
St and 9731
डेवि ड</w> 9731
circum st 9728
चो री</w> 9726
याता यात</w> 9726
P anchay 9725
जा हिर</w> 9723
उपभो क्ता</w> 9723
H as 9720
7 00</w> 9720
शारी रिक</w> 9720
ship ,</w> 9719
शरी फ</w> 9719
al ist</w> 9718
ब सपा</w> 9717
cons ci 9717
Hary ana,</w> 9717
I ran</w> 9716
polic e,</w> 9712
id es,</w> 9711
respectivel y.</w> 9711
चिदंब रम</w> 9707
औ प 9706
R om 9706
direc tion</w> 9695
छ े 9694
वा ता 9694
अनु सूचित</w> 9694
वि भागों</w> 9693
un ity</w> 9692
श नों</w> 9689
r d</w> 9687
an as 9685
का नों</w> 9682
ख ण्ड</w> 9681
कॉ र 9681
चि त्र</w> 9676
ot .</w> 9675
categ ory</w> 9675
एसोसि एशन</w> 9674
ग ए,</w> 9673
Chandi garh</w> 9673
र च 9672
नती जे</w> 9672
झ ग 9671
क स</w> 9671
L ab 9671
N agar</w> 9669
kill ing</w> 9669
स्टे डियम</w> 9668
s ense</w> 9667
mon e 9667
ंड ी</w> 9666
बै क</w> 9666
आ मिर</w> 9663
प्रशं सा</w> 9663
g ood 9661
descri bed</w> 9660
we ather</w> 9659
ब् लॉ 9658
ज़ा र</w> 9658
e di 9655
उ त 9652
आका श</w> 9652
ख )</w> 9650
star ting</w> 9650
9 1</w> 9649
res cue</w> 9648
tr uck</w> 9645
i )</w> 9643
म ो</w> 9642
प्र भारी</w> 9642
कि रा 9642
ing ?</w> 9642
टॉ प</w> 9641
जो ड़ी</w> 9639
down .</w> 9634
M an</w> 9632
benef ici 9627
w at</w> 9626
जि क्र</w> 9626
s outh</w> 9625
R ural</w> 9624
वाणि ज्य</w> 9624
स् कोर</w> 9623
al one</w> 9621
requ ested</w> 9621
boo ked</w> 9621
C er 9620
यु क्‍त</w> 9619
के ,</w> 9618
शि वि 9617
8 1</w> 9613
land s</w> 9613
es cap 9612
happ en</w> 9612
सी ए 9606
mas sive</w> 9605
s an 9604
Rajasth an,</w> 9604
meet ings</w> 9602
ज ौ 9601
or a</w> 9594
दिग् गज</w> 9594
यूरो प</w> 9589
आ कर</w> 9588
k id 9588
खा ता</w> 9585
hi bi 9578
pro ph 9576
कै द</w> 9576
on ed</w> 9574
जा तियों</w> 9573
पा लिका</w> 9570
acc ept 9570
गुज रा 9570
भाष ाओं</w> 9566
bod y.</w> 9566
Pro v 9564
8 3</w> 9562
ad equ 9562
ha ps</w> 9560
j ustic 9555
ak h 9555
वी र 9555
over all</w> 9554
con sum 9553
ज़ मीन</w> 9552
ल ेंस</w> 9550
Am rit 9550
Hum an</w> 9549
ग ह 9547
विचार -वि 9545
wor d 9544
G ul 9541
am end 9541
ul ation</w> 9541
man ner</w> 9539
Le ad 9539
स्मृ ति</w> 9539
ड ियो 9537
s ong 9537
situ ation.</w> 9537
अड् डे</w> 9537
परं तु</w> 9537
Baner jee</w> 9536
प्र भार 9534
ल् ट</w> 9534
R oh 9532
post s</w> 9532
प्रोत्सा हन</w> 9532
C ooper 9531
अल्प संख्य 9531
c lo 9529
फ् लै 9529
एन आर 9521
Ad vis 9521
plann ing</w> 9521
रि स</w> 9520
ठो स</w> 9520
inn ings</w> 9517
धि कारी</w> 9515
Fren ch</w> 9515
Res erve</w> 9510
de ,</w> 9508
इ कट् 9504
H ave</w> 9504
a id</w> 9503
कार ा</w> 9502
अं त 9500
author ity</w> 9500
Ar un 9499
ट्रो ल</w> 9499
क वि 9496
पंचा यत</w> 9496
W ash 9495
tor al</w> 9495
Indi es</w> 9491
Australi an</w> 9491
अमरी का</w> 9491
4 :</w> 9488
sol u 9488
म ण 9486
S uk 9486
िय े।</w> 9486
दि रा</w> 9485
राज ्‍ 9485
Congres s,</w> 9485
B omb 9484
M ali 9483
करें ,</w> 9483
लि हा 9482
p al 9481
sist er</w> 9481
सं ग्र 9479
शै ली</w> 9479
मा ता- 9478
पु स्त 9478
त्‍ य 9477
C ri 9476
हि तों</w> 9476
इंड िया 9476
pur .</w> 9474
ro b 9469
Sin ha</w> 9469
- year-old</w> 9467
\ ""</w> 9467
उड़ा न</w> 9466
commis sion 9465
चु ने</w> 9463
परामर् श</w> 9462
aff ec 9460
x im 9459
मि साल</w> 9458
आप स</w> 9458
फे ल</w> 9458
साथ ,</w> 9458
मूल ्या 9458
ब्र ह् 9457
her it 9456
neighb our 9456
cer tific 9455
घ ू 9454
प्र भु 9454
ई .</w> 9453
आ ख़ि 9451
र मेश</w> 9450
c ent,</w> 9448
परि चालन</w> 9448
दृ ढ़</w> 9447
ियन शिप</w> 9447
aw areness</w> 9445
w al,</w> 9444
थो ड़ा</w> 9444
पर ा</w> 9443
ह ता 9441
ओ पन</w> 9441
ंग ी</w> 9441
br inging</w> 9441
Nep al</w> 9441
रा ग</w> 9440
ut ing</w> 9439
गड करी</w> 9437
सं सार</w> 9435
संशो धित</w> 9435
त ट</w> 9434
Bra h 9434
h ost</w> 9431
V ish 9430
ना यक</w> 9430
रो मा 9430
fi xed</w> 9429
बो ल</w> 9429
ऋ ष 9427
Ran bir</w> 9427
ह रि 9426
उपलब् ‍ 9426
प द् 9425
ट्यू ट</w> 9423
बं दर 9422
भार ती</w> 9420
Gang a</w> 9420
A pp 9417
gu ar 9417
दू ध</w> 9416
मं द</w> 9414
H am 9413
we st 9412
as tic</w> 9404
हि द</w> 9404
wish es</w> 9403
m ist 9400
वर्ष ा</w> 9399
educ ational</w> 9399
व्य ू</w> 9395
tra in 9395
A ward</w> 9394
समझ ने</w> 9394
gr ant</w> 9393
प ंड 9392
कि त</w> 9392
ख ब 9391
Bus iness</w> 9391
केंद्र ों</w> 9390
boo k 9389
2018 -19</w> 9389
( 2 9387
ऑ क् 9387
अं कों</w> 9387
रण बीर</w> 9387
अयो ध्या</w> 9386
ac tors</w> 9385
शु भार 9384
रु प</w> 9382
मह त्‍ 9382
syst ems</w> 9380
so f 9379
tal king</w> 9375
R ul 9374
ग् लो 9374
agric ultural</w> 9370
oo d,</w> 9368
al ong 9367
D G 9366
in k</w> 9366
योज न</w> 9365
B udd 9364
या ं</w> 9362
ob served</w> 9362
ब ें 9361
con ven 9361
ते ज 9359
hear ts</w> 9358
साय िक</w> 9358
र व</w> 9357
मुसल मानों</w> 9357
ard han</w> 9356
eh old 9356
ef ul 9354
V ic 9353
particip ate</w> 9353
दु ष् 9352
भ ड़ 9351
Christi ans</w> 9351
En ter 9349
दोपह र</w> 9348
एक्स प्रेस</w> 9347
म ्र 9345
परि स्थितियों</w> 9345
attemp t</w> 9344
in em 9341
लिख े</w> 9337
कॉर पो 9336
डा टा</w> 9335
gre en</w> 9330
rainf all</w> 9330
Ass ist 9325
पक ड़</w> 9325
रण नीति</w> 9323
lear ning</w> 9323
फ़ा इल</w> 9323
फी चर्स</w> 9320
Russi an</w> 9318
से मी 9316
orig inal</w> 9316
स ौर</w> 9315
शि ल् 9315
A am 9313
an ch 9310
सर दार</w> 9308
se l</w> 9307
degre es</w> 9307
ch ann 9306
poll ing</w> 9305
fl ic 9303
सीसी टीवी</w> 9302
को ट</w> 9300
झू ठ</w> 9298
त्र ा 9296
कुल दीप</w> 9294
Yadav ,</w> 9288
Wash ing 9288
का ।</w> 9287
fill ed</w> 9286
निस् संदेह</w> 9286
it s.</w> 9285
im ag 9285
particip ation</w> 9285
पा दु 9283
en able</w> 9279
ad d</w> 9279
up ,</w> 9279
trans fer</w> 9279
सं स्‍था 9277
Tel ug 9277
ं ति</w> 9274
ऑ टो 9272
lif e,</w> 9270
सच्च े</w> 9270
जॉ न</w> 9269
डि ़ 9267
वाणि ज्य 9264
प्रत्या शी</w> 9264
Champi on 9264
र वाना</w> 9263
f light</w> 9263
कारो बारी</w> 9262
BJP ,</w> 9260
S U 9258
Fil m</w> 9255
Inv estig 9255
स ना</w> 9252
S il 9251
boo ks</w> 9251
in surance</w> 9249
अस्पता लों</w> 9246
fl ag 9243
कला कार</w> 9243
mor tem</w> 9242
नि कल 9241
स ला</w> 9240
धम की</w> 9240
बॉ ल</w> 9238
L oc 9234
8 2</w> 9233
टा ने</w> 9232
S af 9231
आएंग े।</w> 9231
प थ 9230
T H 9228
Sa udi</w> 9228
F ound 9227
ली ल</w> 9227
camer a.</w> 9227
cover ed</w> 9226
sh ar 9225
sub sequ 9224
CC TV</w> 9223
इं स्टी 9222
सदस् य 9222
म ले 9221
करने ,</w> 9221
beg inning</w> 9220
tre ated</w> 9217
को ष</w> 9215
IC IC 9214
Mano j</w> 9214
K .</w> 9212
उपा यों</w> 9212
ए टी 9210
pre t 9207
attac ked</w> 9207
ra di 9203
countr ys</w> 9203
सां सद 9203
1 20</w> 9201
आ स्ट्रेलिया</w> 9199
उत् कृ 9199
Tour ism</w> 9198
मुख ्यालय</w> 9194
K ing</w> 9192
संसा धनों</w> 9191
is ol 9190
be .</w> 9183
rem emb 9183
उ ंड</w> 9181
S nap 9180
pr oud</w> 9177
एयर पोर्ट</w> 9177
सीई ओ</w> 9177
यू जर्स</w> 9176
Di w 9174
हालाँ कि</w> 9174
गू गल</w> 9173
म त् 9169
ent ry</w> 9163
चाल ू</w> 9163
recog n 9163
gri ev 9161
मांग ी</w> 9161
ला ।</w> 9160
f ying</w> 9159
reduc ed</w> 9156
represent atives</w> 9155
ह वाले</w> 9154
C y 9152
अहम दाबाद</w> 9151
Ac t.</w> 9148
मी ,</w> 9147
quar ters</w> 9147
है !</w> 9144
पूर् ण 9143
Adity anath</w> 9143
म - 9142
को ं,</w> 9142
regi on.</w> 9142
ey es</w> 9141
ख ो</w> 9140
च य 9140
ol s</w> 9140
हा नि</w> 9140
समझ ा 9140
es / 9137
B es 9136
पिछ ली</w> 9136
P ,</w> 9135
no tic 9134
ob il 9134
समझ ते</w> 9134
M eg 9133
20 22</w> 9133
बढ़ ते</w> 9132
धी रे</w> 9130
Chhattis garh</w> 9127
p m</w> 9125
क् ल 9124
Earli er</w> 9124
advis ed</w> 9120
sec u 9119
भट् ट</w> 9119
विचार-वि मर्श</w> 9118
कहा , 9117
महि ं 9116
promot ing</w> 9116
बाद ल</w> 9113
प्र ता 9110
" It</w> 9108
s / 9107
Banglad es 9106
र कम</w> 9105
बड़ े</w> 9104
ह ारी</w> 9103
c ity.</w> 9102
ची जें</w> 9102
sch ol 9102
र ौ 9100
Direc tor 9098
ह जारों</w> 9097
म रीज</w> 9095
पड़ा ।</w> 9094
hel ps</w> 9090
w est</w> 9089
जो शी</w> 9089
ph oto</w> 9088
प त्रि 9085
ऑ र् 9083
vo ice</w> 9083
t our</w> 9082
des ign</w> 9081
beauti ful</w> 9081
मरा ह</w> 9080
decisi ons</w> 9078
Sch ool 9077
docum ents</w> 9077
Ab ra 9074
जह न् 9074
न शील</w> 9073
again .</w> 9069
F ive</w> 9067
पार ं 9067
व पूर्ण</w> 9065
परिणा म 9065
जी व 9064
cont act</w> 9061
N ow,</w> 9060
पु रानी</w> 9060
v ation</w> 9058
लड़ ने</w> 9056
does nt</w> 9056
pl us</w> 9055
मे ज 9054
सा जि 9053
bo ost</w> 9052
int end 9052
दर वा 9052
Aadha ar</w> 9051
Princ ipal</w> 9050
w icket</w> 9049
Ram esh</w> 9049
F e 9047
मध ु 9045
hous e.</w> 9043
ने वाली</w> 9042
mak er</w> 9041
connec ted</w> 9041
रे प</w> 9040
D ,</w> 9039
Cha ud 9039
पह ले,</w> 9038
पूछ े</w> 9038
Sha k 9037
fa ir</w> 9036
8 6</w> 9035
अ म् 9034
v a</w> 9032
वे द</w> 9031
R at 9029
fi re.</w> 9029
s ),</w> 9025
आय कर</w> 9023
लखन ऊ</w> 9023
P oll 9021
ad ed</w> 9021
टी - 9020
congratul ated</w> 9020
लेकि न,</w> 9019
eli gi 9017
Rash trapati</w> 9013
ब ई</w> 9011
K ings</w> 9011
णा ,</w> 9011
Isra el 9011
Nirm ala</w> 9010
v ed.</w> 9007
- e- 9006
re vol 9006
ev ision</w> 9002
8 9</w> 8998
को र् 8998
sec tors</w> 8998
पार दर् 8998
regist ration</w> 8997
1 1, 8995
मद्दे नजर</w> 8993
k new</w> 8992
सा स</w> 8992
निर् मला</w> 8991
कृ प 8991
श िक</w> 8988
hi l</w> 8988
दक्षि णी</w> 8986
partn er</w> 8985
disp ute</w> 8984
g ard 8983
दस्तावे ज</w> 8982
se a</w> 8981
Pro ject</w> 8981
S idd 8979
polic em 8978
hol y</w> 8977
Pr ice</w> 8976
k ar,</w> 8967
ent re 8965
forc ed</w> 8963
दे खि 8962
g un 8961
रा ,</w> 8961
स्‍वा स्‍थ 8960
भ री</w> 8959
नी तियों</w> 8959
पु र् 8958
सं ग्रह</w> 8957
मि साइ 8953
ut ri 8952
di plom 8951
उप स्थिति</w> 8951
strategi c</w> 8951
An g 8947
system .</w> 8947
clim ate</w> 8947
कहा ।</w> 8946
cricket er</w> 8944
अ चा 8942
Koh li 8942
इं स</w> 8939
sugg ested</w> 8938
p ast 8937
न ।</w> 8936
Alla h.</w> 8936
as ser 8935
u d</w> 8934
ru it 8931
पै के 8928
धार णा</w> 8923
cap it 8922
नही ं.</w> 8922
tonn es</w> 8921
शि क्षक</w> 8920
जु ड़ा</w> 8920
F a 8919
कोय ला</w> 8919
le ase</w> 8918
ow ever</w> 8918
ICIC I</w> 8918
झ े</w> 8916
ev ent 8916
mut ual</w> 8916
कै सा</w> 8915
कंप नियां</w> 8914
मार् क</w> 8913
ए प</w> 8909
Ven k 8908
स फाई</w> 8907
ra ins</w> 8906
K ir 8905
जर् मन</w> 8903
प्र वर्त 8902
l ack</w> 8900
2016 -17</w> 8898
K now 8896
Dem ocr 8896
( 2)</w> 8893
सु ष 8892
DELHI :</w> 8891
i e</w> 8889
गि र</w> 8889
war i</w> 8887
aj i</w> 8886
fif th</w> 8886
e . 8885
ह ियों</w> 8884
In vest 8883
( यू 8880
an e 8878
sc ale</w> 8877
फ् टी</w> 8877
eng aged</w> 8876
जग हों</w> 8876
बे टा</w> 8875
श्री नगर</w> 8874
Yog a</w> 8874
resid ents</w> 8874
प्रदर्शन कारियों</w> 8874
Simil arly,</w> 8874
( और</w> 8873
दे ं।</w> 8873
be fore 8873
sp ac 8872
Reg ist 8872
op e</w> 8870
O per 8868
‍ ि 8867
की मत 8867
घटना स्थल</w> 8866
Gup ta</w> 8866
अ स् 8865
l ose</w> 8863
beha vi 8863
शता ब् 8863
air port</w> 8862
कपू र,</w> 8862
M emor 8858
वि ज्ञा 8857
जे एन 8855
pre - 8854
भे द</w> 8854
B )</w> 8853
vari ant</w> 8853
प्रति बद्धता</w> 8850
दि खा</w> 8847
Sing ap 8844
व्यव स्था 8844
Ad dressing</w> 8843
सिं गा 8842
St ar 8841
पारं परिक</w> 8839
साइ ड</w> 8838
12 8GB</w> 8836
स् तों</w> 8834
ड ेंट</w> 8833
बंध ित</w> 8833
Sha h 8832
साहि त्य</w> 8832
bro ke</w> 8831
P S</w> 8830
च ेंज</w> 8829
fi gu 8828
एम एस</w> 8827
री ना</w> 8825
मुठभे ड़</w> 8825
( in</w> 8824
ell ,</w> 8824
ob serv 8823
जाएंग े</w> 8821
distric t,</w> 8820
पोर् टल</w> 8820
week .</w> 8818
लो न</w> 8817
माता- पिता</w> 8815
ंग ु 8814
med al</w> 8814
power ful</w> 8814
मुझ से</w> 8812
pi ec 8812
under way</w> 8808
साइ किल</w> 8808
Ger man 8808
मृत कों</w> 8807
आ ँ 8803
ऑ स्ट्रेल 8803
Kul deep</w> 8803
cri me</w> 8802
R B</w> 8801
गि रो 8800
se g 8799
आप त् 8799
ug s</w> 8797
सफ ल 8797
ल द्दा 8795
रै ंकिंग</w> 8795
आजा दी</w> 8794
प्रति बद्ध</w> 8793
ND A</w> 8793
करवा या</w> 8791
de ep 8790
G ha 8789
दी .</w> 8789
Man tri</w> 8787
Bihar ,</w> 8785
Thak ur</w> 8782
न मा 8780
स् मार्ट</w> 8779
ऑपरे शन</w> 8779
व क्‍त</w> 8778
cre ation</w> 8777
ल ड़</w> 8776
अ ह 8776
compris ing</w> 8776
गा ड़ी</w> 8773
बे स</w> 8773
heal thy</w> 8772
in k 8771
Fin ancial</w> 8769
पुरु षों</w> 8769
आप सी</w> 8767
पेश कश</w> 8765
कच्च े</w> 8765
under standing</w> 8764
एफ )</w> 8764
8 8</w> 8763
स् की 8760
R oyal</w> 8759
टी में</w> 8759
ग ौर</w> 8758
े ?</w> 8758
यू निय 8758
Mar k 8757
कमा ई</w> 8755
बा ई</w> 8754
नामा ंकन</w> 8752
ट कों</w> 8751
हो गी.</w> 8749
Mus lim 8748
विशेष ज्ञ</w> 8748
वि परी 8747
k har</w> 8746
कार्या न्वयन</w> 8746
qu oted</w> 8745
इंजीनिय रिंग</w> 8743
सं वाद</w> 8739
Kolk at 8739
ow ned</w> 8738
prac tice</w> 8738
प शु 8737
R )</w> 8737
worl ds</w> 8736
ra .</w> 8735
O ut</w> 8733
सब को</w> 8732
सं वैधानिक</w> 8731
ve get 8730
ter ed</w> 8729
tim es.</w> 8729
pass ing</w> 8729
ज़ि ंदगी</w> 8729
हू र</w> 8728
transp aren 8728
ता ंत्रिक</w> 8727
fac t,</w> 8727
ic it 8726
ad s</w> 8725
अचा नक</w> 8724
मो टर</w> 8721
ओ )</w> 8720
tr ust 8720
histor ic</w> 8718
oc ks</w> 8716
ologi es</w> 8714
शेय रों</w> 8714
ण ियों</w> 8713
b ound 8711
ment s,</w> 8710
शर द</w> 8710
ing u 8709
प ति,</w> 8708
Tod ay</w> 8708
न सी 8706
नी ला 8706
Ne hr 8706
स ऊ 8705
th ings.</w> 8705
back .</w> 8705
सक ें।</w> 8704
n y</w> 8702
il legal</w> 8702
समझ ा</w> 8702
: -</w> 8701
os h</w> 8700
Ji o</w> 8700
be half</w> 8698
sur g 8698
ext end</w> 8697
ww w. 8697
A L 8696
ur rec 8696
टु क 8696
D in 8695
mov ing</w> 8695
नि भा</w> 8694
ऊ ंचा 8693
us ually</w> 8693
gu n</w> 8693
अ टल</w> 8692
क ौर</w> 8690
op tion</w> 8690
ता पूर्वक</w> 8689
pri ority</w> 8686
b on 8685
फ ्रे 8684
t ed,</w> 8682
Sing h 8682
मि ली 8681
8 7</w> 8679
inf ec 8679
वा ं 8677
बढ़ा कर</w> 8677
t ly,</w> 8675
f ish 8670
pl e.</w> 8670
be l</w> 8668
जीत कर</w> 8668
n agar</w> 8667
ti es.</w> 8666
monit oring</w> 8665
ें .</w> 8664
ex ecutive</w> 8664
cr uc 8664
cas es.</w> 8663
wom en.</w> 8663
सुविधा एं</w> 8662
Uttarak hand</w> 8662
f uel</w> 8661
प्राइ वेट</w> 8661
politi ci 8660
! "</w> 8657
R u 8657
death .</w> 8657
dep uty</w> 8657
प्रतिनि धियों</w> 8656
mos ph 8656
को )</w> 8654
पी सी 8654
- led</w> 8653
भ ले</w> 8650
क़ ु 8650
valu es</w> 8649
च र 8646
ार ,</w> 8645
s log 8642
इंड ो 8641
in spec 8640
reas on 8640
एंड ्र 8635
incid ents</w> 8632
- 21</w> 8631
har ,</w> 8627
ant s,</w> 8627
शि ंग 8623
हम ला 8617
day s,</w> 8617
200 6</w> 8617
tow ard</w> 8617
hi b 8615
भू कंप</w> 8615
sp ap 8613
सुष मा</w> 8613
" This</w> 8612
5 :</w> 8612
li z 8612
Ther efore,</w> 8612
1 ,0 8611
इं दिरा</w> 8611
भी )</w> 8611
run s.</w> 8611
M .</w> 8610
O F</w> 8610
war a</w> 8609
fem ale</w> 8609
आम तौर</w> 8608
ट अप</w> 8607
sust ained</w> 8607
श े</w> 8604
cam p 8604
ab le,</w> 8603
r y.</w> 8602
प्र सार</w> 8602
hon our</w> 8601
विरा सत</w> 8599
द्वि तीय</w> 8598
का लिक</w> 8597
de ad.</w> 8597
int el 8597
वि केट 8596
con flic 8596
k ing 8595
अ खिल</w> 8594
T V 8594
n ative</w> 8594
बर करार</w> 8593
bro ther 8592
B oo 8591
S T</w> 8590
s ,"</w> 8588
कप्ता न),</w> 8588
Mar uti</w> 8586
H el 8585
s a</w> 8585
them sel 8585
Pet roleum</w> 8584
sel fi 8583
He av 8583
dri ve</w> 8583
कर् मी</w> 8582
dec ide</w> 8582
tou ch</w> 8582
ज़रू री</w> 8582
near by</w> 8582
Un der 8581
quar ter</w> 8581
pl ic 8580
टे ज</w> 8580
आवा ज</w> 8579
क क्ष</w> 8577
फी सद</w> 8576
जता या</w> 8576
अधि सूचना</w> 8575
जागरू कता</w> 8575
fall s</w> 8573
पंजी करण</w> 8573
J D</w> 8568
re fer 8568
Tem ple</w> 8568
Lad ak 8568
ची ज़ 8567
stri k 8566
ज स 8563
1. 0 8562
encoun ter</w> 8562
िय त</w> 8560
at trac 8559
rul ed</w> 8559
bo x 8557
campa ign 8557
Polic y</w> 8557
प्रति ष् 8555
z a</w> 8554
ag u 8553
शां ति 8553
जा तीय</w> 8552
produc t</w> 8552
sugg es 8552
A jit</w> 8551
communic ation</w> 8551
min or</w> 8547
fav our</w> 8547
सीतार मण</w> 8546
ं व</w> 8545
फॉ र</w> 8545
defe ated</w> 8545
गढ़ ,</w> 8545
क्र ू 8544
गो ली 8544
इन का</w> 8544
दी र् 8543
ar ticle</w> 8542
बै ंकिंग</w> 8541
ंकि त</w> 8541
आशं का</w> 8541
ag o</w> 8539
Ac adem 8539
फ िया</w> 8537
F l 8537
res ident</w> 8537
con trac 8536
जु ला 8536
enh ance</w> 8536
What s 8536
खरीद ने</w> 8536
त ल 8533
200 5</w> 8533
Tr ans 8530
अन ्य 8528
Lt d</w> 8527
ज पे 8526
im age</w> 8524
suff ici 8524
Sha hid</w> 8519
BJP s</w> 8519
sp end</w> 8517
promis ed</w> 8514
ot a</w> 8513
तरी कों</w> 8513
कैप् टन</w> 8513
tic k 8512
ab sol 8511
mat ch 8511
चु न 8508
te am.</w> 8506
बढ़ ा 8506
ai ah</w> 8505
सेल् फी</w> 8505
id .</w> 8504
cent res</w> 8499
प्र वासी</w> 8498
शा खा</w> 8496
ass ad 8495
नज दी 8494
Xia omi</w> 8494
गो ल</w> 8493
वि मान 8490
मो टर 8490
thre at</w> 8489
M E 8488
b ad 8488
charac ter</w> 8488
Indi ra</w> 8486
भ जन</w> 8485
Sithar aman</w> 8485
il a</w> 8483
no tification</w> 8483
नि देशा 8482
K i 8481
fe e</w> 8481
ti ves</w> 8478
कर ना 8478
S ,</w> 8477
hum an 8475
क़ ौम</w> 8473
मार् च,</w> 8471
MP s</w> 8470
बै रल</w> 8469
thous ands</w> 8469
drag on</w> 8469
आ ना</w> 8468
high ly</w> 8468
पाय लट</w> 8467
इ ब्रा 8466
guid elines</w> 8462
fav our 8461
off ering</w> 8460
arrang ements</w> 8459
खे ती</w> 8458
वे ज</w> 8457
बना ते</w> 8457
बला त्कार</w> 8457
ligh t 8456
न ू</w> 8455
N am 8453
F ad 8453
land ,</w> 8453
बा जारों</w> 8452
शा हिद</w> 8450
द्ध ा</w> 8448
achiev ed</w> 8444
B el 8441
च ंद</w> 8439
Y es,</w> 8439
loo ks</w> 8439
objec tive</w> 8439
S ard 8438
sy mp 8438
अभिष ेक</w> 8432
फ् ट 8431
en joy</w> 8430
cre d 8429
develop ment.</w> 8429
\\xa 0 8429
मिल ी।</w> 8428
कंप ्यूटर</w> 8428
over ,</w> 8425
पॉ जि 8425
h in 8421
मस्जि द</w> 8421
d ates</w> 8419
com preh 8419
ले ता</w> 8418
ध ्र 8416
सू क्ष 8416
Ra vi</w> 8415
pr ise</w> 8415
9 8</w> 8413
inn ers</w> 8410
प्रार ंभिक</w> 8410
Mah indra</w> 8409
कि ंग्स</w> 8408
sol ar</w> 8408
अके ले</w> 8407
मूल्या ंकन</w> 8406
ure ment</w> 8405
प्रती क</w> 8405
Bes ides,</w> 8405
क् ताओं</w> 8404
आई एम 8404
एनसी पी</w> 8404
9 7</w> 8403
elec tric</w> 8402
co al</w> 8402
reven ue</w> 8402
सर कार 8401
l ay</w> 8400
di e</w> 8399
per mission</w> 8399
T om 8394
Bec ause</w> 8394
im pres 8393
batt le</w> 8393
सेवा नि 8392
se ems</w> 8391
ण ु</w> 8390
S ri 8388
चा ंदी</w> 8388
ची जों</w> 8388
प ति 8387
सऊ दी</w> 8387
r ati 8384
रह ेंगे</w> 8383
m em 8381
र ्र 8380
जान ने</w> 8380
D u 8376
पहुंच े।</w> 8375
T y 8374
निर् धारण</w> 8374
प ने</w> 8372
जा ओ 8372
de .</w> 8372
बढ़ा या</w> 8372
भेज ने</w> 8372
Aam ir</w> 8372
friend ly</w> 8371
ear th,</w> 8370
ो ं 8369
टा ई</w> 8367
फ़ ै 8367
\\ u200d 8367
ल ेंगे</w> 8366
cy cle</w> 8366
9 4</w> 8365
f ar,</w> 8364
ना र</w> 8363
पश्चा त</w> 8363
es si 8361
mur d 8359
ai m</w> 8357
coll ection</w> 8357
आ ए।</w> 8352
ol d,</w> 8352
Nehr u</w> 8352
9 2</w> 8350
ul a</w> 8350
ong st</w> 8348
S BI</w> 8347
मंत्र ी,</w> 8347
आव श्‍ 8347
di alog 8346
व री 8344
si ze</w> 8344
sal es</w> 8343
मार्ग दर्शन</w> 8343
त क,</w> 8340
वाय दा</w> 8340
I G 8338
ro se</w> 8338
we igh 8338
la ,</w> 8336
ord er.</w> 8336
scienti fic</w> 8336
I F 8335
an th 8334
tr ack</w> 8334
त िया 8333
मा ँ</w> 8333
stak ehold 8333
constitu ted</w> 8332
मश हूर</w> 8332
Ar m 8330
लु क</w> 8330
ले न</w> 8329
ip ur</w> 8329
his he 8327
vis iting</w> 8326
pow ers</w> 8326
उ ल 8324
म छ 8323
9 3</w> 8323
म् प</w> 8323
fi ve- 8323
इ ज 8321
चं द्र</w> 8321
cour ts</w> 8320
jour ney</w> 8320
ज ब् 8319
Ter rit 8317
वाता वरण</w> 8316
ईं धन</w> 8314
स्‍वास्‍थ ्‍य</w> 8314
7 9</w> 8311
K ang 8311
at mosph 8311
ध क</w> 8309
रॉ य</w> 8309
ad mit</w> 8308
D A 8307
Kov ind</w> 8307
B ure 8306
b ing</w> 8304
भार ् 8304
छा न 8304
l er</w> 8303
सी .</w> 8303
लि ए।</w> 8302
विस्फो ट</w> 8302
B e</w> 8300
र वी 8295
आतंक ियों</w> 8295
Ger many</w> 8295
n i</w> 8294
सिय स</w> 8294
ल िया 8293
writ e</w> 8291
बि न</w> 8290
Paw ar</w> 8290
in ter</w> 8289
ain ,</w> 8289
we ak 8289
ra in 8288
ment )</w> 8287
शैक्ष णिक</w> 8287
F er 8286
Ste p</w> 8286
protest s</w> 8286
वैज्ञा निकों</w> 8285
uc k 8284
Lond on</w> 8282
pen sion</w> 8281
आक लन</w> 8281
Karnatak a,</w> 8279
निवे शकों</w> 8279
क वर</w> 8278
यु ग</w> 8278
to - 8278
ed ing</w> 8277
ad di 8276
वि विध 8275
उप युक्त</w> 8275
deleg ation</w> 8273
C ode</w> 8272
jo ining</w> 8272
-1 5</w> 8271
विश्‍ व</w> 8271
N if 8270
बू ल</w> 8270
Fad nav 8269
V ad 8268
हो .</w> 8268
gov t</w> 8268
oc ked</w> 8267
societ y.</w> 8267
sp or 8266
ड ॉ</w> 8265
भ य</w> 8264
bu y</w> 8263
report edly</w> 8263
मध्य म</w> 8263
पत्र कारों</w> 8261
b at</w> 8259
ev ol 8259
ut t 8259
work ,</w> 8257
9 6</w> 8256
sh op 8256
वर् ड</w> 8255
उप करणों</w> 8255
accoun t.</w> 8254
क लर</w> 8253
tr an 8251
अनु भ 8251
v ed 8250
O )</w> 8250
b s</w> 8249
प्रोसे सर</w> 8247
न ती</w> 8246
t ot 8245
lo ans</w> 8245
hur t</w> 8243
प् लस</w> 8241
क ठो 8239
wed ding</w> 8239
ह ल 8238
पे शे 8238
Ar ound</w> 8238
सम ग्र</w> 8237
um e</w> 8236
मह ेंद्र</w> 8236
Shar ad</w> 8236
कानू नों</w> 8236
ह त्या 8235
ex pendit 8234
l eng 8233
P P 8233
ensi ons</w> 8233
pos e</w> 8232
knowled g 8232
च ि</w> 8231
अ दा</w> 8228
con testing</w> 8228
anal y 8224
ac i 8223
खि ताब</w> 8223
Kam al</w> 8223
शि क्षकों</w> 8221
Ex press</w> 8221
% )</w> 8220
ट ें 8219
Congres s.</w> 8219
b an 8218
मि न</w> 8217
qu ick 8217
prof it</w> 8215
w aste</w> 8214
Snap dragon</w> 8214
add ing</w> 8213
लिख ी</w> 8213
जरू र</w> 8213
शि व</w> 8212
facilit ate</w> 8210
चार् य</w> 8209
करेंग े.</w> 8208
S crip 8207
in str 8207
पहुंचा ने</w> 8207
कर )</w> 8206
Tr ade</w> 8206
देंग े</w> 8206
] ,</w> 8205
पीड़ िता</w> 8205
‘ ‘</w> 8204
categ or 8204
Nav y</w> 8203
मु ँ 8202
resol ve</w> 8201
‍ य</w> 8200
W il 8200
सा ,</w> 8200
it ?</w> 8199
पा ते</w> 8199
पढ़ ाई</w> 8198
Ab hishe 8196
Inde ed,</w> 8196
witness ed</w> 8196
201 4 8194
R ag 8193
fut ure.</w> 8193
क् टि 8192
ट ियों</w> 8191
b ound</w> 8190
ए कल</w> 8189
e at</w> 8189
Gam es</w> 8188
S ud 8186
बॉ स</w> 8186
व ारा 8185
मे क</w> 8185
शु रु</w> 8184
col our</w> 8182
z er 8181
आइ ए</w> 8181
is e.</w> 8180
ep tion</w> 8180
F ac 8177
उप योग 8177
ther efore,</w> 8177
पै नल</w> 8176
ach es</w> 8175
k :</w> 8174
तथ ्य</w> 8174
दो ष</w> 8173
क मान</w> 8170
neg ative</w> 8170
दर् द</w> 8169
care er</w> 8168
le - 8167
M ed 8166
suff ering</w> 8165
West ern</w> 8165
announc ement</w> 8162
समा जवा 8161
go al</w> 8158
त ता</w> 8157
I S</w> 8156
the e</w> 8156
ul ts</w> 8156
प्रा प्‍त</w> 8156
फो र् 8156
ु ति</w> 8155
M emb 8155
अत्य धिक</w> 8155
democr ac 8154
be ,</w> 8152
ं द्र</w> 8151
U . 8151
tra di 8150
wel come</w> 8150
ti tle</w> 8148
fal se</w> 8147
जन संख्या</w> 8146
hospit als</w> 8146
dam age</w> 8145
E d 8144
P ay 8144
con sequ 8144
मान ्य 8144
हिन् दी</w> 8144
फिल् ‍ 8142
oper ating</w> 8141
ल ियां</w> 8140
( 5 8140
क् या 8140
जि तना</w> 8139
sou l</w> 8139
निर्देश ित</w> 8139
बा प</w> 8138
C oll 8137
d rug</w> 8137
1. 5</w> 8137
सा मू 8136
b y 8134
संतो ष</w> 8133
डि प् 8130
खु द 8130
क ताओं</w> 8129
ris ing</w> 8129
इस्ला म</w> 8129
N ob 8128
pil gri 8128
संख ्‍ 8127
प् शन</w> 8126
ड़ ी 8125
Chand ra</w> 8123
f ill</w> 8117
pr ised</w> 8111
परमे श्वर</w> 8111
Ja ish 8111
v o</w> 8108
सै न</w> 8107
Pro ph 8104
recover y</w> 8104
construc ted</w> 8104
म ्यू 8103
च ले 8103
list ed</w> 8102
रि सर्च</w> 8101
stand ard</w> 8101
म न् 8097
ap p</w> 8097
भि न्न</w> 8096
श्‍ य</w> 8096
प्रेर णा</w> 8095
रहे गी।</w> 8094
उन् हीं</w> 8093
महिं द्रा</w> 8093
ब ंग 8092
दौरा न,</w> 8092
ही म</w> 8088
CR PF</w> 8088
व ली</w> 8086
G ir 8085
र ें 8084
ou t,</w> 8084
Jit endra</w> 8084
० ० 8082
चै म्प 8082
आकर् षित</w> 8082
new spap 8081
A j 8080
दि ख</w> 8080
e ks</w> 8079
un ion</w> 8079
न क् 8078
pan el</w> 8077
Var anas 8077
ली - 8076
Sy stem</w> 8076
wel com 8076
r ad 8075
प्रभा व 8073
बहा दु 8072
b )</w> 8070
Th ir 8070
call ing</w> 8070
Progr amme</w> 8070
से क् 8067
ेंग ी।</w> 8066
स्पे शल</w> 8066
H ere 8065
साउ थ</w> 8065
म ै</w> 8060
c ov 8060
co sts</w> 8060
वार दा 8060
नरे न्‍द्र</w> 8060
खास कर</w> 8056
फ ौ 8054
थ ु 8054
G l 8054
कृप या</w> 8052
ट )</w> 8051
कना डा</w> 8051
डी आर 8049
Ex pres 8049
क़ ी 8049
उपलब्‍ ध</w> 8049
मि ट्टी</w> 8047
सृ जन</w> 8046
व ह 8045
औ ष 8042
R .</w> 8041
US $</w> 8040
मजबू ती</w> 8038
एम सी</w> 8037
recomm ended</w> 8037
प्रार ू 8035
Be fore</w> 8035
H indi 8033
ख़ ् 8033
har mon 8032
g ar</w> 8030
सांसद ों</w> 8030
स त्य 8029
वि निर्माण</w> 8028
सर ,</w> 8028
वाणिज्य िक</w> 8026
म् मत</w> 8025
per man 8025
अत्य ंत</w> 8025
0 1</w> 8024
201 3 8024
mi gh 8023
राज्‍ यों</w> 8023
offic e.</w> 8022
qu i 8020
n um 8017
co ast 8017
Ah med</w> 8016
r on</w> 8015
ens uring</w> 8015
त ित</w> 8012
क ने</w> 8011
un al</w> 8011
wa iting</w> 8011
प्रि ंट</w> 8010
edul e</w> 8010
ने श</w> 8008
as king</w> 8006
tour ism</w> 8005
छान बीन</w> 8003
बे न</w> 7998
भार त,</w> 7997
फी स</w> 7996
राम नाथ</w> 7996
फ ,</w> 7993
हो गी,</w> 7992
प् पा</w> 7992
vic e- 7992
बिज नेस</w> 7992
st ation.</w> 7991
बा ग 7991
be ar</w> 7991
stud ents.</w> 7991
situ ated</w> 7990
किलो ग्राम</w> 7990
Olymp ic</w> 7990
righ t.</w> 7987
as w 7986
गि रा 7983
sec tor.</w> 7982
एम .</w> 7982
gi ven 7981
mis s 7981
उद्यो गों</w> 7981
पब् लिक</w> 7979
Sh et 7978
defe at</w> 7977
hund red</w> 7977
s elling</w> 7976
comp on 7976
आरएस एस</w> 7976
ra v 7972
ear th.</w> 7971
arrest ed.</w> 7971
f an</w> 7970
आर बीआई</w> 7970
स् कर</w> 7969
बी मार 7969
सु ना</w> 7967
US D</w> 7967
et ings</w> 7965
Bha van</w> 7965
उत्‍ पादन</w> 7965
des igned</w> 7964
2018 :</w> 7964
जा व 7963
आ न् 7962
12 th</w> 7962
colleg e</w> 7962
sub mit</w> 7961
li ber 7958
Pul w 7958
Parliam entary</w> 7957
Ne w 7956
Su z 7956
ने वालों</w> 7955
पट ना</w> 7955
speci fic 7955
deliver ed</w> 7955
सेल् सियस</w> 7954
custom ers</w> 7954
wh ite</w> 7953
न्यू य 7952
batter y</w> 7952
0 9</w> 7950
को र 7950
201 1-1 7950
दो ,</w> 7947
( W 7946
Bra z 7945
HD FC</w> 7945
डायरे क्टर</w> 7943
it ary</w> 7942
रू र</w> 7942
टेक् नो 7942
op posed</w> 7941
G B 7940
it ec 7940
ना श</w> 7939
differ ence</w> 7939
भर ने</w> 7939
i tion</w> 7937
Sam aj 7934
भा इयों</w> 7933
A gar 7929
organis ation</w> 7929
( कप्तान),</w> 7928
twe eted</w> 7928
re ward</w> 7927
discus sions</w> 7927
गो पाल</w> 7925
अप्रै ल,</w> 7925
dist ribution</w> 7923
ail s</w> 7922
शुभार ंभ</w> 7922
D har 7920
farm ers.</w> 7920
दाय रे</w> 7920
long er</w> 7918
ग हरा</w> 7917
भ रे</w> 7917
Har sh</w> 7916
पॉ लि 7914
Ap ple</w> 7914
R ic 7912
" मैं</w> 7911
M un 7911
em ed</w> 7911
मिले गा</w> 7911
स्टॉ क</w> 7909
anc y</w> 7908
demand s</w> 7907
विशेषज्ञ ों</w> 7907
lin ked</w> 7906
ड ै 7904
report ers</w> 7904
K aur</w> 7903
remov ed</w> 7903
वि ंग</w> 7902
ट म</w> 7900
k en</w> 7900
सामू हिक</w> 7898
मुँ ह</w> 7895
लद्दा ख</w> 7893
न ृ 7889
op h 7888
did n't</w> 7886
बु ल</w> 7884
re ds</w> 7883
de ad 7882
P ath 7881
K har 7881
सेमी फाइनल</w> 7881
उ तार 7880
लगा ते</w> 7880
3 rd</w> 7874
pap er</w> 7874
ब ढ 7873
भ ेंट</w> 7873
य द्य 7871
हो ं,</w> 7869
मा न्य</w> 7868
am ongst</w> 7868
over s</w> 7867
sty le</w> 7867
विकेट की 7865
स्वी कृति</w> 7864
cl ari 7860
vol un 7858
ग्राह क</w> 7858
अव श्य</w> 7856
dist ance</w> 7855
plann ed</w> 7855
पड़ो सी</w> 7855
arm ed</w> 7854
vir us</w> 7852
well - 7852
सदस्य ीय</w> 7852
bal ance</w> 7851
movi e.</w> 7850
il eg 7847
Child ren</w> 7846
t al</w> 7845
purcha se</w> 7845
pro minent</w> 7844
अं जाम</w> 7844
अत्य न्त</w> 7843
Cel si 7843
H R 7842
9 00</w> 7841
s low 7840
Amar inder</w> 7839
ulla h</w> 7839
अपे क्षा</w> 7836
Raj k 7835
emp has 7834
सर्वि स</w> 7834
Redd y</w> 7833
म् भ</w> 7832
seri ously</w> 7832
जन्म दिन</w> 7832
er ate</w> 7831
lim it</w> 7831
कि ं 7830
भार त 7829
पत्थ र</w> 7829
ir s</w> 7828
esh war</w> 7828
संदिग् ध</w> 7828
लड़ कियों</w> 7825
ज ज</w> 7824
P F 7824
दे खा 7823
individu als</w> 7822
meet ing,</w> 7821
छ वि</w> 7820
द् वार</w> 7820
for ward 7819
parliam entary</w> 7819
Witness es</w> 7819
res idence</w> 7817
सम् मि 7817
f low</w> 7816
इ ले 7815
( BJP 7814
lov ed</w> 7814
ren der</w> 7812
stop ped</w> 7811
ह री 7809
एक् ट</w> 7809
Industri es</w> 7809
now .</w> 7808
st ly</w> 7807
सं ग्रहण</w> 7807
ला लू</w> 7806
सर ल</w> 7806
ep h 7806
( बी 7802
Dha wan</w> 7801
cris is</w> 7801
per formed</w> 7800
शताब् दी</w> 7799
ऑ टो</w> 7798
P u 7798
rem ove</w> 7797
O S</w> 7794
strength ening</w> 7793
फ ार 7792
श य</w> 7792
क् लि 7792
Sw ach 7792
फ्रा ं 7792
g row</w> 7791
ति वारी</w> 7789
Nif ty</w> 7787
In c 7786
सें ट</w> 7786
कि ट</w> 7783
संस्था ओं</w> 7783
नि स</w> 7782
Affair s,</w> 7782
तेंदु लकर</w> 7781
ड़ ,</w> 7780
दिखा ने</w> 7780
भाज पा 7779
त व्य</w> 7778
B ro 7778
( ई 7777
T ar 7777
टि न</w> 7777
diffic ul 7776
mo tion</w> 7775
cle arly</w> 7775
Modi 's</w> 7775
Sen sex</w> 7775
पु लवा 7773
मह ज</w> 7769
ज ियो</w> 7768
पूर् वा 7766
मा या 7765
Mos es</w> 7763
verdic t</w> 7763
ं ?</w> 7762
Spe aker</w> 7762
pu ts</w> 7760
ass ets</w> 7759
अ ज 7758
नि वास</w> 7758
mis sing</w> 7758
ट ू</w> 7757
way s,</w> 7756
िय ंस</w> 7754
cust od 7754
ष्ठ ित</w> 7754
JN U</w> 7754
k an 7753
Q ur 7753
det ained</w> 7753
च ल 7751
des ire</w> 7748
कहा :</w> 7747
sim ple</w> 7747
पादु कोण</w> 7747
नवी न</w> 7746
नी त</w> 7745
प द्ध 7739
Mod is</w> 7739
youn g 7736
ही न</w> 7733
enc y,</w> 7732
CB SE</w> 7732
प ड़ी</w> 7731
ज़ ु 7729
har ass 7728
Gadk ari</w> 7728
ब ख् 7727
ड्र ो 7726
S us 7725
S aif</w> 7725
ad e 7725
birth day</w> 7725
D ue</w> 7724
we ight</w> 7724
establ ish</w> 7724
जा त</w> 7722
Re port</w> 7722
मनी ष</w> 7721
या मत</w> 7720
भा ष</w> 7720
क् लब</w> 7718
जाए ,</w> 7715
Industri al</w> 7715
ti l 7714
cro re,</w> 7714
- up</w> 7713
डो र</w> 7712
versi ties</w> 7712
ला ते</w> 7708
fel low</w> 7708
कामया ब</w> 7707
prosp er 7706
f it</w> 7705
एस )</w> 7705
निया ँ</w> 7702
Heav y</w> 7702
वा स 7701
विश्ले षण</w> 7699
E g 7698
are .</w> 7698
ला ल 7695
सी नियर</w> 7693
कर े।</w> 7692
य ि 7691
12 8</w> 7691
को ड</w> 7690
( J 7689
M s</w> 7688
draw n</w> 7688
बि ता 7687
pr int</w> 7687
C ounc 7686
A gre 7686
detail ed</w> 7686
अगु वाई</w> 7683
फ स 7677
ब ृ 7675
leav ing</w> 7675
m ay 7673
et s,</w> 7673
under stand 7673
एकी कृत</w> 7673
month s.</w> 7671
BJP 's</w> 7671
Paduk one</w> 7670
adequ ate</w> 7669
गोली बारी</w> 7669
10 th</w> 7666
खतर नाक</w> 7664
समृ द्ध</w> 7664
C al 7663
गु स् 7663
ti me 7662
अं तर् 7662
comm and 7662
मिला कर</w> 7660
con spir 7659
Ra i</w> 7658
स्टा फ</w> 7658
सं गत</w> 7657
um p 7657
जाय ेगा।</w> 7656
ओ बा 7655
हस्त क्षेप</w> 7653
ग वाह</w> 7651
sol ution</w> 7651
an ese</w> 7650
ail ed</w> 7650
orig in 7650
c abinet</w> 7648
आश् वासन</w> 7648
j aw 7647
नौ कर 7647
T ro 7646
वा इस</w> 7646
हो म</w> 7646
M SM 7645
उद्य म</w> 7644
त था 7643
now ,</w> 7643
बता ई</w> 7642
Mumbai :</w> 7642
ज्य ो 7642
O ,</w> 7641
ak shi</w> 7640
law .</w> 7640
ध मा 7639
न् द्र 7636
खूब सूरत</w> 7636
th row 7635
encour age</w> 7633
ac tion.</w> 7632
comp et 7631
seri es.</w> 7631
बंध ों</w> 7630
u b</w> 7625
J ustic 7624
पा ठ</w> 7624
महाराष् ट्र 7624
Fr ance</w> 7623
प्रति ष्ठित</w> 7621
f requ 7618
शा ला 7617
Abhishe k</w> 7617
ना - 7616
COV ID</w> 7616
लड़ ा 7614
sid e.</w> 7614
ार ण</w> 7610
B R 7609
ए ं,</w> 7608
कु र् 7608
appoint ment</w> 7608
हृ दय</w> 7607
बच्च ी</w> 7603
ण - 7602
u ted</w> 7602
सू ची 7602
संस्था पक</w> 7602
ot ing</w> 7600
Pun e</w> 7600
conf ident</w> 7597
hi k 7593
व्यवसा य</w> 7593
गर् भ 7591
फै क् 7590
St adi 7589
सु श्री</w> 7588
बु द्धि 7588
आउ ट 7587
क् य</w> 7584
C an</w> 7583
ch er 7583
elec om</w> 7583
प्रति दिन</w> 7581
र ज 7580
show ing</w> 7580
Alla hab 7579
आंक ड़ा</w> 7579
सम्मि लित</w> 7578
फ़ ो 7577
success fully</w> 7576
entre preneur 7576
1 )</w> 7575
टि फि 7574
अग्र वाल</w> 7574
व सू 7573
चाहिए ?</w> 7573
े गी</w> 7571
द वा</w> 7570
P ost</w> 7568
it ors</w> 7568
improv ing</w> 7567
applic ations</w> 7566
य कीन</w> 7565
identi fy</w> 7564
ए डि 7563
b and 7563
दे गा।</w> 7562
निका य</w> 7562
One Plus</w> 7562
ers '</w> 7559
वि भाग 7558
deli ber 7557
D h 7556
सू न</w> 7556
j ust 7555
प्र को 7555
p over 7554
E r 7553
fin ally</w> 7553
Y ah 7552
च म 7551
spok en</w> 7550
electr icity</w> 7549
m ol 7547
oc key</w> 7547
p anchay 7546
का ना</w> 7545
बा बा</w> 7544
us er</w> 7544
op tions</w> 7544
त्य ो 7544
करी बी</w> 7544
सै फ</w> 7542
( 4 7541
मक सद</w> 7539
त त्व</w> 7538
goo d.</w> 7538
सिफ ारि 7537
Bhat t</w> 7537
ruit ment</w> 7537
फै ंस</w> 7536
ज़ा ब</w> 7535
div ided</w> 7534
chi ef 7534
wom en,</w> 7533
Th ough</w> 7532
ver ,</w> 7532
ick et.</w> 7532
प्रोजे क्ट</w> 7531
घ ि 7530
reg n 7530
तारी फ</w> 7530
नग र 7530
पुलवा मा</w> 7530
sp ired</w> 7529
का मों</w> 7528
G ar 7527
writ ing</w> 7527
sc al 7526
In don 7525
स ने</w> 7524
निदेशा लय</w> 7524
Indon es 7524
it s,</w> 7522
प्र मो 7522
ई द</w> 7520
हा बाद</w> 7520
Suz uk 7520
U s</w> 7519
sat ell 7519
fil ing</w> 7518
T 20</w> 7516
k g 7516
bat ting</w> 7516
ri min 7514
reg im 7513
. gov. 7512
ob tain 7512
rupe es</w> 7512
mom ent</w> 7509
संयं त्र</w> 7506
mar ty 7505
Al though</w> 7504
Odi sha 7504
B ah 7503
पी एस</w> 7503
ए ग् 7502
prov ed</w> 7502
Maharashtra .</w> 7502
पा इ 7498
thin king</w> 7497
democr acy</w> 7497
क ंग 7494
te am 7490
month ,</w> 7489
अक् तू 7489
de v</w> 7488
Mah endra</w> 7487
D al</w> 7486
डी )</w> 7486
संबो धन</w> 7484
job s</w> 7484
ass emb 7483
ता जा</w> 7482
tro ops</w> 7482
ज़ा ब</w> 7482
R JD</w> 7481
R ad 7480
स् मार 7480
oun ce</w> 7480
सी आरपी 7480
ch ur 7479
under going</w> 7479
एक्स चेंज</w> 7479
re d,</w> 7478
responsi bil 7478
प्र वाह</w> 7477
बे ड 7477
ph il 7477
guid ance</w> 7477
शा स्त्र</w> 7476
ap ur</w> 7475
Kh an.</w> 7475
west ern</w> 7475
पी ए</w> 7474
ch os 7473
deli very</w> 7473
cy cl 7473
15 0 7472
नि देश 7471
On ce</w> 7471
inde x</w> 7471
Mish ra</w> 7471
ab ad.</w> 7467
Tri pur 7467
वित्‍ त</w> 7467
report ed.</w> 7466
ी करण</w> 7464
सम न्व 7462
Sar a</w> 7462
Jam es</w> 7462
स्व राज</w> 7461
का ले 7460
ड्राइ वर</w> 7460
दा ऊ 7459
प् स</w> 7458
M unicipal</w> 7457
उप धारा</w> 7457
trans ferred</w> 7455
सी धा</w> 7454
त ब 7453
3 ,000</w> 7453
वि ज 7453
Samaj wadi</w> 7453
at en</w> 7452
हम लों</w> 7452
suppor ting</w> 7451
um ents</w> 7450
polic ies</w> 7449
काम का 7449
moun tain 7449
tournam ent</w> 7448
व रु 7447
ro ll 7447
बा लि 7446
s election</w> 7443
व्य य</w> 7441
एंग े</w> 7441
कु शल</w> 7440
जब र 7439
ज़ि म्मे 7439
ज मी 7436
पु ट</w> 7436
Raj put</w> 7435
profession al</w> 7434
करने वाले</w> 7433
सक ते।</w> 7430
प दा 7429
stat es.</w> 7429
वारा ण 7429
t rem 7427
12 वीं</w> 7427
c aught</w> 7426
collabor ation</w> 7426
से व 7425
ते लु 7424
Tendul kar</w> 7424
su d 7423
जहा ज</w> 7423
हुआ .</w> 7422
एक- एक</w> 7422
Kat rin 7422
ली ड</w> 7420
रा फेल</w> 7418
प न 7416
ow d 7416
गु ज़ 7416
cruc ial</w> 7415
जो ड़ने</w> 7414
Mar ath 7414
Ro y</w> 7414
ल् ल 7412
प्र ॉ 7409
नो ए 7409
E R 7408
V ide 7408
णा चल</w> 7408
Lo k 7408
passeng er</w> 7405
n ation.</w> 7403
लैंड ,</w> 7403
under way.</w> 7401
m ing</w> 7400
उ क्त</w> 7399
उर् वर 7399
Ac tion</w> 7398
इ स्‍ 7397
rit i</w> 7397
dou bl 7397
meth od 7397
re t</w> 7396
hand .</w> 7395
P lease</w> 7394
Pl an</w> 7394
आय तों</w> 7394
बो झ</w> 7392
Bomb ay</w> 7392
hal f 7391
Tod ay,</w> 7391
pre et</w> 7390
निका ला</w> 7390
multi - 7390
Kum ar 7389
spokes man</w> 7389
as pir 7388
जब् त</w> 7388
दे री</w> 7387
कं ट्रोल</w> 7387
2020 .</w> 7387
Pat n 7386
conduc ting</w> 7384
war ,</w> 7383
गंभी रता</w> 7382
s in 7381
ए गा।</w> 7380
activ ity</w> 7380
intend ent</w> 7380
[...]
