the 9716116
के 8302777
में 5832130
of 5524450
and 4742857
की 4663164
और 4093781
to 4089465
in 3869444
को 3372110
से 3080617
a 2786001
ने 2756707
का 2544715
है। 2436504
is 2138016
पर 2027475
है 1895672
कि 1826837
The 1807515
for 1654424
लिए 1452544
on 1417404
एक 1331382
that 1291402
भी 1255864
इस 1146737
has 1098617
नहीं 1088351
कर 1054273
was 1051688
be 1030186
with 1018203
किया 962399
will 935817
by 928552
यह 914691
(@@ 910869
are 884729
हैं। 879332
have 879128
as 853407
करने 820845
from 807005
at 793800
ही 696901
कहा 682314
हो 677605
not 667010
साथ 642251
हैं 632365
गया 597160
this 595930
been 589613
also 589583
तो 585405
an 583249
जो 582083
भारत 564533
it 563622
। 563237
his 552695
है. 526325
उन्होंने 522187
I 517522
- 516791
है, 507031
said 504515
India 496797
he 496621
were 494762
अपने 486083
वह 484027
He 460567
, 460357
you 441143
had 435575
their 434684
बाद 428173
or 411834
दिया 410901
Minister 410316
तक 399875
. 394566
-@@ 391893
) 388289
which 387047
पुलिस 384393
हुए 382850
जा 377693
they 377075
लोगों 374857
: 374221
सरकार 373862
या 372630
who 367176
रहे 365557
न 357799
all 353832
कुछ 347856
हम 339991
कोई 339609
"@@ 337933
करते 327055
रहा 320996
रूप 314022
रही 307668
वे 307056
'@@ 304715
In 302338
उनके 302326
द्वारा 301149
दी 297717
इसके 296454
we 295902
its 294037
था। 290881
भारतीय 286106
पहले 285358
It 283251
Indian 282482
गई 282124
कहा, 280618
This 277686
किसी 277550
can 274359
अपनी 273177
ये 271914
one 269799
वाले 267112
था 263875
मैं 261913
A 260394
लेकिन 259907
तथा 258121
We 256908
देश 255373
against 254041
but 249357
सिंह 248910
एवं 248073
people 247994
होने 247163
क्या 243744
सभी 243564
दो 243368
उन्हें 241692
police 238797
Rs 236863
गए 235976
मंत्री 234543
राज्य 234133
after 234045
about 232956
बात 231750
two 231676
would 230491
मामले 229124
other 228618
जब 223270
लोग 222062
our 221736
over 221300
मोदी 218334
them 217406
प्रधानमंत्री 216898
तरह 216321
Singh 214179
हैं. 212861
करना 211892
per 211177
हैं, 210594
श्री 209096
इन 208187
up 207744
फिल्म 206962
काम 206744
शामिल 206576
no 205452
out 205133
government 202907
समय 202687
BJP 202521
first 200838
कई 198886
under 195540
your 195416
उसके 194478
‘@@ 193695
कांग्रेस 193179
बहुत 192975
दोनों 192323
बीच 190744
फिर 188718
? 188593
क्षेत्र 188569
थे। 187979
' 186391
her 186378
अन्य 186375
जाता 185515
आप 183468
there 183318
सकता 183242
रुपये 181751
any 181424
Prime 180095
new 179804
व 179728
Modi 178149
दिल्ली 178079
उस 177551
हुई 177520
करता 177283
उनकी 176935
Congress 176251
दौरान 176193
किए 174437
being 174398
हुआ 174318
बारे 174126
जाने 173932
said. 173885
more 172480
do 171696
सबसे 171224
पास 170598
should 170243
खिलाफ 169633
when 168789
उसे 167542
into 165707
सकते 165637
थी। 164842
's 163824
), 163287
s 163066
अधिक 162963
अ@@ 162396
so 161730
made 160967
And 159917
10 159051
जारी 158347
लिया 158295
तुम 157277
s, 156883
बताया 156121
विकास 155592
such 155413
कम 154662
लेकर 154091
what 152823
state 152668
case 151504
गया। 151149
शुरू 151142
दिन 150790
2 150612
पूर्व 150181
ले 150018
Delhi 149351
during 148457
But 147787
these 147764
time 147353
Chief 146429
if 146193
भाजपा 145714
only 145707
आज 144203
between 144126
1 144119
They 143544
बार 143366
जांच 143158
those 142997
किया। 142663
टीम 142600
देने 142423
s. 142007
him 141375
than 141159
इससे 141050
like 140814
my 140731
ing 140570
वाली 140349
Shri 139845
दर्ज 139547
होता 138878
ऐसा 137469
हमारे 136287
प्रदेश 135877
तीन 135443
न@@ 135069
मुझे 134891
S@@ 134695
’ 134440
उन 134305
some 133719
while 133461
पार्टी 133197
New 131844
इसमें 131842
करोड़ 131516
B@@ 130835
कारण 130171
चुनाव 129903
क@@ 129809
Police 129678
अब 129259
very 129014
नाम 128798
पाकिस्तान 126977
There 126849
un@@ 125810
म@@ 125173
थे 124177
ए@@ 124041
President 123969
ऐसे 123118
मुख्यमंत्री 123052
three 122502
3 122024
वर्ष 121797
मंत्रालय 121619
through 121497
ओर 121353
5 121326
take 121138
यहां 120797
Narendra 120202
हर 119961
स@@ 119954
इसे 119916
last 119915
/@@ 118973
es 118869
then 117442
D@@ 117279
साल 117257
दे 117083
in@@ 117017
us 116872
जैसे 116356
हमें 116152
ers 116090
ed. 115992
जबकि 115036
Government 114421
राष्ट्रीय 114400
र@@ 113418
अभी 113384
er 112766
ल@@ 112653
film 112589
ब@@ 112354
” 112321
State 111953
प्रतिशत 111395
ली 111310
नई 110781
लाख 110510
& 109987
थी 109951
आ 109339
many 109269
वि@@ 108940
M@@ 108833
राष्ट्रपति 108111
प्रति 108044
L@@ 108038
am 107662
ed 107471
की। 107382
G@@ 107094
e, 107059
K@@ 106813
जिसमें 106788
क्योंकि 106775
ना 106388
" 106208
काफी 106136
A@@ 105683
अपना 105529
अध्यक्ष 105412
taken 105073
प@@ 104987
! 104891
मौत 104720
पिछले 104602
T@@ 104103
अगर 103886
shall 103744
s@@ 102990
क 102691
प्रमुख 102283
आ@@ 102045
Pakistan 102005
t@@ 101958
P@@ 101556
हमने 101104
H@@ 101046
उसकी 100936
C@@ 100750
National 100603
crore 100384
country 99974
may 99758
Union 99025
b@@ 98905
i 98655
आगे 98494
ना@@ 98442
did 98314
सुरक्षा 98062
she 98032
before 97859
जानकारी 97833
make 97698
where 97569
k@@ 97330
re@@ 97258
के@@ 97238
पूरी 97111
20 96933
get 96911
said, 96548
e. 96543
e@@ 96464
तहत 96072
Ministry 95944
योजना 95824
F@@ 95255
त@@ 95050
मुख्य 94835
could 94400
y@@ 93838
“@@ 93545
including 93499
ज@@ 93238
However, 93227
4 93205
इसका 93100
जी 92984
बैठक 92837
बैंक 92702
गांधी 92682
व@@ 92668
नेता 92611
cent 92556
chief 92508
बनाने 92502
होती 92449
d@@ 92252
15 92227
उनका 92100
ह@@ 92008
ज्यादा 91407
म 91214
R@@ 91159
it. 91097
ला@@ 91070
मदद 90984
n@@ 90946
day 90906
ए 90900
उसने 90818
12 90690
6 90551
को@@ 90517
number 90489
दूसरे 90353
कुमार 90170
work 90161
On 90139
कंपनी 89954
most 89864
a, 89649
होगा। 89640
ता 89518
स 89269
अलावा 89171
मेरे 89094
में, 89049
8 88918
es. 88918
,@@ 88825
given 88721
कार्य 88168
का@@ 88088
प्राप्त 87488
E@@ 87475
केंद्रीय 87162
both 87011
come 86976
es, 86886
4@@ 86847
ल 86734
N@@ 86728
ed, 86632
अधिकारी 86597
India. 86563
W@@ 86402
दिया। 86393
). 86160
accused 86158
g@@ 85979
जहां 85687
3@@ 85681
5@@ 85647
al@@ 85643
था, 85530
घर 85503
You 85367
good 85367
मा@@ 85361
नए 85332
खान 85084
द@@ 84321
पहली 84121
PM 83925
महिला 83871
50 83773
प्रदान 83726
घटना 83290
What 83156
Allah 83007
चाहिए। 82974
इंडिया 82889
अल्लाह 82695
तौर 82551
As 82353
कार्यक्रम 82304
former 82277
वाला 82210
among 82207
ation 82200
बा@@ 82198
है? 82187
p@@ 82175
स्थिति 82141
वा@@ 82140
need 82095
सी 82027
विशेष 81944
ing. 81690
year 81408
J@@ 81344
न, 81263
m@@ 81248
यदि 81233
/ 81207
minister 81164
सामने 80978
तब 80941
सकती 80927
part 80734
देशों 80587
चार 80576
party 80556
well 80362
दुनिया 79926
30 79925
ar@@ 79918
लिये 79857
संख्या 79839
हालांकि 79635
विभिन्न 79593
ing, 79378
गई। 79358
o 79341
held 79333
जाएगा। 79308
द 79306
पूरा 79303
अस्पताल 79152
सूचना 79008
y 78971
वहीं 78945
Gandhi 78941
even 78890
registered 78882
नि@@ 78871
बड़ी 78636
परिवार 78634
7 78630
ट@@ 78588
मामला 78448
set 78415
होगा 78341
आने 78191
सेवा 78151
उत्तर 78147
केंद्र 77910
God 77767
आपको 77688
सब 77466
केवल 77306
how 77227
al 76918
just 76824
जीवन 76765
मीडिया 76731
All 76692
जाना 76680
इसलिए 76533
बे@@ 76518
Kumar 76500
करें 76488
र 76478
नरेंद्र 76428
मौके 76387
Court 76350
पा@@ 76153
me 76091
इसकी 76011
तैयार 75829
India, 75802
पता 75765
court 75708
से@@ 75667
रि@@ 75605
2020 75597
i@@ 75421
lakh 75395
years 75381
ग@@ 75288
आधार 75192
च@@ 75017
प्रकार 74973
मैच 74973
विभाग 74884
ओ@@ 74773
कोर्ट 74743
सी@@ 74713
She 74435
His 74338
सु@@ 74312
an@@ 74210
6@@ 74191
स्वास्थ्य 74164
ला 74000
Khan 73775
V@@ 73641
अवसर 73635
y, 73465
इसी 73378
er@@ 73277
24 73256
place 73173
11 73151
निर्माण 72960
सि@@ 72934
25 72667
present 72665
ट 72606
w@@ 72548
दिए 72475
cases 72418
9 72304
व्यक्ति 72286
संबंध 72114
took 72036
er, 72014
For 71955
due 71845
because 71761
हमारी 71690
आरोप 71682
ई@@ 71614
If 71577
करती 71551
ता@@ 71523
district 71469
100 71344
य@@ 71251
ऑफ 71199
चाहिए 71032
स्थित 71031
विश्व 71009
today 70993
know 70635
US 70606
अधिकारियों 70511
सा@@ 70481
every 70461
used 70421
social 70257
जीत 70042
सं@@ 69949
जाती 69927
second 69718
2019 69649
इ@@ 69594
e 69573
various 69526
here 69506
Sabha 69453
way 69450
down 69440
ं@@ 69386
बीजेपी 69334
मे@@ 69317
राहुल 69313
बना 69208
meeting 69194
ऐसी 69186
नी 69049
help 69044
them. 68838
able 68818
यहोवा 68783
भाग 68691
चल 68632
each 68631
कुल 68351
family 68302
रो@@ 68051
next 67869
जी@@ 67868
स्तर 67853
sent 67836
अनुसार 67832
t 67822
रा@@ 67757
four 67513
ती 67327
same 67203
बड़ा 67095
होते 67080
l@@ 67074
r@@ 66824
a@@ 66786
रिपोर्ट 66553
team 66552
Pradesh 66498
ताकि 66376
told 66368
कभी 66285
leader 66278
रे@@ 66222
उपलब्ध 66138
ड@@ 66111
world 66105
मौजूद 66030
life 66008
शिक्षा 65977
उसका 65975
गिरफ्तार 65939
So 65937
f@@ 65887
h@@ 65833
अमेरिका 65802
arrested 65610
7@@ 65583
वो 65419
v@@ 65410
am@@ 65357
c@@ 65179
ने@@ 65140
जिस 65057
जिसके 64679
After 64666
O@@ 64622
see 64571
बाहर 64536
उपयोग 64480
मामलों 64413
हाल 64401
ले@@ 64393
en@@ 64374
going 64309
.@@ 64284
14 64171
ते 64137
फोन 64049
प्र@@ 63985
पांच 63772
around 63733
मांग 63668
Rahul 63618
water 63610
क्षेत्रों 63599
ज 63559
क्रिकेट 63460
पंजाब 63457
must 63445
पी@@ 63227
स्थान 63215
मैंने 63040
सेना 62949
देते 62917
श@@ 62856
कार 62778
प्रदर्शन 62690
बंद 62364
now 62348
लि@@ 62333
मुंबई 62261
विधानसभा 62228
8@@ 62171
दर 61833
लगभग 61814
उ@@ 61799
करीब 61788
a. 61641
go 61541
बी@@ 61512
World 61468
on@@ 61277
at@@ 61268
called 61185
across 61180
नजर 61180
y. 61175
ate 61161
बयान 61055
official 61052
कैसे 61045
त 60966
[@@ 60947
ध्यान 60694
था. 60643
ar 60503
करके 60356
president 60221
injured 60172
... 60118
 @@ 59926
चीन 59898
फैसला 59854
संबंधित 59821
जा@@ 59780
महत्वपूर्ण 59762
er. 59694
students 59667
स्@@ 59639
give 59609
वजह 59593
ated 59538
जिसे 59538
along 59502
man 59435
रन 59423
does 59408
development 59372
मि@@ 59305
ad@@ 59230
आई 59145
o@@ 59126
लेने 59057
several 59028
जिले 58834
तुम्हारे 58822
चुके 58820
सहयोग 58717
." 58716
order 58702
आर्थिक 58686
बड़े 58634
use 58624
क्यों 58622
2018 58581
तरफ 58493
रक्षा 58486
फीसदी 58471
राज्यों 58423
back 58354
वीडियो 58319
ल, 58252
public 58192
Lok 58152
दिनों 58110
न्यायालय 57995
further 57947
th@@ 57885
u@@ 57875
शर्मा 57797
different 57771
होगी। 57733
इस्तेमाल 57655
रहने 57553
seen 57501
होना 57484
power 57388
won 57350
हूं। 57302
बन 57259
पीएम 57257
टी@@ 57229
पानी 57229
started 57197
st@@ 57153
मेरी 57151
13 57037
घायल 56892
," 56886
आरोपी 56751
सिर्फ 56737
five 56689
total 56664
कार्रवाई 56664
When 56575
मिल 56570
dis@@ 56556
अलग 56433
want 56421
आयोग 56199
मु@@ 56164
40 56099
u 56049
9@@ 56030
16 56019
कु@@ 55831
मो@@ 55728
it@@ 55715
है@@ 55706
टेस्ट 55674
2@@ 55623
सहित 55609
हिस्सा 55575
support 55539
वे@@ 55399
2017 55370
पेश 55348
पूरे 55108
women 55072
जनता 55006
जिससे 54934
विचार 54901
al, 54883
अच्छा 54818
यात्रा 54782
ha@@ 54777
important 54740
came 54663
न्@@ 54590
ख@@ 54554
कृषि 54515
members 54496
Shah 54480
सचिव 54468
U@@ 54442
वहां 54417
गए। 54375
कीमत 54348
18 54344
दा@@ 54304
संयुक्त 54284
Punjab 54270
रखा 54218
as@@ 54185
ड 54177
हासिल 54116
Central 54073
आदेश 53905
बच्चों 53894
उच्च 53858
क, 53837
कानून 53738
आयोजित 53733
लोकसभा 53660
off 53551
says 53527
es@@ 53516
killed 53419
कपूर 53399
t. 53392
जाते 53352
प्रक्रिया 53290
भूमिका 53266
great 53257
दी। 53243
बल्कि 53135
West 53120
security 53094
ating 53061
टी 53010
कश्मीर 52884
समिति 52860
चाहते 52851
Jammu 52843
available 52817
जरूरत 52801
देता 52773
t, 52756
become 52755
found 52473
समर्थन 52460
ation. 52391
much 52363
बोर्ड 52250
Bank 52248
बि@@ 52214
national 52191
high 52190
हा@@ 52121
No 52104
धारा 52073
रुपए 52070
लगा 51939
These 51915
लागू 51722
asked 51666
वित्त 51505
चर्चा 51451
How 51450
another 51424
el@@ 51394
right 51352
रखने 51324
अदालत 51218
जवाब 51185
कहना 51163
शहर 51114
परमेश्‍वर 51105
ation, 51062
son 51057
an, 50901
action 50864
वरिष्ठ 50819
डी@@ 50757
Kashmir 50736
बनाया 50708
बस 50700
पत्र 50691
सरकारी 50689
खेल 50659
जे@@ 50591
I@@ 50324
महीने 50323
political 50289
or@@ 50277
already 50265
never 50239
सहायता 50230
शाह 50221
पहुंच 50196
हूं 50163
] 50049
जगह 49927
पद 49890
17 49785
फ@@ 49781
डि@@ 49548
At 49540
किसानों 49535
Sharma 49389
आए 49383
leaders 49280
बेहतर 49263
upon 49243
जल्द 49145
information 49037
ई 48988
घोषणा 48980
country. 48967
According 48959
z@@ 48938
got 48926
is@@ 48869
Mumbai 48852
लो@@ 48789
दक्षिण 48724
यही 48673
लगाया 48672
री 48606
since 48532
own 48445
long 48444
पैदा 48418
death 48391
दूसरी 48360
Supreme 48343
कि@@ 48308
परीक्षा 48278
माध्यम 48273
सीमा 48083
सदस्य 48044
To 48006
लाभ 47985
ली@@ 47960
19 47899
ts 47894
बाजार 47815
few 47813
Singh, 47776
Lord 47744
महाराष्ट्र 47643
ers, 47642
ted 47641
प्रयास 47638
best 47621
e-@@ 47560
अमेरिकी 47547
कहते 47518
करेंगे। 47511
ti@@ 47497
based 47485
end 47477
body 47471
आपके 47408
% 47388
led 47387
children 47275
सो@@ 47238
उनसे 47227
खुद 47227
भर 47092
ch@@ 47090
provide 47047
South 47036
senior 47013
ab@@ 46976
‘‘@@ 46955
विदेश 46831
टे@@ 46779
making 46741
Indias 46731
निवेश 46517
special 46506
बल 46489
21 46476
One 46461
शेयर 46461
without 46457
ख़ुदा 46275
done 46268
जल 46221
चुकी 46117
away 46055
role 46050
High 46001
S 45944
Ram 45848
launched 45846
19@@ 45727
कदम 45712
क्षमता 45683
गंभीर 45619
j@@ 45618
अच्छी 45547
announced 45503
शिकायत 45437
days 45430
visit 45400
भ@@ 45357
लिया। 45327
im@@ 45316
उसी 45297
कोशिश 45296
say 45257
आम 45178
नगर 45168
( 45145
General 45131
reported 45130
media 45064
reached 45038
भारी 45026
him. 44991
पिता 44975
ठीक 44937
प 44921
health 44907
हमले 44900
Kapoor 44827
मंदिर 44789
persons 44728
गो@@ 44653
ag@@ 44633
price 44623
decision 44587
सोशल 44427
Home 44389
डी 44376
जिला 44360
वृद्धि 44333
की@@ 44327
officials 44324
रह 44284
रा 44260
उससे 44204
गुजरात 44185
गा@@ 44149
पर@@ 44102
sh@@ 44062
हरियाणा 44045
गृह 44010
वालों 43998
Uttar 43996
हो@@ 43988
बिहार 43954
matter 43938
countries 43910
समूह 43894
पो@@ 43779
अगले 43749
महिलाओं 43738
विरोध 43538
गयी 43537
दूर 43447
put 43436
सही 43358
still 43319
s) 43283
age 43259
ed@@ 43233
लगातार 43209
ent 43156
हत्या 43141
पहला 43101
working 43065
में@@ 43065
others 43064
case. 42998
name 42983
ting 42963
र्@@ 42938
लगता 42928
बिना 42884
till 42880
et@@ 42842
क्@@ 42810
मिली 42772
हमेशा 42732
ट्वीट 42716
land 42693
towards 42688
स्कूल 42676
स, 42657
नी@@ 42611
22 42608
top 42602
टि@@ 42548
हजार 42547
be@@ 42522
incident 42487
Day 42482
दल 42458
आधारित 42448
ly 42391
ति@@ 42348
बातचीत 42342
उद्योग 42338
taking 42307
राजनीतिक 42262
पत्नी 42258
राम 42209
नों 42131
60 42130
मन 42105
Development 42072
मेरा 42064
international 42023
इनमें 41986
सा 41957
सुनिश्चित 41956
उम्मीद 41926
issued 41872
पि@@ 41869
— 41793
on, 41787
पश्चिम 41784
बनाए 41781
cannot 41776
थे, 41771
states 41750
ul@@ 41703
नीति 41688
de@@ 41673
पहचान 41636
ro@@ 41561
मजबूत 41538
video 41495
di@@ 41389
ations 41376
भाई 41342
0@@ 41319
later 41314
अवधि 41304
10@@ 41301
मध्य 41228
Z@@ 41209
पी 41165
Justice 41154
major 41073
या@@ 41051
Test 41046
अंतिम 41032
तुम्हें 41022
सुधार 41019
अधिकार 40982
area 40981
वी@@ 40851
received 40838
this. 40835
ant 40828
जिन 40810
ो 40772
known 40735
कल 40711
जाएगा 40687
दे@@ 40656
currently 40625
person 40624
कोरोना 40597
किया, 40576
comes 40569
स्थानीय 40556
home 40531
ers. 40507
issue 40478
company 40475
देखा 40447
पीछे 40413
That 40410
व्यवस्था 40397
हैं? 40384
1@@ 40364
Our 40306
Y@@ 40269
र, 40128
े@@ 40118
सार्वजनिक 40109
उप@@ 40105
ur@@ 40059
कप्तान 40049
report 40042
त, 40039
| 40030
डॉलर 40029
spot 39972
देना 39934
सवाल 39915
बी 39911
निर्णय 39847
too 39844
चुका 39828
So, 39786
think 39752
third 39744
us@@ 39701
include 39666
निजी 39666
local 39665
प्रभावित 39665
situation 39637
वर्तमान 39607
m 39599
डे@@ 39545
पे@@ 39523
संगठन 39514
रेलवे 39513
Maharashtra 39495
it, 39492
चाहता 39438
विधायक 39438
प्रौद्योगिकी 39337
following 39328
died 39299
उनमें 39253
Its 39235
within 39199
गु@@ 39199
बॉलीवुड 39173
(S@@ 39159
रू@@ 39120
समारोह 39082
filed 39035
बो@@ 39008
farmers 39002
हाथ 38998
याद 38957
री@@ 38937
system 38884
डॉ. 38868
k 38836
भर्ती 38809
lead 38801
वा 38793
MP 38786
यू@@ 38786
छात्रों 38778
ऊर्जा 38717
2016 38703
areas 38631
अभियान 38602
विषय 38585
28 38580
ap@@ 38566
आया 38559
मिला 38559
मा 38519
id@@ 38513
राष्ट्र 38507
Secretary 38498
period 38497
large 38466
them, 38433
Party 38418
होगी 38411
नया 38397
ic@@ 38385
law 38370
बंगाल 38366
al. 38363
ब 38345
दी@@ 38321
C 38274
Haryana 38257
जाएगी। 38253
said: 38210
एस@@ 38202
जि@@ 38188
yet 38184
form 38179
18@@ 38170
city 38115
Amit 38089
time. 38084
series 38073
कह 38053
टन 37969
"""@@ 37917
वही 37899
en 37832
जिसका 37795
Department 37738
परि@@ 37730
अमित 37671
सामाजिक 37654
23 37632
2014 37616
वापस 37616
better 37574
ra@@ 37519
थे. 37457
seats 37446
always 37443
level 37420
मै@@ 37415
look 37362
ac@@ 37356
विज्ञान 37332
कोहली 37311
गांव 37303
R 37271
नेताओं 37242
तेजी 37231
प्रत्येक 37223
प्रणाली 37207
O 37204
म, 37195
informed 37187
31 37183
hospital 37117
आग 37116
growth 37110
shared 37105
village 37100
far 37092
P 37070
incident. 37058
परियोजना 37021
विकेट 36997
ing@@ 36969
ध@@ 36965
थी, 36953
दें 36947
men 36923
on. 36922
em@@ 36905
26 36904
wife 36854
सीट 36850
किये 36808
खा@@ 36803
ट, 36777
States 36774
जु@@ 36761
पूर्ण 36745
Health 36741
this, 36740
500 36726
With 36714
Gujarat 36682
Al@@ 36646
सीटों 36610
CBI 36538
समाज 36506
कर@@ 36501
अतिरिक्त 36486
less 36476
जो@@ 36471
il@@ 36463
brought 36426
रात 36388
Commission 36354
things 36333
कों 36332
मिलने 36285
महा@@ 36273
1.@@ 36268
स्‍@@ 36218
उम्मीदवार 36212
मुताबिक 36201
कै@@ 36187
bring 36135
phone 36106
le@@ 36072
200 36060
economic 35976
देख 35976
play 35974
let 35966
हुआ। 35961
सुप्रीम 35908
होंगे। 35869
ak@@ 35844
Assembly 35825
कोविड-19 35783
बच्चे 35749
went 35741
कराया 35722
स्पष्ट 35686
played 35675
services 35641
श 35640
बता 35622
यहाँ 35582
ल्@@ 35556
s: 35546
ियों 35543
शा@@ 35457
International 35360
ri@@ 35333
फिलहाल 35313
United 35307
उत्पादन 35282
ज़ 35282
कमी 35276
सामना 35232
सामान्य 35228
सांसद 35225
स्थापित 35203
हो, 35195
विकसित 35184
देखते 35183
हमारा 35147
वी 35143
जान 35122
ensure 35095
An 35094
elections 35084
दिशा 35068
शुरुआत 35040
आवश्यकता 35024
six 35016
केस 35016
financial 34919
मार्ग 34913
however, 34891
डा@@ 34851
global 34774
हो। 34738
released 34734
पति 34730
rate 34715
फि@@ 34709
actor 34708
China 34707
नो@@ 34696
आयोजन 34693
provided 34630
Both 34591
दिवस 34558
इं@@ 34553
कौन 34525
70 34520
decided 34454
full 34430
ज़@@ 34372
करेंगे 34371
रेल 34371
Air 34367
Board 34359
match 34347
During 34333
संघ 34330
sector 34291
अनु@@ 34276
मंजूरी 34275
27 34274
राज@@ 34272
candidates 34271
करें। 34252
हि@@ 34198
प्रयोग 34196
थ@@ 34189
संबंधी 34161
:@@ 34145
दावा 34108
runs 34104
Act 34101
शि@@ 34074
why 34045
आर@@ 34021
राजस्थान 34015
In@@ 33966
आदि 33962
यादव 33926
Delhi, 33864
Bihar 33848
directed 33803
expected 33791
COVID-19 33790
ी, 33776
group 33750
increase 33737
प्रबंधन 33734
तुलना 33732
love 33717
जन@@ 33713
ें 33713
sp@@ 33705
संसद 33701
My 33655
12@@ 33640
थी. 33609
process 33598
एम@@ 33592
having 33591
li@@ 33581
ख़ुदा 33498
Bollywood 33484
ंग 33473
Two 33452
show 33447
घोषित 33438
human 33404
किस 33396
entire 33393
माना 33392
woman 33384
dont 33379
20@@ 33358
India's 33358
तरीके 33353
आरोपियों 33302
million 33298
continue 33267
कंपनियों 33265
data 33246
नेतृत्व 33245
बढ़ 33239
अनुमति 33236
फैसले 33234
तेज 33198
लाल 33194
पुरस्कार 33187
keep 33177
gave 33128
देखने 33128
छह 33124
अच्छे 33078
सम्मेलन 33076
मगर 33072
win 33071
सदस्यों 33044
While 32994
80 32992
जरिए 32976
सिंह, 32971
तय 32943
मे 32939
कार्ड 32899
एल@@ 32898
up@@ 32857
n 32848
ऊपर 32835
2015 32822
सर@@ 32821
पु@@ 32813
lot 32812
बारिश 32703
believe 32674
Jehovah 32658
गये 32643
ex@@ 32637
विदेशी 32625
चा@@ 32618
vs 32616
विश्वास 32588
find 32512
बेटे 32494
जिनमें 32431
Re@@ 32417
निर्देश 32407
सीबीआई 32386
समेत 32363
बढ़ाने 32266
वैश्विक 32250
Why 32203
तेल 32195
रहते 32120
se@@ 32097
शव 32093
issues 32060
using 32059
Finance 32051
People 32040
private 31993
सड़क 31982
CM 31956
likely 31945
अंतरराष्ट्रीय 31935
29 31932
left 31907
p 31901
attack 31872
together 31854
cost 31840
ता, 31787
याचिका 31769
उनको 31754
ों 31737
लॉन्च 31712
ग 31709
Jesus 31699
आवेदन 31676
लिखा 31664
प्रस्ताव 31658
Centre 31648
‍@@ 31646
Kohli 31631
ं 31624
दु@@ 31622
हुई। 31614
हालांकि, 31612
रु@@ 31610
मी 31606
प्रति@@ 31599
added. 31590
े 31583
वायरस 31580
Virat 31556
Then 31522
बेहद 31503
चि@@ 31453
fire 31429
आर 31414
T 31413
टो@@ 31404
अधिनियम 31378
Madhya 31371
कराने 31368
change 31361
money 31357
वक्त 31335
लगे 31301
राज 31281
आवश्यक 31279
big 31253
ट्रंप 31236
विराट 31224
Army 31220
समान 31205
related 31203
news 31201
मुलाकात 31164
"The 31152
ans 31142
सूची 31141
market 31132
रखते 31106
लगाने 31088
जैसी 31078
भविष्य 31075
An@@ 31063
meet 31059
चरण 31056
आई@@ 31040
यीशु 31017
service 30997
35 30993
free 30966
लाने 30962
M 30961
शादी 30948
house 30899
नीचे 30897
छ@@ 30896
ईमान 30882
जैसा 30876
project 30859
Tamil 30850
भा@@ 30834
प्रशासन 30830
लक्ष्य 30823
वर्ग 30810
बने 30802
Dr 30800
ग्रामीण 30755
Pradesh, 30751
एंड 30744
view 30741
became 30739
मौजूदा 30733
नुकसान 30722
सात 30716
cricket 30715
इनकार 30691
बदलाव 30685
त्@@ 30655
ang@@ 30646
परिणाम 30626
op@@ 30604
प्रभाव 30587
doing 30580
om@@ 30575
tion. 30562
कर्नाटक 30562
वर्षों 30554
investigation 30547
month 30545
हे@@ 30538
medical 30498
हादसे 30470
May 30467
सीरीज 30467
Affairs 30443
मूल 30440
अनेक 30425
करो 30398
य 30384
small 30376
post 30350
निदेशक 30349
Sh@@ 30346
उसमें 30335
विश्वविद्यालय 30299
दा 30292
um@@ 30289
March 30283
की, 30283
उपस्थित 30261
– 30261
efforts 30260
B 30247
Meanwhile, 30241
alleged 30241
ना, 30238
an. 30220
संबोधित 30196
ad 30182
व्यापार 30177
business 30161
अंतर्गत 30161
शक्ति 30138
final 30012
नंबर 30009
लिए, 30005
"I 29999
near 29995
ya 29993
संभावना 29978
परिषद 29970
earlier 29943
गया, 29943
’’ 29928
ates 29917
जाए 29899
वर्@@ 29889
जानते 29878
statement 29870
h 29869
एस 29858
2.@@ 29846
tion, 29846
over@@ 29823
member 29799
मान 29760
lost 29757
स्वीकार 29750
you. 29741
education 29689
written 29687
मी@@ 29672
धर्म 29671
होकर 29660
शीर्ष 29657
prices 29654
food 29644
राशि 29637
जुड़े 29636
ana 29611
बनी 29580
election 29565
बेटी 29558
state. 29526
पुर 29519
Committee 29501
close 29493
सुविधा 29487
जेल 29485
soon 29479
today. 29464
पाया 29443
मुद्दे 29425
रहे। 29400
interest 29378
चलते 29346
old 29318
cause 29308
might 29262
संविधान 29259
जम्मू 29256
धन 29243
एफ@@ 29192
open 29190
जिन्होंने 29186
प्रवेश 29158
कहीं 29121
section 29118
ते@@ 29116
युवा 29116
दूसरा 29115
tion 29101
अनुसंधान 29099
भाषा 29090
टा@@ 29087
coming 29075
नियंत्रण 29060
ol@@ 29049
भेज 29047
general 29020
Former 29009
ंग@@ 29003
nor 29002
face 28986
योगदान 28977
इलाज 28976
सम्मान 28959
IPL 28955
किसान 28952
कैमरा 28950
people. 28947
ट्स 28937
he@@ 28935
समस्या 28924
father 28923
वित्तीय 28922
getting 28905
road 28882
बिजली 28872
here. 28865
University 28840
Trump 28838
that. 28826
foreign 28810
90 28802
ally 28765
खबर 28747
complaint 28726
live 28719
higher 28706
खिलाड़ी 28672
K 28643
parts 28642
वेबसाइट 28641
बै@@ 28606
North 28603
". 28600
Council 28590
होंगे 28588
डर 28571
ings 28560
करण 28559
current 28518
Par@@ 28514
भू@@ 28513
अरब 28506
Ar@@ 28499
x 28478
start 28474
म्@@ 28443
list 28436
सफल 28425
बढ़ावा 28373
you, 28368
करेगा 28365
(P@@ 28349
हार 28320
means 28314
पा 28309
नहीं, 28290
सत्र 28280
कप 28273
मानव 28270
ance 28260
केन्द्रीय 28239
नागरिक 28205
ye 28192
(A@@ 28187
पक्ष 28180
saying 28174
clear 28135
युद्ध 28107
Rajasthan 28101
Defence 28091
एन@@ 28081
Some 28076
Andhra 28064
according 28026
time, 28017
Man@@ 28008
15@@ 28001
जिसने 28000
als 27922
सुनवाई 27921
1,@@ 27904
अली 27897
अध्ययन 27893
उद्देश्य 27888
whom 27882
मार्च 27877
out@@ 27862
तू 27860
share 27844
ic 27840
भुगतान 27815
la@@ 27808
ऐ@@ 27765
सलमान 27765
claimed 27761
ent@@ 27758
E 27734
ous 27730
(N@@ 27668
pl@@ 27626
Ali 27614
least 27594
Australia 27580
hit 27548
भेजा 27537
व्यक्त 27520
movie 27519
शानदार 27512
)@@ 27496
जरूरी 27487
इतिहास 27455
needs 27453
Sri 27427
बर@@ 27407
बजे 27398
ओं 27394
मूल्य 27372
से, 27366
est 27337
दिल 27331
Bengal 27330
date 27328
14@@ 27324
मिलकर 27322
मुकाबले 27307
largest 27299
declared 27264
e: 27245
संपर्क 27233
75 27224
times 27213
केरल 27193
ar, 27177
June 27164
April 27144
Yadav 27123
December 27103
विमान 27082
13@@ 27068
उदाहरण 27061
जिन्हें 27031
expressed 27014
परिवर्तन 27007
प्रकाश 27000
प्रशिक्षण 26990
भूमि 26927
officers 26924
ण 26906
ि@@ 26889
बु@@ 26880
created 26872
occasion. 26872
वन 26837
g 26828
war 26826
l 26820
qu@@ 26818
bank 26791
अभिनेता 26785
policy 26770
अंक 26737
end@@ 26733
tax 26733
लों 26705
अहम 26685
गया. 26679
ter@@ 26662
शांति 26647
again 26645
सुबह 26640
recently 26638
side 26620
per@@ 26605
45 26602
छोटे 26602
X@@ 26585
projects 26559
तों 26556
बजट 26551
attended 26545
चला 26542
अपील 26539
account 26525
सके। 26517
remain 26505
बधाई 26505
ियां 26495
ः 26490
रोक 26489
call 26488
प्@@ 26483
32 26473
tions 26472
(C@@ 26437
and@@ 26436
ऑस्ट्रेलिया 26412
ine 26408
workers 26400
ह 26397
(M@@ 26396
मां 26362
run 26361
टर 26352
D 26343
मोबाइल 26335
central 26326
आधिकारिक 26298
increased 26286
अव@@ 26286
पसंद 26286
production 26267
storage 26261
added 26252
इंग्लैंड 26247
0.@@ 26239
संस्थान 26231
"We 26221
सुरक्षित 26213
L 26188
features 26172
amount 26165
रे 26142
d 26132
सारे 26106
लु@@ 26099
ir@@ 26096
results 26088
nation 26083
Rs.@@ 26082
av@@ 26072
os@@ 26066
गि@@ 26053
Do 26033
conducted 26026
Many 26015
इलाके 26005
Raj@@ 26002
ons 25989
प्रधान 25970
प्रवक्ता 25941
ani 25927
कर्मचारियों 25908
साफ 25905
De@@ 25892
temple 25885
ra 25883
king 25873
ओ 25872
Is 25857
ment 25821
co@@ 25809
i, 25802
हूँ 25790
main 25782
अं@@ 25767
रोहित 25759
Act, 25743
le 25733
seven 25724
रों 25723
300 25712
घरेलू 25702
रोजगार 25679
con@@ 25677
Ram@@ 25667
field 25667
कं@@ 25648
साथ-साथ 25642
""""@@ 25635
जनरल 25628
release 25608
हमला 25606
past 25591
strong 25572
whether 25569
Salman 25551
ver@@ 25511
air 25505
result 25499
साझा 25493
b 25478
थीं। 25476
hi@@ 25475
छोड़ 25433
था@@ 25416
बाइबल 25410
मतदान 25409
unto 25397
office 25387
जमा 25379
समुदाय 25366
ur 25365
-- 25363
fight 25363
building 25361
ा@@ 25359
really 25334
school 25329
th 25306
pay 25263
एं 25258
parties 25250
उन्‍होंने 25250
stars 25243
November 25240
से) 25200
बनने 25175
Director 25165
ा 25159
ever 25154
जन 25142
अथवा 25137
अधीन 25136
नेशनल 25122
man@@ 25112
अभि@@ 25084
no@@ 25078
समझ 25074
Ch@@ 25066
अंतर्राष्ट्रीय 25057
control 25054
non-@@ 25051
6.@@ 25043
event 25031
ी@@ 24999
Rohit 24994
previous 24979
मत 24971
अनुसार, 24963
डो@@ 24957
July 24930
‘ 24925
daughter 24884
mis@@ 24875
एल 24850
वें 24806
1, 24803
scheme 24799
har@@ 24752
key 24736
संदेश 24733
हालत 24710
government. 24697
कॉ@@ 24693
पै@@ 24686
खे@@ 24678
जम्मू-कश्मीर 24671
स्मार्टफोन 24670
नरेन्द्र 24654
मौसम 24625
जस्टिस 24619
Cup 24618
मिशन 24601
Public 24596
young 24596
लागत 24596
companies 24585
संजय 24575
ो@@ 24549
respect 24548
मान@@ 24539
question 24532
address 24531
Am@@ 24520
गलत 24516
गठबंधन 24509
sc@@ 24508
N 24503
ऑनलाइन 24503
नदी 24502
en, 24491
Cabinet 24486
passed 24475
ू 24475
जीबी 24464
5.@@ 24450
ज्ञान 24448
ors 24443
""@@ 24438
oil 24417
अप्रैल 24405
met 24403
above 24394
Rs. 24392
इंडियन 24374
खास 24357
मार 24350
घ@@ 24345
day. 24340
police. 24340
शो 24322
विवाद 24319
टा 24292
लोक 24282
17@@ 24272
खत्म 24267
January 24260
ठ@@ 24257
3.@@ 24254
सीएम 24250
फ 24236
Vice 24234
world. 24233
September 24231
ne@@ 24226
nothing 24226
छात्र 24226
hi 24204
करेगा। 24201
खो@@ 24201
जून 24197
assembly 24173
camera 24169
पालन 24166
कार्यालय 24158
मारे 24157
Karnataka 24131
रब 24131
ter 24121
um 24119
उद्घाटन 24114
bl@@ 24092
ड़ 24079
मं@@ 24072
quality 24066
हिरासत 24062
सर 24054
विधि 24047
active 24046
stated 24030
-1@@ 24022
किलोमीटर 24018
ut@@ 24017
occasion 23971
percent 23966
ay@@ 23962
ण@@ 23961
मई 23959
sa@@ 23953
पीठ 23947
mother 23942
behind 23925
सम@@ 23923
basis 23914
भवन 23913
सन 23901
खाद्य 23892
सू@@ 23874
एच@@ 23869
Sam@@ 23865
admitted 23859
नियम 23828
Parliament 23824
early 23819
राजनीति 23804
वास्तव 23787
हिंसा 23786
दिखाई 23779
सलाह 23775
प्रचार 23754
परवरदिगार 23746
head 23731
16@@ 23730
अनुभव 23726
राहत 23715
front 23713
8.@@ 23709
, @@ 23684
ित 23678
मतलब 23662
समीक्षा 23661
तीसरे 23653
ha 23644
forces 23642
समाप्त 23641
जोर 23633
परीक्षण 23602
Ra@@ 23588
फे@@ 23575
Of 23545
मुद्दों 23539
October 23519
सप्ताह 23494
हवाई 23484
दो@@ 23479
गैस 23477
महसूस 23467
energy 23466
Education 23464
4.@@ 23456
capital 23455
आता 23454
Hindi 23414
जिसकी 23410
captain 23407
करनी 23398
है: 23398
Con@@ 23397
व्यापक 23394
once 23390
बना@@ 23372
फ़@@ 23369
आपकी 23346
ु 23343
Institute 23326
capacity 23321
निर्धारित 23291
possible 23269
कार@@ 23268
hospital. 23258
च 23244
o, 23227
common 23223
Delhi. 23218
year. 23217
कल्याण 23212
me. 23210
ec@@ 23204
s? 23186
अर्थव्यवस्था 23186
paid 23182
sha@@ 23168
Sanjay 23166
सक्रिय 23165
gold 23154
किताब 23150
F 23129
hold 23121
अध्यक्षता 23092
पारी 23092
points 23088
बदल 23088
trade 23086
Who 23085
लू@@ 23083
par@@ 23081
उम्मीदवारों 23078
line 23071
क्‍@@ 23056
2013 23050
us. 23030
programme 23018
Gods 23017
चाहे 23017
technology 23001
सफलता 22987
single 22984
यानी 22966
allowed 22965
प्यार 22949
Un@@ 22931
fl@@ 22929
lives 22927
MLA 22917
गिरावट 22894
film. 22888
शब्द 22883
लिमिटेड 22879
जनवरी 22876
आय 22874
recovered 22865
Hindu 22858
परियोजनाओं 22852
Rajya 22848
सभा 22840
officer 22836
future 22833
चिकित्सा 22823
aw@@ 22814
संशोधन 22800
वीं 22788
raised 22780
समाधान 22756
तो@@ 22750
संभव 22725
industry 22721
खर्च 22711
for@@ 22698
com@@ 22697
ती@@ 22694
बावजूद 22694
रहा। 22689
ार@@ 22687
डिग्री 22677
training 22662
30@@ 22654
शायद 22654
pur 22651
life. 22650
किया. 22644
कथित 22638
आठ 22628
विजय 22612
न-@@ 22598
months 22580
प्रियंका 22577
England 22573
launch 22570
दि@@ 22568
सेवाओं 22552
Kerala 22551
सूत्रों 22548
matter. 22545
रह@@ 22524
2012 22486
राम@@ 22454
el 22434
is, 22406
राजा 22397
ज, 22395
चुनौती 22393
upcoming 22370
ia 22361
48 22343
+ 22341
appointed 22336
शे@@ 22330
विस्तार 22329
c 22321
अभिनेत्री 22318
me@@ 22315
highest 22314
bi@@ 22305
शन 22302
certain 22291
point 22280
स्थापना 22278
राय 22275
साबित 22271
something 22268
वाहन 22249
him, 22240
St@@ 22238
G 22237
ें@@ 22234
स्वयं 22229
िया 22219
ati@@ 22216
ु@@ 22215
एजेंसी 22206
identified 22205
परिवहन 22203
आतंकवाद 22200
media. 22187
car 22157
फा@@ 22157
वर 22146
Mo@@ 22139
February 22127
इतना 22119
मृत्यु 22118
जिलों 22106
36 22102
ity 22102
Sha@@ 22094
places 22076
named 22063
न्यायाधीश 22059
includes 22057
Bible 22046
spot. 22038
ई-@@ 22037
जुलाई 22025
लग 22020
तो, 22014
आदमी 22005
rec@@ 22002
Shiv 21997
फोटो 21997
recent 21995
यु@@ 21993
create 21992
playing 21984
Bharat 21959
benefit 21951
नहीं। 21933
e) 21924
candidate 21909
केन्द्र 21909
अफ्रीका 21906
districts 21876
चयन 21874
feel 21872
positive 21860
मेडिकल 21849
sub@@ 21848
गा 21840
बढ़कर 21838
all@@ 21826
उचित 21825
red 21824
move 21815
test 21812
August 21801
केजरीवाल 21796
peace 21783
कड़ी 21781
पाकिस्तानी 21764
heavy 21763
मोहम्मद 21762
मैचों 21756
50@@ 21752
followed 21730
शहरी 21725
बिक्री 21702
मीटर 21697
प्रगति 21669
whole 21662
कारोबार 21648
निक 21647
बातें 21645
District 21640
गी 21635
भीतर 21635
si@@ 21633
ी 21631
पर्यटन 21630
पुष्टि 21629
ot@@ 21626
खुशी 21612
community 21606
rushed 21594
हेतु 21579
सै@@ 21578
पदक 21576
Ad@@ 21573
नागरिकों 21566
7.@@ 21549
रहता 21534
included 21533
su@@ 21527
often 21521
थ 21496
क्स 21492
ने, 21479
ant@@ 21474
मिले 21473
24@@ 21470
अलग-अलग 21467
details 21466
board 21450
लगी 21449
ness 21400
लीटर 21393
न्याय 21390
Priyanka 21385
राजधानी 21382
required 21379
investment 21360
.""" 21356
तर@@ 21334
मुस्लिम 21321
संबंधों 21321
us, 21320
charge 21287
research 21280
affected 21279
trying 21275
cooperation 21273
return 21250
बाद, 21244
ations, 21236
ep@@ 21230
Jehovahs 21213
(ऐ 21212
एम 21206
हुए। 21198
book 21185
पटेल 21181
teams 21165
ist 21145
लो 21137
accused. 21127
तलाश 21109
घंटे 21106
हु@@ 21104
अपराध 21087
ख़@@ 21050
लेते 21049
Cricket 21037
दौरे 21005
developed 20990
अनुमान 20984
res@@ 20982
huge 20976
condition 20974
especially 20969
until 20967
od@@ 20965
Ministers 20931
leading 20925
application 20922
दिसंबर 20915
जे 20901
plan 20893
Mar@@ 20888
चालक 20879
हों 20872
400 20870
शरीर 20870
हैं@@ 20870
position 20860
करोड़ 20848
शिवसेना 20846
treatment 20844
परिजनों 20843
Mr 20830
तु@@ 20814
ity, 20805
प्रस्तुत 20796
Sena 20792
वहीं, 20782
$@@ 20780
Muslim 20779
se 20777
अंत 20773
Most 20765
गाँव 20761
Deputy 20745
2, 20744
act 20744
happy 20741
दार 20736
पर, 20731
हैदराबाद 20730
खारिज 20725
IC@@ 20722
kind 20717
बल्लेबाज 20717
reason 20711
produced 20708
well. 20703
income 20696
27@@ 20686
(D@@ 20661
reach 20660
committee 20652
बांग्लादेश 20642
ंड@@ 20639
patients 20631
जानता 20629
class 20627
connection 20626
IS@@ 20625
निधन 20617
राज्‍य 20615
धरती 20598
कॉलेज 20592
निश्चित 20588
ड़ा 20582
नवंबर 20566
e? 20563
मैदान 20563
ering 20556
personal 20550
secretary 20546
ज़@@ 20538
मॉडल 20522
br@@ 20519
ऐ 20519
एयर 20504
ary 20503
knowledge 20470
child 20460
आंध्र 20457
बरामद 20456
online 20452
ali@@ 20446
dead 20446
33 20445
forward 20429
अप@@ 20428
पेट्रोल 20425
fear 20409
located 20407
construction 20397
works 20387
region 20376
गे@@ 20375
Governor 20365
ones 20360
Kumar, 20346
सहायक 20342
पहुंची 20336
began 20317
रसूल 20305
“ 20302
संरक्षण 20300
deal 20276
regarding 20264
Those 20263
a's 20261
शासन 20248
माल 20237
pro@@ 20225
जाए। 20213
check 20208
ud@@ 20197
आतंकी 20197
study 20194
विधेयक 20189
लें 20185
activities 20184
Your 20183
light 20178
करा@@ 20178
Minister, 20176
न) 20170
200@@ 20164
youth 20151
पाने 20146
तुरंत 20143
C) 20136
Chinese 20126
true 20126
उसको 20119
providing 20116
reports 20103
value 20086
tion@@ 20085
आपूर्ति 20079
लग@@ 20075
आते 20061
भरोसा 20057
giving 20055
प्रथम 20045
पार 20033
चु@@ 20027
(R@@ 20016
सीटें 20013
except 20001
फरवरी 19972
संदर्भ 19970
the@@ 19968
वै@@ 19968
रिलीज 19962
himself 19944
रख@@ 19944
little 19933
Section 19929
record 19929
turn 19929
demand 19928
steps 19917
जिनके 19906
serious 19887
ू@@ 19883
डिजिटल 19882
earth 19875
years. 19861
वोट 19852
personnel 19849
मन@@ 19841
स्वागत 19838
फै@@ 19830
प्रसाद 19829
पूर्वी 19814
क्षेत्रीय 19806
mobile 19802
director 19799
management 19792
स्ट@@ 19791
Medical 19785
ob@@ 19785
राजनाथ 19776
तुम्हारी 19775
शी@@ 19772
ी। 19766
poor 19761
Dr. 19758
देकर 19755
असर 19752
religious 19741
girl 19731
संसाधन 19730
Sharma, 19729
ren@@ 19728
अगस्त 19722
whose 19721
में) 19719
tr@@ 19717
करे 19717
चे@@ 19706
ं, 19704
370 19703
9.@@ 19702
Pakistani 19685
गठन 19685
प्रभावी 19683
अंदर 19673
रिकॉर्ड 19653
चीनी 19640
कौशल 19639
टीवी 19631
विकल्प 19631
इलाकों 19627
यो@@ 19623
hand 19619
looking 19617
चौ@@ 19608
terms 19588
committed 19577
ल्स 19566
rural 19562
ies 19558
कता 19558
force 19540
बाकी 19540
निगम 19538
am, 19531
though 19531
एशिया 19503
तमिलनाडु 19501
निर्यात 19495
people, 19492
probe 19492
station 19487
gone 19471
हालात 19469
spread 19459
फिल्मों 19418
बाल 19408
et 19405
तीनों 19405
इन्@@ 19390
year, 19385
एँ 19385
चाहिए. 19381
ev@@ 19374
V 19367
चीज़ 19357
राज्यपाल 19355
considered 19353
ind@@ 19353
सजा 19347
प्रयासों 19344
Modi, 19343
मात्रा 19333
करार 19328
regard 19316
GST 19305
regard. 19300
ys 19299
शी 19299
Rajnath 19296
प्राकृतिक 19291
रंग 19284
ai 19269
जाएंगे। 19260
living 19230
Sar@@ 19224
े, 19220
Kar@@ 19214
इन@@ 19214
Se@@ 19204
similar 19204
ent. 19186
्@@ 19184
धार्मिक 19178
Delhi: 19174
driver 19174
रहती 19172
Bal@@ 19166
k, 19164
2,@@ 19129
अन@@ 19120
गति 19113
निगरानी 19106
एफ 19102
प्रेम 19098
ful 19077
joined 19076
coronavirus 19072
सक्षम 19068
care 19065
gl@@ 19060
सितंबर 19057
presented 19052
स्थानों 19049
जिम्मेदारी 19036
approved 19030
worth 19028
पर्यावरण 19028
चिंता 19017
gets 19012
ई, 19011
ari@@ 19002
leave 18994
फाइनल 18985
week 18982
inter@@ 18979
शहरों 18979
तापमान 18978
आसान 18975
lodged 18971
जीएसटी 18956
players 18955
understand 18955
prime 18952
घायलों 18949
हाईकोर्ट 18916
बनाई 18910
बातों 18909
House 18907
term 18906
कहने 18905
ig@@ 18904
recorded 18900
गतिविधियों 18899
wanted 18897
ति 18894
under@@ 18892
low 18888
प्रा@@ 18882
Research 18872
ँ@@ 18871
website 18870
जन्म 18870
स्टेशन 18864
necessary 18862
ल-@@ 18861
har 18856
रोकने 18856
सह@@ 18856
रूस 18854
additional 18844
आपका 18840
अर्थ 18836
ड़@@ 18831
स्वतंत्रता 18829
23@@ 18827
eight 18815
letter 18812
military 18810
वाद 18805
खरीद 18803
लाइन 18796
day, 18793
stand 18788
डीजल 18780
East 18776
eth 18774
उपचार 18770
esh 18769
ahead 18757
saw 18756
murder 18752
तकनीकी 18746
मेगापिक्सल 18740
ग्राम 18737
days. 18731
नाथ 18722
", 18718
बैंकों 18701
Har@@ 18700
ts. 18699
शुल्क 18694
हिंदू 18685
outside 18682
hope 18678
दौरा 18670
काल 18667
husband 18665
Security 18662
होनी 18662
कर्@@ 18652
that, 18645
ला, 18641
नु@@ 18637
Special 18633
in, 18625
ations. 18619
built 18617
पोस्ट 18613
Q@@ 18608
खराब 18604
ही@@ 18596
meeting. 18583
km 18576
रखी 18576
involved 18572
नये 18568
मौका 18566
तस्वीर 18561
महान 18558
पहल 18553
lo@@ 18544
parents 18536
ग्@@ 18532
ties 18527
domestic 18521
sought 18521
ity. 18518
ज़्यादा 18510
।" 18502
पूछताछ 18500
ऋण 18499
ए) 18496
Pradesh. 18490
सोमवार 18482
34 18480
ala 18478
प्रदेश, 18476
लाया 18476
Railway 18462
अनुच्छेद 18462
x@@ 18453
diesel 18452
वायरल 18448
वहाँ 18439
समझौता 18437
42 18425
मानना 18418
पैसे 18415
governments 18410
इंजन 18397
ड़ी 18391
28@@ 18382
अनुरोध 18381
बराबर 18375
Railways 18368
00 18359
te@@ 18350
UP 18346
sources 18339
बुनियादी 18335
पोस्टमार्टम 18334
Tata 18333
rights 18332
compared 18330
makes 18321
s' 18317
happened 18316
takes 18306
नयी 18306
3, 18292
Election 18288
history 18283
2011 18280
इनके 18279
चुनावों 18272
संस्कृति 18269
ज्@@ 18253
Bangladesh 18241
Three 18230
Under 18229
55 18226
ered 18226
ation@@ 18218
असम 18212
… 18204
रख 18199
पर्याप्त 18192
प्रेरित 18161
Article 18146
लिंग 18127
hard 18113
en. 18106
सैन्य 18104
opportunity 18099
legal 18095
कार्यों 18093
loss 18090
दौर 18085
Ex@@ 18080
ली, 18078
नियुक्त 18074
तुम्हारा 18071
प्रतिक्रिया 18071
heart 18058
indeed 18057
id 18056
मुकाबला 18047
problems 18044
किरदार 18042
कार्य@@ 18040
देती 18040
ऑ@@ 18029
Anil 18028
ative 18026
दायर 18021
लंबे 18008
Pro 18004
हुए, 18002
सके 17989
मुताबिक, 17982
Foreign 17975
By 17972
Pro@@ 17965
quite 17950
40@@ 17949
lower 17949
समझौते 17946
मिलियन 17938
smartphone 17936
अनिल 17932
follow 17927
infrastructure 17924
कार्@@ 17923
र्स 17919
44 17912
FIR 17897
5, 17896
कर, 17892
वादी 17891
नियमों 17889
measures 17887
26@@ 17885
65 17885
fully 17878
thing 17873
संक्रमण 17859
64 17855
वायु 17850
there. 17849
टों 17842
औद्योगिक 17841
too. 17822
दर@@ 17819
आतंकवादी 17816
banks 17797
worked 17795
29@@ 17787
Senior 17778
यात्रियों 17772
either 17765
ou@@ 17759
क्ष@@ 17758
Corporation 17757
Force 17756
etc. 17752
डेटा 17748
i. 17744
होगा. 17731
focus 17726
problem 17721
निश्चय 17719
खुश 17715
श्रीलंका 17712
बताया, 17704
परन्तु 17702
क़@@ 17700
वनडे 17693
संस्थानों 17690
सारी 17689
Th@@ 17686
एन 17682
हिमाचल 17670
Redmi 17669
offer 17662
उम्र 17662
ड़@@ 17660
करेगी। 17656
progress 17648
रसूल) 17647
cl@@ 17643
'' 17642
सामग्री 17629
यों 17625
cr@@ 17619
मिलता 17619
कोलकाता 17615
ah 17607
responsibility 17598
anything 17592
immediately 17584
night 17581
ph@@ 17580
ah@@ 17579
carried 17576
लगा@@ 17571
टाटा 17568
Mal@@ 17563
भगवान 17560
'. 17559
ियाँ 17557
defence 17552
country, 17549
बढ़ा 17542
बिल 17540
आर्@@ 17529
व्यक्तियों 17524
पड़ 17514
ब्@@ 17514
आनंद 17512
फरार 17511
complete 17507
महामारी 17502
ask 17486
शाम 17470
ready 17457
199@@ 17454
को, 17443
लगाए 17443
message 17438
हाई 17436
रखना 17434
अक्षय 17432
पहुंचे 17431
कहानी 17428
train 17427
hearing 17416
proposed 17414
fac@@ 17410
TV 17408
fi@@ 17408
ants 17402
मुश्किल 17400
bo@@ 17398
नेटवर्क 17387
economy 17365
6, 17355
दस 17353
real 17340
ry 17331
शो@@ 17311
words 17308
फो@@ 17300
Khan, 17289
0 17282
37@@ 17282
सांस्कृतिक 17279
British 17262
की. 17262
लै@@ 17256
revealed 17254
Bar@@ 17251
z 17248
Kejriwal 17247
kept 17245
ब्रिटेन 17236
संकट 17234
ट्विटर 17232
wickets 17228
Apart 17220
or, 17206
मार्@@ 17205
35@@ 17198
ence 17188
Di@@ 17185
ढ@@ 17184
?" 17182
Speaking 17174
hours 17151
themselves 17149
brother 17144
turned 17141
work. 17126
150 17124
in. 17112
राज्यसभा 17112
उप 17104
Cha@@ 17103
मुक्त 17095
mo@@ 17084
एं@@ 17070
कोच 17064
आशा 17063
उच्चतम 17059
Indians 17057
झ@@ 17054
Information 17049
मंत्रिमंडल 17043
हिंदी 17034
मुखर्जी 17027
सत्ता 17024
देख@@ 17021
शुक्रवार 17013
ts, 17009
स्टार 17005
े। 17002
भी@@ 17001
press 16992
त) 16983
air@@ 16982
bench 16978
po@@ 16974
बर्@@ 16974
ODI 16973
1. 16960
cultural 16959
Vijay 16952
कर्मचारी 16951
seat 16935
बेशक 16933
फी@@ 16932
आगामी 16928
ar. 16922
जापान 16920
ent, 16911
hand@@ 16905
scored 16900
Even 16899
og@@ 16896
एक्@@ 16885
पड़ा 16879
ance. 16874
युवाओं 16871
स्थल 16865
चेन्नई 16863
स्टोरेज 16859
investigating 16858
घरों 16857
2010 16856
seeking 16856
es: 16853
फायदा 16847
10.@@ 16842
RA@@ 16842
ance, 16842
ak 16841
ची@@ 16833
मर 16833
धोनी 16832
कू@@ 16825
signed 16823
रोल 16821
town 16817
MLAs 16815
खाते 16815
दिया. 16815
लर 16804
tor@@ 16794
mar@@ 16792
पुरुष 16792
जाएगी 16791
2. 16784
deep 16782
दोषी 16774
कानूनी 16772
उत्पाद 16764
खंड 16764
game 16760
campaign 16752
तैनात 16752
डे 16746
min@@ 16745
रद्द 16745
दू@@ 16743
don't 16740
िया@@ 16737
products 16732
bodies 16727
हर@@ 16726
Su@@ 16709
violence 16709
word 16705
मिलेगा। 16703
institutions 16701
th, 16700
mon@@ 16690
population 16688
ministers 16685
शासित 16685
जाकर 16683
department 16679
दलों 16678
organised 16672
tive 16672
petrol 16665
actress 16663
सहमति 16661
ै@@ 16661
relationship 16657
दबाव 16656
कहता 16650
years, 16644
gives 16636
ish 16631
ऐतिहासिक 16620
search 16619
वॉ@@ 16615
ability 16613
ents 16613
faith 16613
संगठनों 16605
Bi@@ 16597
vehicles 16587
Prasad 16583
Nath 16579
सरकारों 16568
supply 16556
ऊ@@ 16554
लॉ@@ 16553
Also 16550
होगा, 16548
fourth 16543
surely 16537
क़@@ 16534
Group 16533
जहाँ 16530
नियमित 16522
and, 16513
d, 16513
नी, 16512
Technology 16510
योजनाओं 16499
Civil 16496
tell 16496
ka 16486
fast 16480
खुदा 16479
cities 16474
सच 16464
बा 16457
आवास 16456
49 16453
h, 16443
a-@@ 16438
सर्@@ 16436
37 16429
Following 16429
जवान 16429
आग्रह 16428
American 16425
Sa@@ 16423
देर 16421
जमीन 16420
popular 16418
धा@@ 16417
जर्मनी 16416
टे 16416
Since 16413
ash@@ 16404
बलों 16396
''@@ 16379
joint 16378
access 16377
k. 16374
बद@@ 16374
कारों 16372
बू@@ 16366
आती 16360
late 16356
भि@@ 16356
terror 16344
निकल 16339
response 16330
अधिनियम, 16327
जू@@ 16325
Commissioner 16324
families 16323
योग 16322
Raj 16316
अधि@@ 16314
handed 16303
निपटने 16298
संचालन 16292
आखिरी 16291
बचाव 16288
IT@@ 16287
ks 16277
ji 16273
ट्रेन 16265
नौ@@ 16265
protest 16263
anti-@@ 16260
performance 16258
वकील 16255
difficult 16246
इस्तीफा 16245
off@@ 16243
4, 16232
यू 16228
(ए@@ 16219
सोनिया 16217
yet. 16213
श्रृंखला 16209
गई. 16207
citizens 16203
राष्‍ट्रीय 16201
ICC 16199
ir 16199
experience 16194
ड़े 16185
offered 16176
society 16171
schools 16170
गेंद 16168
यी 16165
ish@@ 16159
bilateral 16152
GB 16141
(एन@@ 16139
8, 16136
उठा@@ 16136
चीफ 16123
language 16117
soon. 16089
स्ट 16087
read 16082
तारीख 16082
stay 16075
उल्लंघन 16066
चाहती 16056
सर्वश्रेष्ठ 16052
आसपास 16048
fin@@ 16047
25@@ 16046
विधायकों 16046
सुझाव 16046
ve 16035
48@@ 16033
confirmed 16032
लाइ@@ 16029
existing 16025
natural 16025
99 16021
द्विपक्षीय 16021
अधिकतम 16020
पश्चिमी 16016
परमाणु 16015
Himachal 16014
oc@@ 16008
दूरी 16007
ug@@ 16003
ीय 16001
file 15997
na 15997
सीधे 15995
formed 15990
वैज्ञानिक 15974
wants 15972
दाखिल 15966
लड़ाई 15965
स्व@@ 15964
38 15963
ौ@@ 15961
att@@ 15960
राव 15958
सिस्टम 15956
विशिष्ट 15955
टिकट 15952
IP@@ 15940
टिप्पणी 15940
Kal@@ 15939
ंस 15939
बॉ@@ 15933
हस्ताक्षर 15933
Law 15928
फ्@@ 15921
stop 15918
आंदोलन 15917
Arvind 15913
provisions 15904
scheduled 15902
भागीदारी 15901
न्यायमूर्ति 15895
सों 15890
elected 15884
Ma@@ 15883
employees 15877
कह@@ 15875
या। 15873
le, 15872
Patel 15871
ann@@ 15862
talks 15857
वो@@ 15850
completed 15846
पाए 15846
From 15839
rise 15839
क) 15833
tic@@ 15832
sl@@ 15828
border 15827
session 15821
संपत्ति 15819
shot 15816
श्रेणी 15812
द्@@ 15796
बहु@@ 15796
एक्स@@ 15789
य, 15779
ist@@ 15776
आईपीएल 15765
श्@@ 15765
opposition 15764
issue. 15762
ओवर 15760
tic 15757
C, 15756
han 15756
os 15755
पाक 15752
प्रकाशित 15742
गुणवत्ता 15722
opening 15720
अक्सर 15716
डा 15712
रहना 15706
अन्तर्गत 15695
इन्हें 15692
Sonia 15689
latest 15687
cha@@ 15681
biggest 15680
लेना 15678
किन्तु 15677
caused 15673
ni@@ 15672
सम्मानित 15671
मंगलवार 15665
ch 15660
ai@@ 15655
Constitution 15648
facing 15639
ery 15637
निर्@@ 15636
continued 15623
vi@@ 15615
न्यूनतम 15615
मू@@ 15615
्र@@ 15612
सवार 15607
राजीव 15605
ईरान 15597
implementation 15596
accident 15592
2019: 15582
SA@@ 15582
tri@@ 15580
दुर्घटना 15577
ways 15575
almost 15574
step 15569
effect 15566
gr@@ 15560
war@@ 15549
established 15547
2009 15535
allegedly 15535
maximum 15535
phase 15530
administration 15528
films 15527
demanded 15524
पाई 15515
सी) 15506
विरोधी 15501
More 15494
authorities 15484
सराहना 15475
rain 15474
43 15472
allow 15471
to@@ 15470
talk 15467
ally, 15458
त्मक 15455
Africa 15451
BCCI 15447
pre@@ 15446
gu@@ 15442
Chairman 15438
): 15434
join 15423
CA@@ 15418
जान@@ 15412
billion 15410
रही। 15407
शपथ 15406
ended 15399
extended 15393
polls 15392
महत्व 15391
देव 15389
Several 15382
dec@@ 15381
Janata 15379
युवक 15379
47 15376
आरोपों 15376
सारा 15376
आधुनिक 15374
तैयारी 15363
birth 15360
promote 15357
रखता 15349
SP 15343
खिलाड़ियों 15343
पं@@ 15342
छूट 15335
अधिकांश 15334
ए, 15329
बीमा 15328
,0@@ 15322
story 15322
मूसा 15319
thought 15318
जानी 15318
अक्टूबर 15313
Not 15312
हिस्से 15306
कीमतों 15305
say, 15304
success 15300
प्रेस 15296
moved 15295
charges 15292
वाहनों 15291
Their 15290
इसलिए, 15290
कल@@ 15290
ical 15289
योगी 15289
Donald 15280
gi@@ 15275
एक@@ 15273
hands 15269
Sal@@ 15266
others. 15266
कब्जे 15265
anc@@ 15263
नही 15259
me, 15256
रै@@ 15252
का, 15249
पाल 15249
ra, 15248
ast@@ 15246
visited 15245
bus 15242
concerned 15242
thou 15241
provides 15230
वार्षिक 15224
nearly 15223
38@@ 15220
योग्य 15219
ministry 15213
r 15209
संसदीय 15200
presence 15194
सीमित 15194
course 15189
अजय 15189
', 15188
ani@@ 15188
वार 15183
पृथ्वी 15181
बुधवार 15178
ground 15169
51 15168
(B@@ 15159
चले 15154
God. 15150
U 15148
वर@@ 15140
tions. 15139
देखें 15128
short 15127
half 15125
improve 15121
referred 15115
ट्@@ 15114
लोकतंत्र 15114
रियर 15107
a) 15103
fall 15100
uk@@ 15099
spokesperson 15098
thy 15097
significant 15095
संकेत 15090
ये@@ 15088
changes 15085
range 15084
टूर्नामेंट 15084
via 15068
A) 15054
star 15053
effective 15051
space 15049
नायडू 15049
भाषण 15038
एक्ट्रेस 15035
शु@@ 15028
ve@@ 15026
iti@@ 15021
try 15021
लाए 15019
ari 15015
relations 15015
न्स 15008
truth 15007
arrest 15003
de 14999
remained 14999
facilities 14997
ty 14995
इमरान 14993
प्रो@@ 14993
ath@@ 14992
बं@@ 14992
स्टे@@ 14991
कैबिनेट 14985
7, 14979
Now 14977
rates 14976
God, 14969
Services 14962
deaths 14960
status 14954
ों, 14953
enter 14949
ग्रहण 14949
तनाव 14943
अशोक 14939
गैर-@@ 14938
mind 14937
नौसेना 14936
तियों 14935
rest 14931
NC@@ 14920
Asian 14919
सेवाएं 14919
3. 14916
far. 14916
ments 14910
kar 14905
card 14904
अलावा, 14904
जुड़ी 14904
अरविंद 14894
अतः 14893
माता 14891
समक्ष 14888
सिविल 14881
tried 14877
(1) 14875
u, 14873
successful 14867
didnt 14863
सोच 14858
family. 14855
ड, 14855
Bill 14854
गी@@ 14854
लिखित 14853
review 14851
प्रार्थना 14851
39 14849
आउट 14843
उत्पन्न 14843
हित 14840
3,@@ 14838
enc@@ 14837
दृष्टि 14834
doctors 14833
नेपाल 14830
pe@@ 14809
शूटिंग 14808
इंटरनेट 14806
Allah, 14805
भाव 14798
कार्यक्रमों 14797
pur, 14795
शा 14787
met@@ 14784
द, 14780
AT@@ 14778
School 14776
Secretary, 14769
internal 14757
नौ 14754
रैम 14754
ly, 14753
या, 14751
निर्वाचन 14750
जीतने 14737
Other 14725
2021 14722
न्यायिक 14722
impact 14719
बनाना 14716
समाचार 14714
f 14711
ri 14711
जाति 14711
प्रतिबंध 14706
mentioned 14701
उल्लेख 14700
safety 14698
5-@@ 14696
बदला 14690
नर 14689
ets 14682
यात्री 14681
शिखर 14673
at, 14669
झारखंड 14665
Ne@@ 14658
रविवार 14655
ष@@ 14652
कला 14650
सोने 14646
2008 14645
X 14643
denied 14643
डाल 14639
relief 14636
Hyderabad 14634
car@@ 14631
इस@@ 14630
की) 14629
न्यूजीलैंड 14625
गोवा 14614
AR@@ 14613
Akshay 14609
Students 14609
employment 14609
पूजा 14609
अफगानिस्तान 14608
as, 14599
er-@@ 14595
कार्यकर्ताओं 14595
David 14584
सें@@ 14580
credit 14576
fact 14575
so@@ 14570
उठाए 14569
शख्स 14568
दिया, 14566
crore. 14563
do@@ 14560
रैली 14555
उठा 14549
वितरण 14546
4,@@ 14542
52 14540
व्यक्तिगत 14527
Ajay 14526
कारणों 14520
6-@@ 14512
discussed 14509
41 14507
ten 14504
ड्स 14496
wrote 14490
मिलती 14488
movement 14484
ank@@ 14482
Dev@@ 14468
CO@@ 14462
Pl@@ 14461
placed 14457
नोटिस 14457
ite 14447
evidence 14443
are@@ 14441
पू@@ 14436
२@@ 14430
d. 14426
विद्यार्थियों 14419
मिलते 14415
समा@@ 14415
potential 14414
ill@@ 14410
operation 14410
मंच 14410
हूं. 14409
mark 14405
4-@@ 14403
गत 14396
सी, 14396
संघर्ष 14391
Republic 14390
उपराष्ट्रपति 14390
निर्माता 14387
Mr. 14383
वास्तविक 14382
ach@@ 14379
बीमारी 14379
sur@@ 14376
बताते 14376
तुमसे 14374
passengers 14367
छोटी 14362
बाढ़ 14355
करा 14351
primary 14347
civil 14346
आपने 14346
average 14345
ब्याज 14335
agency 14328
blood 14325
save 14324
भावना 14319
Arun 14316
अंतरिक्ष 14315
शनिवार 14311
tu@@ 14304
कर्मियों 14304
Science 14303
Service 14303
str@@ 14296
अर्@@ 14285
दी, 14283
लीग 14283
seek 14280
चारों 14280
growing 14278
sports 14273
ण, 14266
Y 14263
model 14261
es) 14258
closed 14251
लड़की 14251
apply 14245
Dis@@ 14239
निशाना 14232
Kh@@ 14231
besides 14225
व्यवहार 14222
examination 14220
railway 14220
receive 14220
seized 14219
वार्ता 14218
9, 14217
12.@@ 14216
greater 14214
houses 14211
(एस@@ 14206
ment. 14206
target 14206
नव@@ 14202
श्री@@ 14200
दास 14183
सम्@@ 14182
RAM 14178
her@@ 14174
function 14173
पन 14173
Bigg 14168
बुरी 14168
assistance 14166
Women 14165
बल्लेबाजी 14165
पवित्र 14163
वर्षीय 14163
उठाने 14161
urged 14156
परिवारों 14155
पड़ता 14145
भोजन 14145
ed: 14141
कार्यकारी 14141
तत्काल 14138
95 14133
groups 14129
ated. 14126
Chennai 14125
आइ@@ 14125
friends 14123
viral 14117
heard 14115
inder 14084
ताओं 14083
als, 14082
Her 14081
दीपिका 14079
संगीत 14077
ling 14074
तस्वीरें 14072
source 14070
मिलेगी। 14069
opportunities 14064
पुराने 14063
minimum 14053
महासचिव 14053
job 14034
यूपी 14034
ow@@ 14030
Water 14029
one. 14029
शर्मा, 14029
उत्पादों 14027
out. 14026
जर 14020
century 14015
ara 14014
जेटली 14014
Com@@ 14012
knows 14008
attend 14005
RBI 14001
मिल@@ 13998
I, 13995
ma@@ 13987
अनिवार्य 13987
ence, 13981
En@@ 13979
alliance 13977
मौ@@ 13977
मनुष्य 13972
rape 13970
लंबी 13970
ment@@ 13964
लॉकडाउन 13962
increasing 13959
नोट 13957
हाउस 13949
gas 13947
inside 13941
साइ@@ 13940
notice 13937
build 13933
रहेगा। 13933
इंस्टाग्राम 13924
ट्रे@@ 13920
दोस्त 13920
फ्रांस 13920
चलता 13917
responsible 13913
ances 13909
aj@@ 13907
Pat@@ 13898
occasion, 13897
1-@@ 13895
I) 13890
यूनिवर्सिटी 13888
married 13885
न्‍@@ 13884
इतनी 13883
ying 13882
भ्रष्टाचार 13882
स) 13881
terrorists 13880
cut 13874
गंगा 13874
az@@ 13871
विपक्ष 13870
खु@@ 13867
आबादी 13863
freedom 13862
area. 13852
Le@@ 13850
तेलंगाना 13846
गिरफ्तारी 13845
डॉक्टर 13842
opened 13837
questions 13836
खूब 13835
हे 13834
Sports 13831
Twitter 13831
सदन 13823
बहन 13821
समर्पित 13813
direct 13805
टर@@ 13800
Let 13796
ise 13792
importance 13786
funds 13785
conduct 13782
कराई 13781
published 13778
स्वस्थ 13777
Earlier, 13776
ख़@@ 13773
गेंदबाज 13772
IN@@ 13768
mat@@ 13768
सेट 13764
plans 13763
ED 13761
85 13746
Lord, 13744
prepared 13744
मार@@ 13742
serve 13737
ement 13731
sure 13731
judicial 13729
पढ़ें 13724
Nadu 13721
Boss 13718
up. 13718
celebrated 13717
posted 13717
पारित 13717
अंतर 13711
exam 13708
BJP. 13707
खोज 13706
खुलासा 13696
els 13688
मंत्रियों 13688
औसत 13683
daily 13680
leadership 13678
ay 13659
participated 13657
Be@@ 13654
ordered 13654
विस्तृत 13653
rich 13652
जमानत 13652
names 13651
फ़@@ 13649
Rukh 13647
re 13645
ial 13641
injured. 13639
speak 13637
English 13631
(F@@ 13630
बड़ी 13629
जरिये 13623
Dhoni 13618
4. 13612
award 13605
H 13601
नागरिकता 13596
समस्याओं 13596
प्रावधान 13595
निर्भर 13594
2-@@ 13592
river 13590
श्रीमती 13590
जाएगा. 13586
ल्‍@@ 13586
Ashok 13583
िय@@ 13583
ma 13582
जाय@@ 13582
आयात 13581
दान 13580
सक@@ 13578
urban 13576
annual 13575
चंडीगढ़ 13575
Deepika 13572
चोट 13572
vehicle 13571
est@@ 13570
सलाहकार 13570
अर्जुन 13565
(E@@ 13552
स्वामी 13552
neither 13548
चौधरी 13545
इकाई 13544
y-@@ 13540
Economic 13537
ग्रुप 13536
है) 13530
Christian 13529
travel 13528
und@@ 13528
डॉ@@ 13521
ess@@ 13520
पुर, 13515
co-@@ 13514
जै@@ 13514
शब्दों 13513
certainly 13510
inc@@ 13510
आकार 13510
spirit 13504
ell@@ 13499
Such 13497
पह@@ 13497
दाम 13495
चलने 13489
send 13488
विरुद्ध 13487
सौ 13487
ted. 13483
thousand 13481
5. 13475
प्राचीन 13472
Asia 13471
सख्त 13471
56 13470
judge 13458
ators 13455
80@@ 13454
जल्दी 13454
खेला 13453
temperature 13451
present. 13448
नर@@ 13447
अगली 13445
consider 13444
54 13443
ism 13440
पहुंचने 13437
Monday 13435
दर्@@ 13434
ली। 13434
remains 13431
चेयरमैन 13430
्य 13430
्य@@ 13428
attack. 13422
ul 13422
हफ्ते 13420
operations 13410
नो 13399
री, 13399
46 13398
बीसीसीआई 13397
हूं, 13396
़@@ 13393
Assam 13388
अहमद 13388
कारी 13387
सिटी 13382
क्रम 13381
वर्ल्ड 13380
example 13376
ment, 13375
ings, 13374
सचिन 13373
ence. 13371
digital 13364
failed 13361
les 13360
Agriculture 13359
ग्रा@@ 13357
conference 13353
,000 13347
60@@ 13346
अवैध 13339
Association 13338
note 13337
ge@@ 13331
hand, 13331
spoke 13330
छा@@ 13328
हल 13327
11.@@ 13324
goes 13323
conditions 13318
cur@@ 13318
Over 13316
Pakistan. 13315
modern 13314
Singh. 13313
shows 13312
प्रसिद्ध 13312
दूसरों 13311
S. 13306
Road 13300
बनाकर 13300
नौकरी 13294
बच्चन 13291
है।" 13291
ट्र@@ 13290
के. 13288
ल) 13287
लिस्ट 13287
अल्@@ 13284
ard@@ 13280
Mission 13278
strengthen 13275
हिस्सों 13275
felt 13274
-based 13273
और@@ 13269
ator 13264
contest 13263
मोहन 13263
particular 13260
प्रश्न 13246
जाया 13243
th. 13241
स्कूलों 13240
सेंटर 13239
टिंग 13229
शाहरुख 13224
मंडल 13222
सैनिकों 13218
Mon@@ 13216
बिल्कुल 13213
स्टेट 13213
majority 13200
Scheme 13198
cash 13198
इंतजार 13193
वापसी 13190
विश्‍वास 13190
देवी 13189
Mad@@ 13183
निकट 13182
sal@@ 13177
मरीजों 13177
250 13176
वां 13170
victory 13168
सेंसर 13163
प्रतियोगिता 13162
विवाह 13161
fe@@ 13158
children. 13156
हम@@ 13154
For@@ 13144
ेंगे 13142
वान 13141
198@@ 13131
born 13123
engine 13118
case, 13104
equal 13103
setting 13100
learn 13099
Note 13098
ब्रिटिश 13095
Bha@@ 13094
जय@@ 13093
arm@@ 13089
थीं 13085
महीनों 13069
कोरिया 13063
निवासी 13063
खड़े 13053
elections. 13047
ंट 13038
रिजर्व 13028
राह 13027
एक्टर 13025
Naidu 13021
प्रबंध 13021
NCP 13016
अमिताभ 13011
Will 13007
खतरा 13005
शुरूआत 13002
Power 12987
silver 12986
we@@ 12986
गढ़ 12983
कब 12981
needed 12975
ST@@ 12974
Friday 12969
पॉ@@ 12967
कुमार, 12965
बीते 12962
agreed 12961
loc@@ 12961
72 12958
मानी 12952
fresh 12951
सेल 12947
headed 12945
इच्छा 12942
IT 12936
plea 12935
au@@ 12933
ars 12932
black 12928
First 12922
Food 12911
Imran 12910
Manmohan 12909
ं। 12904
speed 12901
साझेदारी 12901
Realme 12898
ball 12893
ves 12892
शेष 12891
दिखा@@ 12889
Hospital 12888
picture 12888
अरुण 12888
ए. 12888
मनमोहन 12881
sk@@ 12874
फ्रंट 12874
दों 12872
petition 12868
खाने 12865
way. 12860
जल@@ 12857
tions, 12854
la 12852
ists 12851
receiving 12849
John 12833
दिखाया 12833
subject 12831
बढ़ती 12827
back@@ 12825
countries. 12825
UN 12818
ध 12813
eg@@ 12812
units 12811
प्रे@@ 12808
work@@ 12807
लगने 12806
जलवायु 12805
देव@@ 12803
ore 12801
उत्तरी 12801
roles. 12800
ds 12799
परिसर 12797
किए। 12795
As@@ 12794
2000 12793
Amitabh 12788
site 12788
wrong 12785
rejected 12784
शहीद 12784
छत्तीसगढ़ 12782
tra@@ 12771
तुमने 12771
actually 12770
Muslims 12769
न्यू@@ 12766
बेहतरीन 12761
ममता 12755
Kolkata 12745
१@@ 12744
student 12741
चाहिए, 12738
strength 12730
लोकप्रिय 12730
government, 12729
Yogi 12726
लिखा, 12725
क्लिक 12724
शीघ्र 12716
Sur@@ 12713
चर 12712
sed 12711
सिवा 12708
फंड 12707
बड़ा 12705
खेलों 12700
मुहैया 12699
ard 12697
el, 12695
3-@@ 12694
Galaxy 12687
थाना 12684
ps 12683
एस. 12683
आय@@ 12681
(T@@ 12679
shown 12678
lin@@ 12668
निर्मित 12667
re-@@ 12664
घंटों 12658
ret@@ 12649
am. 12648
develop 12646
पूछा 12642
als. 12640
schemes 12639
ओलंपिक 12639
प्राथमिकता 12637
rear 12635
सुनील 12635
माहौल 12633
चेतावनी 12632
विजेता 12632
बल@@ 12631
heavens 12630
payment 12625
centre 12619
suicide 12615
रहेंगे। 12614
ह, 12606
Additional 12601
couple 12599
sale 12598
offers 12597
today, 12594
Im 12591
ज्यादातर 12590
below 12588
selected 12586
मह@@ 12585
दिये 12584
extremely 12582
कमजोर 12579
विवरण 12573
chairman 12570
vote 12564
झा@@ 12564
pr@@ 12563
० 12562
तंत्र 12552
unit 12551
or. 12548
ed? 12543
पूर्वोत्तर 12542
रोग 12542
लंदन 12540
(H@@ 12534
man, 12533
P) 12532
ers@@ 12531
season 12529
thus 12528
प्राधिकरण 12525
रिया 12523
Zealand 12518
समुद्र 12508
staff 12507
incident, 12503
t-@@ 12499
दृष्टिकोण 12499
ble 12496
मों 12491
कही 12489
Him 12488
माह 12487
o. 12486
67 12485
लैंड 12482
district. 12476
पदों 12475
believed 12474
गोली 12473
sections 12470
C. 12469
age, 12461
63 12460
कि, 12459
ि 12457
court. 12456
मैन 12456
bas@@ 12449
litre 12448
सहयोगी 12446
a: 12445
द्र@@ 12444
anyone 12433
duty 12432
किंग 12429
गेंदबाजी 12429
व्य@@ 12428
,"""" 12426
मानते 12424
separate 12421
उठाया 12420
deceased 12419
critical 12418
मुकदमा 12410
नियुक्ति 12407
Modi. 12405
कहां 12404
उपाध्यक्ष 12398
(सी@@ 12393
खेलने 12390
विशाल 12389
हा 12389
Super 12388
contribution 12387
प्रकट 12387
External 12386
ov@@ 12383
ational 12382
claim 12382
टीमों 12382
ate. 12381
Co@@ 12379
ें। 12375
specific 12372
Management 12370
Sector 12370
reduce 12365
सां@@ 12364
ऐलान 12360
introduced 12357
यातना 12357
रोड 12351
1,000 12350
pressure 12350
maintain 12347
गठित 12347
Bank, 12345
मान्यता 12342
ens 12336
carry 12335
उपकरण 12334
मिनट 12334
deployed 12333
af@@ 12331
छोड़कर 12331
despite 12330
ings. 12330
running 12330
> 12328
Lal 12328
ess 12328
display 12326
निया 12324
59 12321
यर 12321
stand@@ 12308
approach 12306
Thats 12304
month. 12303
ख 12301
शोध 12300
स्वतंत्र 12300
पावर 12298
चाह@@ 12294
laws 12291
क-@@ 12291
trans@@ 12287
यूरोपीय 12285
ke 12282
pictures 12279
Ab@@ 12276
AAP 12273
दोबारा 12273
उत्@@ 12271
winning 12270
in-@@ 12269
रूपये 12262
pur@@ 12261
Sunil 12259
trains 12255
53 12252
मुद्दा 12250
प्रदूषण 12249
treatment. 12246
bad 12245
SC 12244
traffic 12243
achieve 12240
देश@@ 12236
जमकर 12230
शक 12226
benefits 12225
helped 12224
सुशांत 12224
everyone 12217
खि@@ 12217
िक 12216
Rajiv 12206
whatever 12206
Mukherjee 12204
purpose 12204
वेरिएंट 12204
त्र@@ 12202
criminal 12201
evil 12199
stat@@ 12199
कां@@ 12198
Gang@@ 12194
गरीब 12192
58 12190
nine 12188
रखे 12187
terrorist 12186
पेज 12186
Best 12182
ru@@ 12178
Another 12173
हाथों 12173
मनाया 12172
holding 12171
Bharatiya 12170
estimated 12170
individual 12170
आई) 12170
agreement 12169
छि@@ 12167
degree 12166
Me@@ 12162
ali 12161
all, 12158
फेसबुक 12156
vis@@ 12145
ship 12143
10,000 12142
soldiers 12139
टै@@ 12139
ure 12137
बुरा 12135
मालूम 12135
68 12133
सिर 12128
पहुंचा 12124
कोविड 12120
सुपर 12120
regular 12117
fell 12116
answer 12115
पेट्रोलियम 12115
particularly 12110
submitted 12102
के) 12098
बनर्जी 12097
आयुक्त 12095
ins 12089
Office 12085
served 12084
laid 12082
ियों, 12079
म) 12078
ass@@ 12077
RE@@ 12076
Sachin 12074
cre@@ 12068
dr@@ 12065
1st 12062
रत 12060
regional 12045
आलोचना 12042
Besides 12039
खाना 12024
नॉ@@ 12023
ढंग 12022
सुविधाओं 12022
rule 12019
कहती 12017
हॉ@@ 12015
Among 12013
y: 12013
all. 12009
tw@@ 12009
बह@@ 12008
सकता। 12002
62 12001
Paul 11995
hal@@ 11989
hear 11986
provision 11985
पी) 11985
keeping 11982
राजस्व 11980
ta 11974
Gu@@ 11968
rem@@ 11968
sing 11968
जताई 11965
um, 11963
निकाल 11961
spiritual 11959
ath 11957
र) 11957
hel@@ 11956
chaired 11955
इंच 11954
appeared 11950
environment 11950
सामान 11947
ती, 11943
600 11942
केंद्रित 11940
मर@@ 11940
W 11938
itself 11937
exchange 11936
army 11933
वचन 11933
दिल्ली, 11932
wish 11925
6. 11913
जिम्मेदार 11905
चोपड़ा 11900
काबू 11898
लें। 11897
सो 11896
res 11894
il 11889
नै@@ 11888
ide 11886
व, 11885
िया, 11885
गोयल 11884
टाइ@@ 11880
पुनर्@@ 11880
becomes 11875
सकारात्मक 11874
investigation. 11863
super@@ 11860
तकनीक 11858
वादा 11858
करेगी 11856
थे@@ 11855
आसानी 11853
रिजल्ट 11851
क्र@@ 11849
खड़ा 11849
ub@@ 11848
Control 11846
थाने 11845
ताकत 11842
ठाकुर 11834
पीड़ित 11833
protect 11828
rules 11828
shooting 11828
Budget 11827
ly. 11826
world, 11825
कक्षा 11820
सालों 11818
लेख 11815
सिफारिश 11815
थी@@ 11814
feature 11813
फ़िल्म 11811
ans, 11809
ses 11808
easy 11806
Tax 11804
Bachchan 11802
ारा 11793
accept 11787
trust 11787
जग@@ 11786
57 11784
ending 11784
प, 11781
भी, 11770
अंग्रेजी 11768
le. 11767
संचार 11767
ग्राहकों 11766
कठिन 11761
Family 11758
हिसाब 11751
Sub@@ 11747
oo@@ 11745
Lanka 11744
day@@ 11744
ड़ 11737
वार@@ 11728
developing 11726
कितना 11724
ज़ा@@ 11724
कपिल 11722
देगा 11722
राजमार्ग 11718
granted 11716
q@@ 11716
Instagram 11714
age. 11707
example, 11707
गए. 11706
रास्ते 11706
stage 11702
F) 11701
accident. 11701
स्थायी 11699
Prakash 11696
associated 11696
is. 11696
भारत-@@ 11691
returned 11680
app@@ 11678
बदले 11675
Conference 11674
बैटरी 11674
it's 11669
प्रदर्शित 11668
Kashmir. 11667
गई, 11666
ज़ 11666
ongoing 11661
70@@ 11659
essential 11659
worship 11659
(the 11658
चेक 11658
शुभकामनाएं 11656
US@@ 11655
गुप्ता 11655
मरने 11652
begin 11638
enough 11635
डोनाल्ड 11628
(आई@@ 11626
चुना 11620
नीतीश 11617
&@@ 11615
Punjab, 11615
dies 11615
inaugurated 11614
कमेटी 11611
ends 11610
Chopra 11608
IM@@ 11607
रणवीर 11606
ें, 11603
event. 11602
cover 11600
votes 11600
Kareena 11593
beat 11589
base 11586
आरंभ 11586
Arjun 11585
Authority 11582
Pranab 11582
Maharashtra, 11581
Nitish 11581
प्रोत्साहित 11579
Tr@@ 11578
sides 11575
ther@@ 11573
vision 11572
विचारों 11562
परेशान 11560
pass 11559
जिनका 11559
लेंगे। 11555
risk 11552
organized 11548
strike 11548
eng@@ 11546
”@@ 11546
plays 11545
calls 11543
rally 11543
सूचकांक 11543
ging 11542
उपाय 11542
पड़@@ 11542
बजाय 11541
गै@@ 11539
aircraft 11538
आपदा 11538
66 11537
property 11537
screen 11537
Google 11533
player 11528
Tuesday 11525
हद 11525
ंगा 11524
everything 11522
भीड़ 11518
fine 11516
800 11513
AN@@ 11509
लता 11508
Anushka 11505
uc@@ 11505
challenges 11500
ban 11499
programmes 11498
पर्@@ 11498
Go@@ 11497
girls 11496
मॉ@@ 11494
Si@@ 11492
bar@@ 11491
रनों 11491
विपक्षी 11491
न्यू 11489
addition 11487
बढ़ने 11486
Kapil 11485
Jharkhand 11480
Li@@ 11480
घटनाओं 11480
हवा 11479
then, 11476
Kapoor, 11474
ang 11472
कहा- 11471
European 11469
material 11469
directly 11468
physical 11467
चुनावी 11467
place. 11464
accepted 11463
शोक 11463
महानिदेशक 11459
(I@@ 11458
सर्वोच्च 11455
अन्‍य 11452
खा 11452
completely 11449
Mahatma 11448
बनाम 11447
suffered 11443
AM@@ 11437
आखिर 11435
proposal 11434
बढ़ोतरी 11434
एक-दूसरे 11433
justice 11429
जीता 11427
7,@@ 11426
India@@ 11426
able. 11425
प्‍@@ 11420
शन@@ 11419
College 11409
Last 11408
देखभाल 11408
74 11407
दुख 11405
basic 11401
सेक्टर 11399
culture 11393
Here 11392
exercise 11391
#@@ 11387
politics 11387
ही, 11386
shares 11383
71 11381
Ranveer 11373
users 11372
cast 11370
हथियार 11369
इनकी 11368
कार्यवाही 11368
ad, 11365
tal@@ 11364
ब्र@@ 11361
Gold 11360
दिल्‍ली 11358
Mah@@ 11357
stone 11357
Inter@@ 11354
00@@ 11353
1000 11352
् 11352
Israel 11351
Officer 11350
stands 11348
डिजाइन 11344
भेजे 11340
A. 11339
wh@@ 11337
पुत्र 11337
ओडिशा 11336
तर 11334
Bas@@ 11332
टू@@ 11328
ट्रक 11324
sw@@ 11320
अधिकारों 11319
वास्ते 11313
लगाई 11309
ज़रूरत 11305
coach 11304
attention 11302
ता। 11300
loan 11299
ॅ@@ 11299
ruling 11296
ised 11295
डाला 11288
मसीही 11286
मुद्रा 11286
करीना 11285
Wednesday 11283
पक्षों 11283
one, 11282
एशियाई 11277
Per@@ 11274
णी 11272
technical 11267
प्रदेशों 11266
round 11263
दिल्ली: 11263
(U@@ 11261
मालिक 11260
ber@@ 11259
2017-18 11257
P. 11247
industrial 11242
Class 11235
वेतन 11233
Global 11232
art 11232
इंसान 11231
challenge 11228
मिला। 11227
Reliance 11223
bail 11223
dedicated 11220
victim 11219
गाने 11218
यन 11218
अकाउंट 11214
agriculture 11209
ee 11209
et. 11209
मनोहर 11207
’@@ 11207
J 11199
अमरीकी 11199
produce 11195
पुस्तक 11194
प्रतिनिधि 11191
Actor 11190
आतंकवादियों 11190
awarded 11183
changed 11182
fled 11182
महिलाएं 11182
lies 11181
Gandhi, 11179
जोखिम 11179
Farmers 11174
मृत 11174
आत्मा 11172
तीसरा 11172
स्वर्ण 11171
अनुष्का 11170
villages 11165
हार्दिक 11165
discuss 11164
संहिता 11164
जवानों 11160
निरंतर 11160
सैनिक 11159
terrorism 11157
Goa 11152
wal 11152
goods 11146
throughout 11146
ho@@ 11143
Team 11138
teachers 11138
cant 11134
orders 11134
कर्ज 11132
दम 11129
मेहनत 11128
प्रणब 11126
डाउनलोड 11123
Kashmir, 11122
तमाम 11115
carrying 11114
जी, 11113
मेट्रो 11113
कार्यकर्ता 11111
Krishna 11107
accounts 11105
ently 11103
festival 11098
fied 11096
ality 11094
initiative 11094
re, 11094
hor@@ 11091
Social 11089
skipper 11089
cent. 11087
jail 11085
प्रशासनिक 11084
निम्नलिखित 11083
प्रतिनिधित्व 11080
any@@ 11078
int@@ 11076
Pal@@ 11075
appeal 11069
नू@@ 11066
confidence 11065
अधिकतर 11064
स्वच्छ 11064
ear@@ 11061
दर्शन 11060
वस्तुओं 11060
फू@@ 11059
डब्ल्यू@@ 11057
room 11054
generation 11048
Vi@@ 11047
News 11044
Sushant 11044
बता@@ 11043
arrived 11041
y? 11041
SE@@ 11038
go@@ 11037
approval 11036
finance 11036
निर्देशन 11036
instead 11035
राज्य@@ 11035
हरा 11033
दंड 11028
pan@@ 11026
immediate 11024
network 11020
आईसीसी 11015
हुक्म 11006
बढ़त 11004
जिंदगी 11003
समूहों 11003
sharing 11002
initiatives 11001
करियर 11000
2: 10999
type 10999
II@@ 10996
Thursday 10995
तभी 10990
ढांचे 10989
भु@@ 10989
down@@ 10986
सौ@@ 10986
आंतरिक 10985
सीजन 10985
net 10979
पवार 10977
विद्युत 10975
Mumbai. 10965
नहीं@@ 10965
लाई 10963
7. 10962
दशक 10962
y) 10960
trial 10957
77 10956
film, 10955
clean 10951
वैसे 10947
partnership 10946
seats. 10944
5,@@ 10943
पार्क 10943
ide@@ 10939
manufacturing 10934
ंक 10931
मण्डल 10929
batsman 10924
बदलने 10924
ेंगे। 10923
जानें 10920
equ@@ 10911
2020: 10910
र-@@ 10910
टी, 10908
त्रि@@ 10906
ain@@ 10905
Pakistan, 10903
Book 10902
रास्ता 10900
तीसरी 10899
head@@ 10897
थो@@ 10896
बढ़ा@@ 10893
श्रम 10892
Only 10889
et, 10881
ंब@@ 10879
ID@@ 10877
sign 10875
तुमको 10874
managed 10873
Also, 10871
कट@@ 10865
तेरे 10865
addressed 10864
संस्था 10864
Bo@@ 10860
Where 10854
Rao 10851
emb@@ 10851
यौन 10851
Kha@@ 10850
महात्मा 10849
इतने 10845
करें. 10845
Opposition 10842
साथी 10840
morning 10839
वस्तु 10838
City 10837
ok@@ 10832
tested 10832
मना 10832
भर@@ 10830
continues 10829
ten@@ 10828
der@@ 10827
स्था@@ 10825
AD@@ 10824
कितनी 10824
nations 10823
fil@@ 10820
ंत 10819
pat@@ 10817
हैं: 10817
Candidates 10816
ग्रे@@ 10812
proper 10811
Manohar 10802
2,000 10797
allegations 10797
जों 10797
पी. 10797
8,@@ 10793
Welfare 10792
firm 10792
Telangana 10790
refused 10790
ve, 10790
सब@@ 10788
safe 10783
उल्लेखनीय 10775
ale 10774
initiated 10773
कायम 10773
2) 10771
About 10770
सहमत 10770
avoid 10769
नज़र 10769
PM@@ 10762
appropriate 10758
Jaitley 10754
NEW 10753
197@@ 10750
तिथि 10749
निय@@ 10749
BSP 10746
Joint 10738
प्राथमिक 10737
सिन्हा 10734
3: 10731
commercial 10730
BS@@ 10728
attacks 10728
v 10728
her. 10727
चौहान 10727
ously 10723
budget 10722
Ag@@ 10718
जयंती 10718
निर्देशक 10716
Mat@@ 10714
एयर@@ 10712
%), 10711
त्‍@@ 10711
2007 10707
normal 10707
Court. 10704
ty@@ 10704
गौरतलब 10704
victims 10703
cap@@ 10698
बाइक 10697
supported 10691
कम@@ 10691
iPhone 10687
टक्कर 10687
चू@@ 10686
holds 10682
matches 10677
चै@@ 10677
fans 10676
पड़े 10674
बिग 10672
Pur@@ 10668
page 10668
49@@ 10667
राजपूत 10660
ely 10658
चलाने 10656
resources 10654
प्रसारण 10653
पूंजी 10644
hath 10642
परा@@ 10642
Android 10639
स्क्रीन 10639
लघु 10638
स्रोत 10635
someone 10633
घाटी 10633
छोटा 10633
तिमाही 10633
ris@@ 10631
(डी@@ 10628
Transport 10626
तोड़ 10622
हटाने 10621
do. 10618
आंकड़ों 10618
numbers 10616
जिनकी 10614
witness 10611
punishment 10609
ण्@@ 10607
ऑफिस 10606
ally. 10605
धु@@ 10602
आसमान 10596
प्रकृति 10596
ate, 10594
rel@@ 10594
लड़@@ 10594
सत्य 10593
9,@@ 10590
ick@@ 10590
ंक@@ 10590
Four 10589
't 10588
ND@@ 10586
देखकर 10584
नामक 10581
therefore 10579
platform 10578
Read 10577
शतक 10573
(पी@@ 10563
गये। 10563
संक्रमित 10563
गे 10562
Nar@@ 10558
फल 10558
61 10554
ics 10552
पौलुस 10552
stood 10545
शैतान 10545
Open 10543
चुनौतियों 10541
टैक्स 10541
डिस्प्ले 10539
पैसा 10539
सच्चाई 10539
sitting 10538
सर्वेक्षण 10538
Sunday 10536
69 10533
वेस्टइंडीज 10533
plant 10532
जानिए 10531
स्थिर 10528
science 10527
music 10524
Car@@ 10523
nuclear 10523
अभ्यास 10519
Later, 10518
78 10517
ser@@ 10513
कृत 10513
remaining 10509
ail@@ 10507
  10507
God@@ 10505
invited 10504
Mumbai, 10503
state, 10503
हटा 10501
bill 10496
संचालित 10496
चली 10494
crores 10491
RSS 10489
बैंक, 10483
of@@ 10480
प्रारंभ 10472
Nav@@ 10471
ए। 10471
Islamic 10453
ve. 10452
विषयों 10450
claims 10449
39@@ 10447
brothers 10442
him@@ 10442
मर्@@ 10442
ant. 10441
Russia 10440
प्रस्तावित 10439
nature 10435
remember 10435
ची 10435
entered 10432
enti@@ 10428
pres@@ 10427
Every 10425
ॉ@@ 10424
73 10423
uni@@ 10421
वाई 10419
कटौती 10418
ring 10417
y's 10414
man. 10413
Saturday 10410
testing 10409
w 10408
ब्रा@@ 10408
बार@@ 10405
धवन 10402
सौंप 10402
inv@@ 10401
shifted 10399
कैंसर 10399
खतरे 10398
corruption 10394
ited 10392
facility 10384
शुरुआती 10384
matters 10383
aware 10373
स्तरीय 10373
मेंट 10370
way, 10368
एकता 10365
Pan@@ 10363
rather 10363
प्रभु 10362
हिस्सेदारी 10356
prevent 10351
German 10350
एजेंसियों 10347
पल 10343
तरीका 10341
imposed 10340
Are 10338
प्लान 10337
kg 10335
)। 10334
बढ़@@ 10332
San@@ 10329
watch 10328
@@@ 10323
ग़@@ 10323
device 10321
stock 10321
statement. 10319
creating 10318
सुरेश 10318
mal@@ 10317
Gujarat, 10312
लौट 10312
अनुरूप 10311
Governments 10310
टेड 10308
cases, 10305
ens@@ 10305
ek@@ 10304
welfare 10304
कार्यकाल 10302
सर्व@@ 10301
मिश्रा 10300
foundation 10298
सर्वाधिक 10297
सिं@@ 10297
बचाने 10293
ly@@ 10290
संभावित 10288
बचा 10287
party. 10275
fighting 10274
religion 10274
गुरुवार 10271
pending 10267
together. 10267
क्रिकेटर 10266
ori@@ 10254
आपराधिक 10253
roads 10247
Ac@@ 10245
राष्‍ट्रपति 10240
1: 10238
multiple 10233
suspended 10232
toll 10232
आध्यात्मिक 10230
du@@ 10220
क्रि@@ 10220
भारतीयों 10220
म्‍@@ 10219
कितने 10216
नियों 10214
श्रद्धांजलि 10214
हुआ, 10214
assured 10213
Karan 10212
टॉ@@ 10212
idea 10210
धन्यवाद 10210
CB@@ 10209
at. 10208
sold 10208
none 10207
इंटरनेशनल 10206
लाखों 10206
faced 10204
एफआईआर 10204
ठाकरे 10203
दर्शकों 10203
appear 10201
सड़कों 10201
injuries 10200
किमी 10197
रेड्डी 10197
स्वा@@ 10195
ब्रे@@ 10193
बहुमत 10191
125 10185
गांवों 10185
ine. 10180
देखना 10180
गृहमंत्री 10179
score 10177
ures 10177
resolution 10172
Facebook 10171
ज्ञापन 10168
डॉक्टरों 10168
घा@@ 10166
निंदा 10162
speaking 10158
भो@@ 10157
Anand 10153
डु@@ 10152
11@@ 10151
val@@ 10151
दिवसीय 10148
addressing 10146
प्रमाण 10146
fund 10142
League 10141
३@@ 10140
76 10139
lockdown 10139
देशभर 10136
"" 10135
apex 10135
priced 10135
एं। 10134
del@@ 10125
becoming 10123
commitment 10123
ik@@ 10122
Im@@ 10118
अनुकूल 10116
Gur@@ 10115
समुद्री 10114
jit 10112
PS@@ 10109
box 10109
transport 10103
ancient 10102
son, 10101
mission 10100
संरचना 10099
फसल 10096
beyond 10095
gh@@ 10095
home. 10095
inquiry 10092
ine, 10091
5,000 10090
50,000 10090
ओं, 10090
मृतक 10089
constituency 10087
j 10086
संस्करण 10086
अर@@ 10085
ons, 10083
सूचित 10080
9. 10078
पुणे 10078
क्रेडिट 10076
Mohammad 10074
agencies 10071
कोविंद 10070
श्‍@@ 10070
Covid-19 10066
अज्ञात 10065
तें 10063
मानक 10063
बैठे 10062
reasons 10060
रेखा 10060
कैमरे 10059
चैनल 10059
looked 10058
पैमाने 10058
our@@ 10056
wide 10056
खान, 10056
here, 10054
बहस 10054
ages 10052
ches 10052
लिंक 10045
es? 10038
दीपक 10036
signs 10035
ल्ड 10033
ch. 10032
Industry 10031
Urban 10031
ceremony 10031
आदित्यनाथ 10031
n, 10029
इसने 10027
खाली 10024
reply 10021
इसको 10020
ular 10018
देंगे। 10018
आत्महत्या 10017
आयु 10016
discussion 10015
ति, 10010
मानसिक 10010
CEO 10008
raise 10008
श, 10005
T) 10003
पेंशन 10000
MS 9999
north 9998
वायुसेना 9998
ant, 9997
trading 9995
ष्@@ 9995
Limited 9994
ual 9994
ened 9993
marriage 9993
say: 9993
90@@ 9992
events 9989
भाग@@ 9989
उत्तराखंड 9987
रुख 9986
ama 9985
debut 9985
implemented 9985
जाएगा, 9985
relating 9984
टो 9984
एकमात्र 9978
Mohan 9977
खेले 9977
famous 9975
ising 9975
effort 9974
IA@@ 9972
Youth 9972
Samsung 9970
request 9968
आमंत्रित 9967
link 9965
Japan 9964
आलिया 9962
शिकार 9957
independent 9956
शराब 9954
sons 9952
Fin@@ 9951
ze 9949
poll 9948
नेवाला 9948
severe 9947
परेशानी 9947
noted 9941
ste@@ 9941
ं. 9941
Kingdom 9936
version 9936
bur@@ 9935
custody 9935
ham@@ 9934
ड्@@ 9934
Chand@@ 9933
Afghanistan 9932
form@@ 9926
(G@@ 9925
जगत 9925
forms 9922
forth 9922
um. 9922
चो@@ 9916
नितिन 9916
स्वच्छता 9913
सपोर्ट 9911
औ@@ 9908
8. 9904
Shi@@ 9903
sexual 9899
खुले 9899
सागर 9898
Mamata 9896
st 9896
ारी 9894
powered 9893
चौथे 9893
Ro@@ 9892
Nitin 9891
गयी। 9891
concern 9889
निधि 9887
बर 9887
साक्षी 9887
disease 9886
levels 9885
path 9885
anniversary 9881
बन@@ 9881
pol@@ 9880
spent 9877
des@@ 9875
anti@@ 9874
केन्‍द्रीय 9873
Wh@@ 9872
ric@@ 9867
सबूत 9867
गर्व 9866
Energy 9863
song 9863
traditional 9862
%@@ 9857
showed 9857
mean 9853
relevant 9842
लेखक 9841
stations 9840
माफी 9838
Fund 9837
Pradhan 9836
ash 9836
imp@@ 9832
रिलायंस 9830
markets 9828
किया@@ 9827
(अ@@ 9824
UK 9823
Odisha 9822
ंडा 9821
संकल्प 9821
सिद्धांत 9819
Suresh 9816
Pr@@ 9811
नेहरू 9811
double 9810
मनोज 9810
वर्मा 9810
mor@@ 9808
विभिन्‍न 9808
unique 9807
मात्र 9807
Eastern 9806
water. 9806
No@@ 9803
आह्वान 9802
Gr@@ 9799
पार@@ 9799
It's 9796
respective 9796
टर्स 9796
protection 9791
मित्र 9788
Commerce 9786
corresponding 9785
होटल 9783
marks 9782
Ser@@ 9780
न्याय@@ 9780
रेट 9780
वें@@ 9780
Alia 9779
ani, 9778
ching 9774
उनपर 9773
ute 9771
पत्रकार 9771
आदर्श 9769
acting 9767
un 9767
तियां 9766
ita 9765
करना, 9762
मसीह 9760
mer@@ 9759
se, 9757
speech 9756
areas. 9755
Make 9754
टी20 9753
क्यू@@ 9752
चीज 9751
accompanied 9750
Mohammed 9747
ch, 9747
प्रोफेसर 9743
सदी 9740
84 9739
information, 9737
ं) 9734
डेविड 9731
2nd 9730
ity@@ 9727
ke@@ 9726
चोरी 9726
यातायात 9726
ंग, 9723
उपभोक्ता 9723
जाहिर 9723
700 9720
शारीरिक 9720
शरीफ 9719
Haryana, 9717
Iran 9716
atic 9714
police, 9712
शन, 9712
respectively. 9711
चिदंबरम 9707
फ़ 9705
ढ़@@ 9697
direction 9695
col@@ 9694
अनुसूचित 9694
विभागों 9693
ters 9679
category 9675
एसोसिएशन 9674
Chandigarh 9673
गए, 9673
नतीजे 9672
Nagar 9669
killing 9669
स्टेडियम 9668
sense 9667
यर@@ 9667
friend 9665
आमिर 9663
प्रशंसा 9663
described 9660
weather 9659
मेल 9655
आकाश 9652
starting 9650
91 9649
rescue 9648
truck 9645
प्रभारी 9642
post@@ 9640
जोड़ी 9639
धि@@ 9634
ऐप 9633
Man 9632
जिक्र 9626
south 9625
Rural 9624
वाणिज्य 9624
ारों 9624
स्कोर 9623
गौ@@ 9622
alone 9621
booked 9621
requested 9621
नेवाले 9621
81 9613
sol@@ 9613
happen 9612
वाल 9610
massive 9605
Rajasthan, 9604
वल 9603
meetings 9602
दिग्गज 9594
ई) 9593
Jag@@ 9592
limited 9590
यूरोप 9589
आकर 9588
खाता 9585
0. 9583
land@@ 9578
चला@@ 9578
मना@@ 9577
कृष्ण 9576
छु@@ 9576
थि@@ 9571
लौ@@ 9571
self 9567
भाषाओं 9566
83 9562
overall 9554
ज़मीन 9552
char@@ 9551
Human 9549
गुना 9549
bu@@ 9539
manner 9539
स्मृति 9539
situation. 9537
परंतु 9537
Banerjee 9536
mi@@ 9534
+@@ 9533
posts 9532
प्रोत्साहन 9532
टी) 9531
तन 9531
cas@@ 9525
planning 9521
ठोस 9520
स्टर 9520
innings 9517
French 9515
umb@@ 9512
Reserve 9510
h. 9509
Have 9504
ency 9504
वाइ@@ 9504
ब, 9503
ably 9502
authority 9500
पंचायत 9496
_ 9495
ते, 9492
Australian 9491
Indies 9491
अमरीका 9491
छोड़@@ 9490
4: 9488
Congress, 9485
करें, 9483
self-@@ 9481
sister 9481
आईसी@@ 9481
हितों 9476
fore@@ 9474
Sinha 9469
-year-old 9467
\"" 9467
उड़ान 9466
चुने 9463
परामर्श 9462
आपस 9458
मिसाल 9458
साथ, 9458
रमेश 9450
परिचालन 9448
awareness 9445
थोड़ा 9444
star@@ 9442
Nepal 9441
bringing 9441
ओपन 9441
गडकरी 9437
संशोधित 9435
संसार 9435
add@@ 9434
तट 9434
host 9431
fixed 9429
बोल 9429
Ranbir 9427
Ganga 9420
भारती 9420
दूध 9416
ina 9415
ure@@ 9414
ched 9413
o-@@ 9411
wishes 9403
educational 9399
वर्षा 9399
6,@@ 9396
Award 9394
समझने 9394
grant 9393
Business 9391
केंद्रों 9390
2018-19 9389
iting 9387
अंकों 9387
रणबीर 9387
अयोध्या 9386
स-@@ 9386
actors 9385
as. 9381
systems 9380
talking 9375
agricultural 9370
observed 9362
पुरी 9361
hearts 9358
मुसलमानों 9357
participate 9353
Christians 9351
El@@ 9351
u. 9350
दोपहर 9348
एक्सप्रेस 9347
परिस्थितियों 9345
attempt 9344
अल@@ 9339
लिखे 9337
नाग@@ 9336
डाटा 9335
Po@@ 9330
green 9330
rainfall 9330
गन 9328
त-@@ 9327
पकड़ 9325
learning 9323
रणनीति 9323
Tal@@ 9321
फीचर्स 9320
wise 9319
कर्ता 9319
Russian 9318
original 9316
सौर 9315
वृ@@ 9312
सरदार 9308
degrees 9307
खिला@@ 9307
धा 9307
polling 9305
सीसीटीवी 9302
झूठ 9298
कुलदीप 9294
Yadav, 9288
red. 9287
Lo@@ 9286
निस्संदेह 9286
मत@@ 9286
participation 9285
रो 9284
add 9279
enable 9279
transfer 9279
प्रत्यक्ष 9275
life, 9270
सच्चे 9270
जॉन 9269
gra@@ 9265
टेक 9264
प्रत्याशी 9264
flight 9263
रवाना 9263
कारोबारी 9262
BJP, 9260
7-@@ 9256
Film 9255
them@@ 9252
books 9251
Bh@@ 9249
insurance 9249
uses 9249
India-@@ 9248
अस्पतालों 9246
ah, 9245
कलाकार 9243
नियंत्रित 9243
S) 9241
धमकी 9240
al-@@ 9235
82 9233
का) 9233
आएंगे। 9231
ड़ा 9230
Saudi 9228
ab 9228
camera. 9227
covered 9226
सका 9226
CCTV 9223
NS@@ 9223
ियन 9223
hear@@ 9221
करने, 9221
beginning 9220
वों 9220
speci@@ 9219
wa@@ 9218
treated 9217
रानी 9216
कोष 9215
Manoj 9214
उपायों 9212
स्टो@@ 9210
attacked 9207
Ak@@ 9203
countrys 9203
120 9201
Nor@@ 9201
tim@@ 9200
आस्ट्रेलिया 9199
Tourism 9198
मुख्यालय 9194
King 9192
comm@@ 9191
संसाधनों 9191
लन 9189
ंस@@ 9186
ong@@ 9181
on-@@ 9179
proud 9177
एयरपोर्ट 9177
सीईओ 9177
era 9176
यूजर्स 9176
हालाँकि 9174
गूगल 9173
0, 9169
ns 9168
ness, 9167
वीर 9165
entry 9163
चालू 9163
मांगी 9161
mod@@ 9157
reduced 9156
representatives 9155
हवाले 9154
अहमदाबाद 9151
Act. 9148
Qu@@ 9147
है! 9144
Adityanath 9143
hon@@ 9142
region. 9142
कों, 9142
म-@@ 9142
eyes 9141
ge 9141
पिछली 9136
Te@@ 9135
निंग 9135
समझते 9134
2022 9133
shi@@ 9133
बढ़ते 9132
Chhattisgarh 9127
वार्@@ 9126
Earlier 9124
Ge@@ 9123
त्री 9122
advised 9120
भट्ट 9119
विचार-विमर्श 9118
promoting 9116
बादल 9113
सार@@ 9111
"It 9108
ms 9107
s/@@ 9107
ice 9106
standing 9105
रकम 9105
बड़े 9104
बचा@@ 9103
city. 9102
चीजें 9102
play@@ 9098
हजारों 9097
मरीज 9095
पड़ा। 9094
helps 9090
photo 9088
can@@ 9084
voice 9083
m. 9082
tour 9082
beautiful 9081
design 9081
decisions 9078
documents 9077
eri@@ 9076
Shiv@@ 9072
again. 9069
Five 9067
cont@@ 9067
contact 9061
Now, 9060
ँ 9060
पुरानी 9060
doesnt 9056
लड़ने 9056
boost 9052
Aadhaar 9051
MP@@ 9051
SP@@ 9051
Principal 9050
Ramesh 9049
wicket 9049
बे 9046
house. 9043
connected 9041
पहले, 9038
पूछे 9038
86 9035
शै@@ 9032
एगा 9030
fire. 9029
law@@ 9025
s), 9025
I'm 9023
आयकर 9023
लखनऊ 9023
भरा 9022
congratulated 9020
mental 9019
लेकिन, 9019
बैठ@@ 9018
यान 9018
ats 9014
Rashtrapati 9013
ram 9013
Kings 9011
ness. 9011
Nirmala 9010
sec@@ 9010
टर, 9009
गं@@ 9008
89 8998
sectors 8998
registration 8997
11,@@ 8995
Mor@@ 8994
मद्देनजर 8993
knew 8992
निर्मला 8991
ना। 8990
serving 8987
सपा 8987
दक्षिणी 8986
cor@@ 8985
partner 8985
dispute 8984
दस्तावेज 8982
Project 8981
sea 8981
holy 8977
Price 8976
A, 8975
stra@@ 8972
देखी 8972
ships 8971
ार्@@ 8971
hy@@ 8967
विधान 8965
Br@@ 8964
ain 8964
ya, 8960
संग्रह 8957
उप-@@ 8955
strategic 8951
उपस्थिति 8951
climate 8947
system. 8947
कहा। 8946
सुन@@ 8946
cricketer 8944
suggested 8938
Allah. 8936
न। 8936
ding 8934
आं@@ 8930
नहीं. 8922
tonnes 8921
0-@@ 8920
जुड़ा 8920
शिक्षक 8920
कोयला 8919
ICICI 8918
mutual 8916
झु@@ 8916
कैसा 8915
कंपनियां 8914
195@@ 8911
mAh 8910
rains 8906
Air@@ 8904
जर्मन 8903
lack 8900
2016-17 8898
(2) 8893
ors, 8893
pp@@ 8893
पक@@ 8892
DELHI: 8891
क्षेत्र@@ 8889
गिर 8889
ha, 8887
fifth 8886
Dr.@@ 8885
Ri@@ 8885
pos@@ 8884
Indi@@ 8881
an's 8881
पुर@@ 8879
scale 8877
engaged 8876
जगहों 8876
बेटा 8875
Similarly, 8874
Yoga 8874
residents 8874
प्रदर्शनकारियों 8874
श्रीनगर 8874
सन्@@ 8874
(और 8873
दें। 8873
Gupta 8866
che@@ 8866
घटनास्थल 8866
धन@@ 8863
airport 8862
कपूर, 8862
कर्म 8859
Char@@ 8857
pre-@@ 8854
B) 8853
variant 8853
संदेह 8853
इंटर@@ 8851
प्रतिबद्धता 8850
(3@@ 8849
अल 8848
गैर 8848
दिखा 8847
II 8846
bul@@ 8846
ning 8846
Addressing 8843
ane 8843
पारंपरिक 8839
पार्@@ 8837
128GB 8836
साहित्य 8832
broke 8831
ट-@@ 8830
मुठभेड़ 8825
(in 8824
Maha@@ 8824
बम 8822
जाएंगे 8821
district, 8820
ena 8820
पोर्टल 8820
week. 8818
लोन 8817
माता-पिता 8815
acy 8814
medal 8814
powerful 8814
जीवित 8814
मुझसे 8812
underway 8808
मृतकों 8807
Rec@@ 8806
Kuldeep 8803
ile 8803
crime 8802
आईटी 8802
हरी 8801
bit 8798
रैंकिंग 8795
आजादी 8794
NDA 8793
प्रतिबद्ध 8793
ides 8791
करवाया 8791
दी. 8789
Mantri 8787
Bihar, 8785
AS@@ 8784
द्वीप 8784
लिए@@ 8784
mak@@ 8783
sub-@@ 8783
Thakur 8782
करने@@ 8782
aya 8781
ऑपरेशन 8779
स्मार्ट 8779
वक्‍त 8778
creation 8777
comprising 8776
लड़ 8776
ors. 8774
गाड़ी 8773
healthy 8772
Financial 8769
पुरुषों 8769
आपसी 8767
कच्चे 8765
पेशकश 8765
understanding 8764
एफ) 8764
88 8763
ing: 8760
Royal 8759
टीमें 8759
गौर 8758
कमाई 8755
नामांकन 8752
रॉ@@ 8750
होगी. 8749
लोक@@ 8748
विशेषज्ञ 8748
कार्यान्वयन 8746
quoted 8745
iz@@ 8743
इंजीनियरिंग 8743
kill 8742
structure 8739
संवाद 8739
practice 8738
worlds 8736
बसपा 8735
mit@@ 8734
Out 8733
सबको 8732
passing 8729
times. 8729
ज़िंदगी 8729
Bab@@ 8728
fact, 8727
ous. 8726
ary. 8725
अचानक 8724
युक्त 8723
मोटर 8721
ओ) 8720
historic 8718
ब्रि@@ 8714
शेयरों 8714
शरद 8710
,999 8709
break 8709
Today 8708
्या 8708
back. 8705
things. 8705
सकें। 8704
illegal 8702
समझा 8702
:- 8701
n. 8701
Jio 8700
behalf 8698
extend 8697
AL@@ 8696
om 8696
फॉर्म 8696
moving 8695
views 8694
निभा 8694
usually 8693
अटल 8692
option 8690
कौर 8690
priority 8686
def@@ 8684
ted, 8682
87 8679
बढ़ाकर 8677
ram@@ 8676
स्त 8675
पद@@ 8671
टिव 8669
जीतकर 8668
monitoring 8665
executive 8664
cases. 8663
women. 8663
Uttarakhand 8662
पल@@ 8662
सुविधाएं 8662
fuel 8661
प्राइवेट 8661
!" 8657
death. 8657
deputy 8657
लेट 8657
प्रतिनिधियों 8656
ip@@ 8655
को) 8654
sil@@ 8650
भले 8650
values 8649
Je@@ 8644
ing? 8637
दन 8635
ff@@ 8632
incidents 8632
ana, 8629
anj@@ 8625
gar@@ 8625
सल 8624
क़ 8623
2006 8617
days, 8617
बाहरी 8616
भूकंप 8615
सुषमा 8613
"This 8612
5: 8612
Therefore, 8612
1,0@@ 8611
runs. 8611
इंदिरा 8611
OF 8610
female 8609
आमतौर 8608
sustained 8607
dem@@ 8601
honour 8601
hum@@ 8601
ord@@ 8599
विरासत 8599
डाय@@ 8598
dead. 8597
म्ब@@ 8597
यूनि@@ 8597
अखिल 8594
बरकरार 8593
s," 8588
एसपी 8587
Maruti 8586
Pre@@ 8585
ले, 8585
Petroleum 8584
drive 8583
decide 8582
nearby 8582
touch 8582
ज़रूरी 8582
quarter 8581
आवाज 8579
ran 8576
जताया 8576
फीसद 8576
अधिसूचना 8575
जागरूकता 8575
falls 8573
पंजीकरण 8573
हरा@@ 8571
Temple 8568
ग, 8568
encounter 8562
Policy 8557
ology 8555
product 8552
Ajit 8551
communication 8551
ping 8550
pur. 8549
favour 8547
minor 8547
सीतारमण 8546
defeated 8545
फॉर 8545
इनका 8544
दीप 8543
article 8542
आशंका 8541
बैंकिंग 8541
resident 8537
enhance 8536
खरीदने 8536
2005 8533
leg@@ 8533
esh@@ 8532
ठा@@ 8529
Ltd 8527
charged 8526
हू@@ 8526
CP@@ 8524
image 8524
माने 8524
(L@@ 8523
amb@@ 8520
BJPs 8519
MC@@ 8519
Shahid 8519
spend 8517
promised 8514
एक्स 8514
कैप्टन 8513
तरीकों 8513
table 8510
team. 8506
सेल्फी 8505
han@@ 8504
show@@ 8504
centres 8499
प्रवासी 8498
I. 8497
धी@@ 8497
acc@@ 8496
ans@@ 8496
शाखा 8496
ement@@ 8495
Xiaomi 8494
गोल 8493
threat 8489
ेंद्र 8489
character 8488
धो@@ 8487
Indira 8486
ton 8486
Sitharaman 8485
notification 8483
वाई@@ 8482
fee 8481
जमा@@ 8481
Cor@@ 8476
ey@@ 8476
क़ौम 8473
मार्च, 8471
MPs 8470
thousands 8469
बैरल 8469
5% 8468
highly 8468
आना 8468
पायलट 8467
सिस 8466
(2@@ 8462
guidelines 8462
बॉक्स 8462
offering 8460
सिंग 8460
arrangements 8459
सॉ@@ 8459
खेती 8458
बनाते 8457
बलात्कार 8457
land, 8453
बाजारों 8452
ड़ा@@ 8451
शाहिद 8450
reli@@ 8447
196@@ 8446
achieved 8444
Yes, 8439
looks 8439
objective 8439
चंद 8439
त्र 8437
ay, 8433
अभिषेक 8432
enjoy 8430
\\xa0@@ 8429
development. 8429
कंप्यूटर 8428
मिली। 8428
मस्जिद 8421
s.@@ 8419
लेता 8418
body. 8417
Ravi 8415
98 8413
lines 8412
प्रारंभिक 8410
Mahindra 8409
solar 8408
अकेले 8407
फाइल 8406
मूल्यांकन 8406
ियो 8406
Besides, 8405
प्रतीक 8405
Ba@@ 8404
एनसीपी 8404
97 8403
coal 8402
electric 8402
revenue 8402
ine@@ 8400
die 8399
permission 8399
person@@ 8397
Because 8394
ure. 8394
battle 8393
seems 8391
एड@@ 8391
चांदी 8388
चीजों 8388
सऊदी 8387
गार 8386
मोह@@ 8385
रहेंगे 8383
जानने 8380
पोषण 8377
बीर 8377
पहुंचे। 8375
ush@@ 8374
निर्धारण 8374
Aamir 8372
बढ़ाया 8372
भेजने 8372
friendly 8371
earth, 8370
fic@@ 8369
लेंगे 8366
94 8365
far, 8364
डिंग 8363
पश्चात 8363
there@@ 8361
Cl@@ 8358
aim 8357
collection 8357
RS@@ 8354
ished 8353
Nehru 8352
wi@@ 8352
आए। 8352
फ़ाइल 8351
92 8350
CC@@ 8349
SBI 8347
ई। 8347
कला@@ 8347
size 8344
sales 8343
मार्गदर्शन 8343
Gre@@ 8341
तक, 8340
वायदा 8340
rose 8338
स्त@@ 8337
scientific 8336
तम 8335
track 8334
माँ 8333
constituted 8332
ving 8332
मशहूर 8332
स्थ@@ 8332
aid 8328
powers 8326
visiting 8326
ti 8325
रुप 8325
ज़ि@@ 8324
93 8323
He@@ 8323
hom@@ 8322
ven@@ 8321
courts 8320
journey 8320
वातावरण 8316
tors 8315
ईंधन 8314
स्‍वास्‍थ्‍य 8314
"""" 8313
re. 8312
79 8311
admit 8308
Kovind 8307
अम@@ 8305
शुद्ध 8303
सी. 8303
लिए। 8302
विस्फोट 8302
Be 8300
Germany 8295
आतंकियों 8295
inf@@ 8294
राइ@@ 8293
write 8291
Pawar 8290
बिन 8290
ore@@ 8289
शैक्षणिक 8287
Step 8286
protests 8286
ज़ा 8286
ged 8285
वैज्ञानिकों 8285
London 8282
आकलन 8281
vari@@ 8280
Karnataka, 8279
निवेशकों 8279
कवर 8278
युग 8278
उपयुक्त 8275
ग्र@@ 8275
धान 8275
delegation 8273
Code 8272
गर 8272
विश्‍व 8271
कहा@@ 8270
govt 8268
हो. 8268
society. 8267
dra@@ 8266
डॉ 8265
भय 8264
buy 8263
reportedly 8263
मध्यम 8263
acts 8262
पत्रकारों 8261
bat 8259
96 8256
उपकरणों 8255
चा 8255
account. 8254
कलर 8253
ade 8251
other. 8247
प्रोसेसर 8247
99@@ 8245
loans 8245
hurt 8243
नेट 8242
लं@@ 8242
wedding 8239
Around 8238
समग्र 8237
Sharad 8236
कानूनों 8236
महेंद्र 8236
contesting 8228
अदा 8228
ॆ@@ 8224
Kamal 8223
खिताब 8223
Express 8221
फु@@ 8221
शिक्षकों 8221
%) 8220
Congress. 8219
ities 8218
पे 8216
profit 8215
Snapdragon 8214
waste 8214
रूप@@ 8214
adding 8213
जरूर 8213
लिखी 8213
शिव 8212
facilitate 8210
करेंगे. 8208
पहुंचाने 8207
Trade 8206
कर) 8206
कॉल 8206
देंगे 8206
शिव@@ 8206
one-@@ 8205
दत्त 8205
पीड़िता 8205
Navy 8203
resolve 8201
it? 8199
पढ़ाई 8198
Indeed, 8196
conc@@ 8196
witnessed 8196
GS@@ 8193
future. 8193
eat 8189
एकल 8189
Games 8188
कोर 8187
बॉस 8186
शुरु 8184
colour 8182
wa 8182
आइए 8181
शैली 8178
therefore, 8177
खो 8177
sm@@ 8176
पैनल 8176
तथ्य 8174
संभा@@ 8174
negative 8170
zing 8170
कमान 8170
दर्द 8169
career 8168
Col@@ 8166
Western 8165
hi, 8165
suffering 8165
announcement 8162
goal 8158
don@@ 8156
thee 8156
प्राप्‍त 8156
अत्यधिक 8155
be, 8152
ement. 8151
der 8150
welcome 8150
नता 8149
title 8148
false 8147
hospitals 8146
जनसंख्या 8146
damage 8145
Ed@@ 8144
Kan@@ 8144
हिन्दी 8144
दौ@@ 8143
two-@@ 8142
operating 8141
वत 8140
soul 8139
जितना 8139
निर्देशित 8139
1.5 8137
drug 8137
rising 8129
इस्लाम 8129
दुर्@@ 8124
Chandra 8123
deb@@ 8121
राय@@ 8118
पीएम@@ 8113
hol@@ 8111
परमेश्वर 8111
cour@@ 8110
अना@@ 8107
constructed 8104
recovery 8104
सुना@@ 8104
listed 8102
standard 8101
रिसर्च 8101
ies, 8100
app 8097
hat@@ 8096
प्रेरणा 8095
रहेगी। 8094
उन्हीं 8093
महिंद्रा 8093
दौरान, 8092
पें@@ 8092
CRPF 8088
Mur@@ 8086
एच 8086
Jitendra 8084
not@@ 8084
टिक 8083
100@@ 8082
nam@@ 8082
आकर्षित 8082
दिख 8080
union 8079
ved 8078
panel 8077
ure, 8077
System 8076
Programme 8070
calling 8070
स्पेशल 8066
sion 8065
साउथ 8065
ences 8061
costs 8060
नरेन्‍द्र 8060
मै 8060
eli@@ 8056
खासकर 8056
सेवा@@ 8055
कृपया 8052
कनाडा 8051
ट) 8051
उपलब्‍ध 8049
बायो@@ 8049
मिट्टी 8047
सृजन 8046
prove 8045
बां@@ 8044
एनसी@@ 8041
US$ 8040
conf@@ 8040
फॉ@@ 8038
मजबूती 8038
recommended 8037
Before 8035
L) 8031
Or@@ 8031
ths 8031
उन्@@ 8031
त: 8030
सांसदों 8030
real@@ 8029
विनिर्माण 8028
वाणिज्यिक 8026
अत्यंत 8025
01 8024
राज्‍यों 8023
Son@@ 8022
office. 8022
तः 8022
ately 8019
produc@@ 8019
टर्@@ 8019
Ahmed 8016
णा 8016
ensuring 8015
गिर@@ 8015
ई. 8014
माल@@ 8013
Tri@@ 8012
waiting 8011
उन@@ 8011
गण@@ 8011
Sat@@ 8009
CS@@ 8006
asking 8006
je@@ 8006
tourism 8005
छानबीन 8003
st. 8001
छो@@ 8001
वानी 7998
ins@@ 7997
भारत, 7997
फीस 7996
रामनाथ 7996
forced 7995
ines 7994
बिजनेस 7992
होगी, 7992
bear 7991
station. 7991
students. 7991
Olympic 7990
situated 7990
किलोग्राम 7990
धर्म@@ 7990
उपा@@ 7988
right. 7987
Ver@@ 7986
ue 7986
sector. 7982
एम. 7982
उद्योगों 7981
.) 7977
21@@ 7977
defeat 7977
hundred 7977
आरएसएस 7976
arrested. 7971
earth. 7971
आरबीआई 7970
gen@@ 7968
USD 7967
er's 7967
सुना 7967
ious 7966
Bhavan 7965
उत्‍पादन 7965
2018: 7964
designed 7964
12th 7962
college 7962
submit 7961
ग़@@ 7961
e's 7959
Parliamentary 7957
delivered 7955
पटना 7955
customers 7954
सेल्सियस 7954
white 7953
battery 7952
दो, 7947
Is@@ 7946
HDFC 7945
K. 7944
डायरेक्टर 7943
opposed 7941
difference 7939
भाइयों 7933
organisation 7929
(कप्तान), 7928
tweeted 7928
discussions 7927
reward 7927
अप्रैल, 7925
क्टर 7924
distribution 7923
शुभारंभ 7922
गीत 7921
farmers. 7920
rap@@ 7920
दायरे 7920
longer 7918
नीतियों 7918
गहरा 7917
भरे 7917
Apple 7914
"मैं 7911
Mun@@ 7911
मिलेगा 7911
Do@@ 7909
स्टॉक 7909
demands 7907
विशेषज्ञों 7907
linked 7906
reporters 7904
Kaur 7903
removed 7903
el. 7900
red@@ 7900
CE@@ 7899
सामूहिक 7898
मुँह 7895
tur@@ 7894
लद्दाख 7893
Sol@@ 7889
टल 7889
क्स@@ 7887
तं@@ 7887
मनी 7887
didn't 7886
ill 7884
st, 7883
ंद@@ 7883
टॉप 7882
सेमीफाइनल 7881
लगाते 7880
3rd 7874
paper 7874
tests 7873
भेंट 7873
संग 7873
फर@@ 7871
हों, 7869
amongst 7868
स्वरूप 7868
स्वीकृति 7864
सफाई 7861
cent, 7860
ग्राहक 7858
शू@@ 7858
अवश्य 7856
distance 7855
planned 7855
पड़ोसी 7855
armed 7854
virus 7852
सदस्यीय 7852
balance 7851
गो 7851
movie. 7850
tor 7850
१ 7849
Children 7846
purchase 7845
prominent 7844
अंजाम 7844
अत्यन्त 7843
900 7841
Amarinder 7839
अपेक्षा 7836
सर्विस 7834
Reddy 7833
cal@@ 7833
promise 7832
seriously 7832
जन्मदिन 7832
fer@@ 7831
limit 7831
पत्थर 7829
संदिग्ध 7828
लड़कियों 7825
जज 7824
रं@@ 7823
8-@@ 7822
individuals 7822
meeting, 7821
छवि 7820
Witnesses 7819
parliamentary 7819
residence 7817
flow 7816
Jan@@ 7815
tics 7815
bal@@ 7814
loved 7814
गा, 7812
ब्‍@@ 7812
ini 7811
stopped 7811
पूर्वक 7810
Industries 7809
ra. 7809
एक्ट 7809
now. 7808
संग्रहण 7807
कॉन्@@ 7806
लालू 7806
सरल 7806
Op@@ 7803
(बी@@ 7802
Dhawan 7801
crisis 7801
id, 7800
performed 7800
अप 7800
शताब्दी 7799
ऑटो 7798
remove 7797
तर्क 7797
strengthening 7793
grow 7791
तिवारी 7789
Nifty 7787
ॉ 7784
संस्थाओं 7783
Affairs, 7782
alli@@ 7782
तेंदुलकर 7781
ड़, 7780
दिखाने 7780
Modi's 7775
Sensex 7775
clearly 7775
स्पीड 7774
महज 7769
जियो 7768
ments, 7765
Moses 7763
verdict 7763
Speaker 7762
assets 7759
ked 7758
missing 7758
टू 7757
JNU 7754
detained 7753
चल@@ 7751
desire 7748
अन्@@ 7748
gre@@ 7747
simple 7747
कहा: 7747
पादुकोण 7747
नवीन 7746
ex-@@ 7745
Modis 7739
उद्@@ 7736
गया@@ 7734
मां@@ 7734
CBSE 7732
पड़ी 7731
Gadkari 7728
ign@@ 7726
Saif 7725
birthday 7725
तक@@ 7725
ष 7725
Due 7724
establish 7724
gener@@ 7724
weight 7724
शाह@@ 7724
्या@@ 7723
Report 7722
ents, 7722
मनीष 7721
(एम@@ 7720
क्लब 7718
Industrial 7715
जाए, 7715
crore, 7714
-up 7713
fellow 7708
कामयाब 7707
जनों 7706
दिख@@ 7706
एस) 7705
साम@@ 7705
Heavy 7702
चार@@ 7701
न्या@@ 7701
विश्लेषण 7699
जोशी 7698
(यू@@ 7693
सीनियर 7693
fair 7692
करे। 7692
128 7691
Nag@@ 7691
कोड 7690
लाना 7690
(J@@ 7689
hur@@ 7688
detailed 7686
wrong@@ 7685
अगुवाई 7683
या. 7678
leaving 7675
एकीकृत 7673
HA@@ 7672
BJP's 7671
months. 7671
प्रसार 7671
लिन 7671
Padukone 7670
गोलीबारी 7669
Kam@@ 7668
10th 7666
cent@@ 7666
आप@@ 7665
खतरनाक 7664
समृद्ध 7664
command@@ 7662
लियों 7662
मिलाकर 7660
Rai 7658
sun@@ 7658
स्टाफ 7658
eve 7657
pi@@ 7656
जायेगा। 7656
ening 7653
पेट 7653
हस्तक्षेप 7653
solution 7651
गवाह 7651
Dha@@ 7649
cabinet 7648
आश्वासन 7648
follow@@ 7646
सिद्ध 7646
होम 7646
tional 7645
उद्यम 7644
now, 7643
Mumbai: 7642
बताई 7642
law. 7640
D, 7638
हरि@@ 7638
खूबसूरत 7636
भरी 7636
ी. 7634
encourage 7633
action. 7632
श्र@@ 7632
Shar@@ 7631
series. 7631
ci@@ 7628
ter, 7628
ार, 7628
sing@@ 7625
you@@ 7625
पाठ 7624
France 7623
मनो@@ 7622
प्रतिष्ठित 7621
Jam@@ 7619
Abhishek 7617
COVID 7616
ट्रा@@ 7614
NE@@ 7611
port@@ 7609
appointment 7608
एं, 7608
हृदय 7607
ruled 7604
बच्ची 7603
संस्थापक 7602
Pune 7600
confident 7597
फर्@@ 7597
aged 7593
व्यवसाय 7593
भूषण 7591
सुश्री 7588
Can 7583
ous@@ 7582
प्रतिदिन 7581
showing 7580
आंकड़ा 7579
सम्मिलित 7578
ments. 7576
successfully 7576
1) 7575
ada 7574
अग्रवाल 7574
चाहिए? 7573
दवा 7570
res, 7569
Post 7568
improving 7567
काम@@ 7567
applications 7566
यकीन 7565
identify 7564
OnePlus 7562
देगा। 7562
निकाय 7562
पोर्ट 7560
विश्व@@ 7558
Az@@ 7557
रंग@@ 7557
finally 7553
plan@@ 7551
spoken 7550
electricity 7549
har, 7549
नीय 7547
वन@@ 7547
wor@@ 7546
options 7544
user 7544
करीबी 7544
बाबा 7544
ian 7543
सैफ 7542
(4@@ 7541
मकसद 7539
good. 7538
Bhatt 7537
फैंस 7536
owned 7535
divided 7534
pm 7534
women, 7533
Though 7532
so, 7531
अड्डे 7531
प्रोजेक्ट 7531
तारीफ 7530
पुलवामा 7530
कामों 7528
writing 7527
hot@@ 7526
filing 7518
writ@@ 7517
मिला@@ 7517
T20 7516
batting 7516
ियो@@ 7513
ago 7512
rupees 7512
moment 7509
संयंत्र 7506
Although 7504
She@@ 7503
Maharashtra. 7502
proved 7502
विचार@@ 7502
पट@@ 7501
ad. 7500
ता. 7499
democracy 7497
thinking 7497
चर@@ 7497
month, 7489
Mahendra 7487
दार@@ 7487
Dal 7486
anda 7486
., 7485
ter. 7485
jobs 7484
संबोधन 7484
atory 7483
chi@@ 7483
troops 7482
ताजा 7482
RJD 7481
ined 7481
गर्@@ 7481
undergoing 7479
एक्सचेंज 7479
guidance 7477
प्रवाह 7477
Khan. 7475
western 7475
delivery 7473
Mishra 7471
Once 7471
index 7471
चित्र 7471
रहे@@ 7471
year-old 7469
वित्‍त 7467
reported. 7466
ईडी 7465
James 7462
Sara 7462
दृश्य 7461
स्वराज 7461
plus 7460
ड्राइवर 7460
ay. 7458
Municipal 7457
उपधारा 7457
Em@@ 7455
transferred 7455
रिय@@ 7455
गा। 7454
सीधा 7454
3,000 7453
Samajwadi 7453
fication 7453
हमलों 7452
supporting 7451
Nam@@ 7450
policies 7449
tournament 7448
टरों 7446
selection 7443
व्यय 7441
down. 7440
कन्@@ 7440
कुशल 7440
Sang@@ 7439
FI@@ 7435
Rajput 7435
professional 7434
करनेवाले 7433
R) 7432
aries 7432
स्त्री 7432
निका@@ 7431
S, 7430
सकते। 7430
states. 7429
कृ@@ 7428
12वीं 7427
caught 7426
collaboration 7426
ic, 7426
राष्ट्र@@ 7425
Tendulkar 7424
ents. 7423
जहाज 7423
एक-एक 7422
हुआ. 7422
लीड 7420
कैद 7418
राफेल 7418
crucial 7415
Roy 7414
जोड़ने 7414
pri@@ 7411
ER@@ 7408
passenger 7405
nation. 7403
underway. 7401
उक्त 7399
Action 7398
बंध@@ 7398
< 7397
comp@@ 7397
ong 7397
Plan 7394
Please 7394
आयतों 7394
लिख@@ 7393
Bombay 7392
बोझ 7392
Today, 7391
sion@@ 7391
multi-@@ 7390
निकाला 7390
spokesman 7389
घो@@ 7388
जब्त 7388
2020. 7387
कंट्रोल 7387
देरी 7387
ei@@ 7385
conducting 7384
war, 7383
गंभीरता 7382
activity 7380
ation) 7379
राजेश 7379
ऋ@@ 7378
कि) 7377
सिद्धार्थ 7376
सुंदर 7375
ज़मीन 7375
away. 7374
night. 7373
declined 7370
ष्‍@@ 7370
er) 7369
lakhs 7369
fol@@ 7368
नष्ट 7368
सिंगापुर 7367
समझ@@ 7366
Arunachal 7365
adopted 7364
ty. 7364
faces 7363
64GB 7362
के, 7362
Dal@@ 7361
Mand@@ 7361
nagar 7360
मुझ 7360
करो@@ 7359
Judge 7358
यत 7358
Lord. 7357
कन 7357
निलंबित 7356
Just 7355
bra@@ 7355
occurred 7355
sell 7355
Sushma 7354
2019-20 7352
demanding 7352
kar@@ 7351
clause 7350
4GB 7347
Ob@@ 7347
हक 7347
आरक्षण 7343
TE@@ 7342
pollution 7342
बोली 7342
Bad@@ 7340
Devendra 7340
प्रांत 7340
पुल 7339
दारों 7338
मलिक 7337
ements 7336
able, 7333
country's 7333
row 7332
प्ला@@ 7332
compensation 7331
लंबित 7331
Korea 7330
प्ले@@ 7325
Manish 7323
यद्यपि 7323
aspects 7322
Result 7321
कर्मी 7321
दूरसंचार 7319
भार@@ 7319
challenging 7315
प्रावधानों 7315
ब्यूरो 7315
घु@@ 7313
गहरी 7312
सफर 7312
ड़े 7312
PA@@ 7311
चूंकि 7311
Bangalore 7310
doubt 7310
ster 7310
ties. 7310
प्रशांत 7310
किन 7309
दोस्तों 7309
top@@ 7306
connectivity 7304
इलेक्ट्रिक 7303
टाइम 7302
लाइसेंस 7300
contribute 7298
दरों 7298
उन्‍हें 7297
Thackeray 7295
interests 7294
Mi 7293
proceedings 7293
Fire 7292
ters. 7292
णों 7292
दैनिक 7292
डर@@ 7290
सूत्र 7289
SM@@ 7288
समाजवादी 7288
Each 7287
Amazon 7286
competition 7286
रिंग 7283
por@@ 7282
ंड 7281
Bengal, 7278
lat@@ 7278
hours. 7276
Ir@@ 7275
ary, 7274
अधीक्षक 7274
Rajesh 7270
], 7269
ce 7269
रॉय 7269
Chidambaram 7268
sometimes 7268
weeks 7268
स्ता@@ 7268
पीने 7267
लू 7267
hab@@ 7266
fr@@ 7265
दर्जा 7265
गिरोह 7262
ender 7258
गलती 7258
दशा 7257
ेंस 7257
एल) 7255
हूँ। 7255
items 7254
happiness 7253
निकालने 7253
शं@@ 7253
सुन 7249
eligible 7248
जनवरी, 7248
militants 7246
नें 7246
Income 7245
Or 7245
पौ@@ 7244
busy 7239
जुर्माना 7238
धार@@ 7238
.. 7236
टॉस 7234
ब्रांड 7234
milk 7233
मांग@@ 7230
उपबंध 7228
too, 7225
आंकड़े 7225
cricket. 7224
Dont 7223
arg@@ 7222
यूनिट 7222
ams 7221
up, 7220
हुई. 7219
Deepak 7218
read@@ 7218
improved 7217
बेस्ट 7216
साइट 7216
mag@@ 7213
हाँ, 7213
res. 7211
‍ि@@ 7211
36@@ 7210
experts 7210
kar, 7210
an-@@ 7209
isation 7209
program 7209
Bengaluru 7208
भागों 7208
Varun 7207
ने) 7207
सवालों 7207
year@@ 7206
ओबामा 7206
व्यावसायिक 7206
गवर्नर 7205
च, 7204
विशेषकर 7203
?@@ 7202
.' 7200
concerning 7200
Goyal 7199
नारायण 7197
64@@ 7196
But, 7195
अतिथि 7195
welcomed 7194
निभा@@ 7194
MoU 7193
dig@@ 7193
mercy 7193
decision. 7192
ME@@ 7191
बन्@@ 7191
रहेगा 7191
export 7190
अभिनय 7190
Member 7188
availability 7186
va 7185
Ayodhya 7184
Pra@@ 7184
डन 7184
प्लस 7183
आजाद 7182
इकाइयों 7179
तूफान 7178
मुफ्त 7178
concerns 7177
expect 7175
खोलने 7174
White 7173
लय 7173
लने 7171
हों। 7169
ों@@ 7168
घोटाले 7167
ल्ला 7164
chance 7163
land. 7163
PTI 7162
comment 7162
comments 7162
ful. 7160
गुण 7154
rest@@ 7153
धर 7152
प्रतिनिधिमंडल 7151
सुभाष 7151
work, 7149
खबरों 7148
130 7147
Digital 7146
जुटी 7146
पीढ़ी 7146
Premier 7145
m, 7145
तरा@@ 7144
2020, 7143
had@@ 7143
uddin 7143
मूल्यों 7142
Theres 7141
DA@@ 7139
बिलकुल 7137
संवैधानिक 7137
बनाये 7135
pandemic 7134
Katrina 7133
wins 7133
farm 7132
Ap@@ 7130
actions 7130
मशीन 7130
मारुति 7130
wat@@ 7128
(1@@ 7127
flights 7127
किंग्स 7127
Swaraj 7125
Actress 7124
all-@@ 7124
औपचारिक 7124
पदार्थ 7124
bre@@ 7122
wal@@ 7120
बाद@@ 7120
४@@ 7120
Sad@@ 7119
affairs 7117
नल 7117
bed 7116
remarks 7116
लोकतांत्रिक 7116
लैस 7115
sustainable 7113
गौतम 7113
crude 7112
आये 7112
eastern 7111
ward 7111
continu@@ 7110
ंडी 7109
मध्यप्रदेश 7109
रिश्ते 7109
Everyone 7108
350 7106
Thus 7106
नवाज 7105
ons. 7102
साधारण 7102
कठोर 7100
सीन 7100
अग@@ 7099
आज्ञा 7099
Peter 7098
चे 7097
गों 7096
Coronavirus 7095
exams 7095
क्रो@@ 7095
05 7094
strongly 7094
university 7094
उतर@@ 7094
Nations 7093
वरुण 7093
formation 7092
ज़िले 7092
core 7090
larger 7090
किनारे 7090
सिख 7090
दारी 7088
म्स 7088
विद्यालय 7088
Jagran 7087
ati 7087
abad 7086
तहसील 7086
pal 7085
पहुंचा@@ 7085
फोटो@@ 7084
स्‍तर 7084
Bhag@@ 7083
HD 7080
changing 7080
colleges 7078
banking 7077
ically 7076
चं@@ 7076
जोड़ा 7076
होंगी। 7076
bound 7074
god@@ 7072
वीजा 7071
Sec@@ 7069
देवेंद्र 7069
योग@@ 7069
सशस्त्र 7069
guilty 7067
प्रवर्तन 7067
guide 7066
सीसी 7065
Ahmedabad 7062
water@@ 7062
पाठ्यक्रम 7062
Company 7060
पवन 7055
सालाना 7055
10. 7050
2019. 7050
perform 7050
अवगत 7050
Bureau 7049
चरणों 7048
तटीय 7048
सह-@@ 7046
La@@ 7045
पाल@@ 7044
Shankar 7043
figure 7043
influence 7043
10, 7042
forest 7042
आर) 7042
Mi@@ 7039
amm@@ 7039
aver@@ 7038
pit@@ 7038
बचत 7037
China, 7036
सिनेमा 7036
Vis@@ 7034
सेंसेक्स 7034
Child 7033
countries, 7033
thi@@ 7033
मो 7033
रंजन 7033
Investigation 7032
जयपुर 7032
i-@@ 7031
फा 7030
medi@@ 7029
survey 7028
ठहराया 7028
apart 7025
चेहरे 7025
रोज 7025
Minister. 7024
development, 7020
रू 7020
जाओ 7019
belongs 7017
‘‘ 7017
बीच, 7016
मिसाइल 7011
aims 7010
Media 7009
adi@@ 7009
लें@@ 7008
patient 7005
,"" 7004
trac@@ 7004
Say: 7002
Life 7001
care@@ 7001
करों 6999
Shah, 6997
arms 6997
जून, 6996
वारदात 6995
content 6994
ट्यू@@ 6994
सन, 6992
pointed 6990
रहें 6989
oath 6986
AC@@ 6985
यूनियन 6985
command 6984
इमारत 6984
संख्‍या 6982
ty, 6981
पात्र 6981
emergency 6977
Oil 6975
ner 6975
middle 6973
हिन्दू 6973
कल्पना 6972
तार 6969
मिलेगी 6969
संवाददाताओं 6969
ेंट 6968
स्मिथ 6964
Name 6963
ax@@ 6963
ंट@@ 6963
D. 6962
by@@ 6962
दाऊद 6962
पाते 6962
मा, 6962
returns 6961
videos 6961
pa@@ 6959
इजाजत 6958
बेन 6958
skill 6956
बोलते 6956
State. 6955
Bur@@ 6954
standards 6954
शाही 6954
draw 6953
इंस्टीट्यूट 6952
डै@@ 6952
P, 6951
dic@@ 6951
ond@@ 6951
tak@@ 6951
ईश्वर 6950
T20I 6949
reaching 6949
drinking 6946
wait 6946
secure 6944
sit@@ 6943
steel 6942
चंद्र 6941
Bri@@ 6940
cul@@ 6940
hard@@ 6940
रेड 6940
बी) 6939
कार, 6937
out, 6936
pped 6936
Sharif 6935
अति@@ 6935
Sardar 6934
Yojana 6934
ids 6934
O) 6933
लिय@@ 6933
व्यस्त 6932
वर्गों 6931
reforms 6930
Sp@@ 6928
ared 6928
break@@ 6928
Awards 6927
Government. 6927
मौजूदगी 6927
(K@@ 6926
destroyed 6926
अवसरों 6926
ants. 6925
्यु@@ 6925
2018, 6923
उपलब्धि 6923
भिन्न 6923
so. 6920
three-@@ 6919
(W@@ 6918
रहो 6917
Nm 6914
अखिलेश 6914
men@@ 6913
रजत 6913
television 6912
HC 6910
में। 6910
आफ 6909
लुक 6908
Jan 6907
Sw@@ 6907
दावे 6907
ia, 6906
निफ्टी 6906
2002 6900
ta@@ 6900
task 6900
ब्लैक 6900
सबके 6898
ast 6895
रियल 6895
War 6894
dismissed 6894
s." 6894
भरने 6894
होंगे, 6894
opinion 6893
उल्@@ 6889
hal 6888
कौ@@ 6888
20, 6887
तत्कालीन 6886
2004 6884
hat 6884
ni 6884
not. 6884
prof@@ 6881
स्थगित 6881
association 6880
dated 6880
रा, 6880
bhp 6877
जाम 6877
पर्यटकों 6877
recommendations 6875
तमिल 6874
6: 6873
constitutional 6873
tical 6873
थीं. 6873
(of 6869
इकट्ठा 6867
गरीबी 6867
act@@ 6866
brings 6866
express 6865
health. 6865
ड़ों 6865
Pakistans 6864
संवेदनशील 6864
तार@@ 6863
रोगियों 6862
picked 6861
cro@@ 6860
क्रिस 6859
custody. 6857
Rem@@ 6856
text 6854
DE@@ 6849
ते। 6849
alongside 6848
हराया 6848
भार 6847
छुट्टी 6844
मध्य@@ 6844
R. 6842
non 6842
संदीप 6842
ऑफर 6841
चंद्र@@ 6841
cle@@ 6840
संतोष 6840
क्रा@@ 6839
बतौर 6839
hun@@ 6838
विपरीत 6838
क्षमा 6837
ज्ञा@@ 6833
ठ 6833
pot@@ 6832
ate@@ 6830
whereas 6830
अग्रिम 6829
one@@ 6828
उल@@ 6828
elections, 6827
कामना 6825
unless 6823
toward 6822
selling 6821
ement, 6820
ped 6820
dom@@ 6819
investors 6819
led. 6818
D) 6816
ढा@@ 6816
फार्@@ 6815
WhatsApp 6813
आईपी@@ 6813
door 6810
Gandhi. 6808
ated, 6808
आर. 6807
भलाई 6807
रेप 6807
children, 6805
members. 6805
p. 6804
starts 6803
दोषियों 6803
ंद 6802
13.@@ 6799
Chris 6797
शिविर 6796
तुझे 6794
सोचा 6794
samples 6792
मूर्ति 6792
201@@ 6791
River 6791
पत्@@ 6791
mainly 6790
computer 6788
फिल्में 6788
बचने 6788
राकेश 6788
बद्ध 6787
रॉयल 6787
लकर 6787
बेंगलुरु 6786
माननीय 6785
EC@@ 6782
files 6781
lived 6780
Sikh 6779
pleas@@ 6777
popul@@ 6777
क्रे@@ 6777
advanced 6775
ned 6774
Citizenship 6772
tribal 6771
सेहत 6771
10,@@ 6770
emp@@ 6769
फ़ि@@ 6769
आईटी@@ 6768
Pakistan's 6766
Take 6766
हड़ताल 6766
boy 6765
गुरु 6765
पार्टियों 6765
Total 6764
lay 6763
reality 6762
छोड़ने 6762
20,000 6760
भाव@@ 6760
my@@ 6759
ट्रेनों 6756
नीलामी 6755
सत्य@@ 6754
strategy 6752
specified 6750
believes 6749
सुनने 6748
questioned 6747
वर्णन 6747
taught 6746
णा@@ 6743
यह@@ 6742
judg@@ 6741
{@@ 6739
Nawaz 6738
adequate 6738
feels 6738
होगा@@ 6738
ft 6735
SS@@ 6734
गणना 6734
जुलाई, 6734
log@@ 6733
lose 6733
Rashtriya 6731
hour 6731
ult@@ 6730
स्प@@ 6729
मारने 6727
initial 6726
new@@ 6726
अंबानी 6726
expenditure 6724
रावत 6724
गुरु@@ 6723
वजन 6723
Shivraj 6722
गेंदों 6722
निक@@ 6722
DM@@ 6721
amid 6721
अज़ाब 6720
धी 6720
डालने 6719
क्रमश: 6717
लती 6717
nation@@ 6716
बुलाया 6713
period. 6712
phones 6712
था? 6712
gun@@ 6705
undertaken 6705
जय 6705
4,000 6703
मिक 6703
Red 6702
academic 6701
scientists 6701
अज़ाब 6701
foot@@ 6700
strict 6700
बाइ@@ 6700
War@@ 6698
pon@@ 6698
Jay@@ 6694
M) 6694
Suzuki 6694
हैं) 6694
Gas 6693
संयुक्‍त 6691
s). 6690
New@@ 6689
run@@ 6688
मारा 6688
वेब 6688
पड़@@ 6687
राजकुमार 6687
आराम 6686
ंगी 6685
गी, 6685
Amendment 6683
न्यायालयों 6683
हक़ 6683
Pres@@ 6682
ils 6682
thr@@ 6682
न’ 6680
पहलू 6680
Executive 6679
plants 6679
बढ@@ 6679
identity 6678
लक्षण 6677
although 6676
संग@@ 6676
अंग 6674
बुद्धि 6674
AB@@ 6673
Watch 6673
Khan's 6672
शों 6672
सम्बन्ध 6669
ess, 6667
gain 6666
truly 6665
खंड@@ 6665
न्त 6664
ingly 6663
inspired 6663
wealth 6663
दिए। 6663
Pulwama 6662
Despite 6660
meaning 6660
प्राप्ति 6659
मय 6659
problem. 6658
deliver 6657
।@@ 6657
awards 6655
course, 6655
notes 6654
ous, 6653
बहनों 6653
लगाकर 6653
ry, 6652
मणिपुर 6652
Currently, 6651
Metro 6651
mas@@ 6651
other@@ 6651
करनेवालों 6650
2019, 6649
appreciated 6649
e! 6649
महत्‍वपूर्ण 6649
pen@@ 6648
6GB 6644
equipment 6644
celebrate 6638
नवा@@ 6638
Rafale 6634
AA@@ 6633
Guru 6631
every@@ 6631
seeing 6628
Muhammad 6626
करे@@ 6625
आवंटन 6624
अपना@@ 6623
संपूर्ण 6623
ties, 6622
उत्तम 6622
किलो 6622
Training 6621
"ऐ 6620
ारा@@ 6619
id. 6618
wont 6618
राष्ट्रपति, 6618
"यह 6617
Further, 6617
games 6617
पहुंच@@ 6615
मुकेश 6615
करना। 6612
विक 6612
process. 6611
ऊंचाई 6611
Members 6607
Thus, 6607
ata 6607
greetings 6607
डा. 6607
हर्षवर्धन 6606
p, 6605
पब्लिक 6605
Srinagar 6604
जा, 6603
s-@@ 6601
York 6599
az 6599
तल 6599
रणनीतिक 6599
खुफिया 6598
कीजिए 6597
पहलुओं 6597
fought 6596
lic@@ 6595
महत्त्वपूर्ण 6595
ji@@ 6594
रफ्तार 6594
जिसको 6592
मई, 6591
000 6590
OR@@ 6590
wing 6588
_@@ 6586
कर्ताओं 6586
मुख@@ 6586
यल 6586
योग्यता 6585
स्त्र@@ 6581
बुक 6580
s" 6579
मजबूर 6579
also. 6577
languages 6577
ing) 6576
men, 6576
ore, 6576
फीचर 6575
short@@ 6574
भूल 6574
तुर्की 6573
family, 6572
complex 6571
LED 6570
Fadnavis 6569
गांगुली 6569
THE 6567
निर्दिष्ट 6567
मकान 6566
गरीबों 6565
सिंचाई 6565
aj 6561
Des@@ 6560
करेंगे, 6560
squad 6559
low@@ 6558
लिया. 6558
14.@@ 6557
इस्पात 6557
इलाहाबाद 6556
helping 6553
Ju@@ 6552
पूर्व@@ 6552
बाजी 6552
appealed 6550
dream 6550
टेली@@ 6548
स्टि@@ 6548
generally 6547
घटकर 6547
शमी 6547
होंगे. 6547
Lalu 6545
know@@ 6545
%. 6544
Jo@@ 6542
गवाही 6542
थोड़ी 6542
निशान 6542
फी 6542
5th 6541
saying, 6540
ज्‍यादा 6539
पीयूष 6538
Atal 6537
es' 6537
द्वितीय 6537
नाइ@@ 6537
Sou@@ 6536
affect 6535
खनन 6535
जर्@@ 6535
administrative 6533
सिद्धू 6533
match. 6532
rivers 6530
Ph@@ 6529
असली 6528
sufficient 6527
पांडे 6527
IO@@ 6526
inch 6525
simply 6525
collected 6523
तृणमूल 6523
organisations 6522
Sabha. 6519
present, 6518
rail 6517
रुप@@ 6517
ancy 6516
बनना 6516
Legislative 6515
फ्री 6515
Devi 6514
week, 6513
माइ@@ 6513
dev@@ 6512
So@@ 6506
Ti@@ 6506
इंटरव्यू 6506
नवाचार 6506
बताया। 6506
squ@@ 6505
देखिए 6504
chosen 6501
greatest 6499
high-@@ 6499
सुनाई 6497
हो? 6496
डू@@ 6495
शांत 6493
causes 6492
पंजाब, 6492
issues. 6491
ters, 6489
खोल 6489
खून 6488
ow 6486
Chouhan 6485
others, 6485
कॉन्फ्रेंस 6485
block 6484
ton@@ 6483
download 6482
भला 6482
lie 6480
हार@@ 6480
Trans@@ 6479
कीमतें 6478
रोका 6478
विफल 6477
warm 6475
सुपर@@ 6475
194@@ 6474
अग्रणी 6474
करू@@ 6473
े. 6473
lawyer 6472
15, 6470
Natural 6470
GDP 6467
रल 6467
करण@@ 6466
बच 6466
ग्लोबल 6465
med@@ 6463
photos 6463
शुभ 6463
Major 6462
sensor 6462
times, 6462
संपन्न 6462
At@@ 6460
समृद्धि 6460
गर्म 6459
ism. 6458
फांसी 6457
Time 6456
route 6456
शिक्षण 6454
संबद्ध 6454
फ, 6453
व्हाइट 6453
fa@@ 6452
पैकेज 6452
आईएस@@ 6451
फिल्@@ 6451
else 6450
Mis@@ 6449
अट@@ 6449
practices 6448
ki 6447
(ई@@ 6446
Dh@@ 6446
\\u200d@@ 6446
begins 6446
tax@@ 6445
इस्राएल 6445
मोदी, 6445
ass 6444
व्यक्‍ति 6444
debate 6443
रखें 6442
are, 6441
ं/@@ 6441
मंजूर 6440
sha 6439
Telugu 6437
Courts 6436
Pol@@ 6436
power. 6435
ेंगे, 6435
Pun@@ 6434
emerged 6433
stake 6433
sets 6432
डाक 6432
दिलों 6432
M. 6431
Year 6430
गुर@@ 6430
जोड़@@ 6429
You@@ 6426
Islam@@ 6425
कंगना 6424
लाइट 6424
Mag@@ 6423
ind 6422
ago, 6421
records 6421
हमसे 6420
वाह@@ 6417
हॉकी 6417
144 6416
हुई, 6416
principal 6414
शर्त 6414
constituencies 6412
एप 6411
पढ़ने 6411
2017, 6410
assessment 6410
e," 6409
gathered 6408
ust@@ 6408
evening 6407
films. 6407
अधिग्रहण 6407
sor@@ 6404
tro@@ 6403
rupee 6402
उमर 6402
नेवालों 6402
रक्त 6401
गोल्ड 6400
गा. 6399
problems. 6397
वाजपेयी 6397
garh 6396
partners 6396
contract 6395
fake 6395
ं-@@ 6395
ऑल 6394
fields 6391
राजदूत 6389
सकें 6389
done. 6388
types 6388
लिया, 6388
एनएस@@ 6387
लेखा 6387
lif@@ 6385
आदित्य 6385
AI@@ 6384
call@@ 6384
internet 6383
किशोर 6383
व्@@ 6383
heads 6381
लैंड, 6380
CAA 6379
आया। 6379
कमरे 6379
Hindus 6378
उतारा 6378
de, 6376
ै 6376
हिदायत 6375
ot 6373
महेश 6373
ed) 6372
Him@@ 6370
perfect 6370
tra 6369
Govt 6366
resignation 6366
feet 6365
permanent 6365
ple 6365
perhaps 6364
this? 6364
Cr@@ 6362
इसलिये 6362
स्टै@@ 6362
(BJP) 6361
died. 6361
seats, 6360
बताने 6360
समापन 6358
ीकरण 6356
Steel 6355
ship@@ 6355
thank 6354
सकेगा। 6354
सतत 6354
way@@ 6353
द्र 6352
maintained 6351
बढ़ी 6351
Akhilesh 6350
न' 6350
Bill, 6349
banned 6349
rat@@ 6348
overs 6345
हराकर 6345
NRC 6344
counsel 6344
med 6344
टु@@ 6344
require 6342
सिलसिले 6341
brand 6340
installed 6340
Sandeep 6338
stakeholders 6338
स्वी@@ 6338
See 6336
हुसैन 6334
Abdul 6333
she@@ 6331
एंड@@ 6331
Pand@@ 6329
विमानों 6328
Rakesh 6327
तत्व 6327
Click 6326
ains 6326
बाप 6325
मुर्@@ 6325
पत्रिका 6323
Mu@@ 6322
cold 6322
चलाया 6322
हाइ@@ 6322
र्ट 6321
है| 6320
Internet 6318
बच@@ 6318
CR@@ 6317
ढेर 6316
प्राइमरी 6316
शेख 6316
pay@@ 6314
अब्दुल 6314
मुंह 6314
सेंट्रल 6314
Nadu, 6313
multi@@ 6313
उपचुनाव 6312
पों 6312
dri@@ 6311
Vardhan 6309
Good 6308
oy@@ 6307
कान 6307
खे 6307
गईं। 6307
inn@@ 6306
जेएनयू 6305
े) 6305
Patna 6304
परंपरा 6304
www.@@ 6303
फंसे 6303
2.5 6302
male 6301
answ@@ 6300
जीव 6300
सेंट 6299
दिनेश 6298
belonging 6296
न्यूज 6296
हार्@@ 6296
अंतर@@ 6295
millions 6294
बुराई 6291
शून्य 6289
econom@@ 6287
जाएँगे 6287
पुनः 6287
DR@@ 6286
निवास 6286
interview 6285
असल 6284
sub-section 6283
Summit 6282
procurement 6282
ves, 6282
बल्@@ 6282
पॉजिटिव 6280
हुये 6280
judges 6279
servants 6279
ट्रेलर 6279
Director, 6278
ism@@ 6278
उद्धव 6278
शंकर 6278
परस्पर 6275
test@@ 6274
चर्च 6274
मान, 6274
नबी 6273
technologies 6272
addition, 6271
ion 6271
Desk: 6270
outstanding 6269
मार्क 6268
reference 6266
Forest 6265
Ste@@ 6263
gam@@ 6263
Ran@@ 6260
electronic 6260
Staff 6257
with@@ 6257
वर्ष@@ 6257
Gujarat. 6256
Ranjan 6256
operational 6254
truth. 6254
काउंसिल 6253
फिट 6253
फिल्‍म 6252
external 6250
पहुँच 6250
‌@@ 6249
Bharti 6248
नाम@@ 6248
each. 6247
ठी 6244
injury 6243
पर्यटक 6243
NO@@ 6242
thats 6242
निर्माताओं 6241
गई@@ 6240
खड़ी 6239
Japanese 6238
इंकार 6238
stor@@ 6237
प्रतिभा 6236
ईरानी 6234
एडमिट 6234
चित्र@@ 6233
यादव, 6233
bridge 6232
voters 6232
anta 6231
पृष्ठ 6230
है- 6229
Meh@@ 6227
ush 6227
ट्री 6227
कामकाज 6224
परिणामस्वरूप 6222
voting 6221
तौ@@ 6221
first. 6220
डों 6220
Show 6219
खुला 6217
youths 6214
पोर्@@ 6214
vital 6212
जाँच 6212
सलामी 6212
appears 6211
division 6209
Dar@@ 6208
Dec@@ 6208
medium 6208
वाय@@ 6208
Piyush 6207
त्रिपुरा 6207
भोपाल 6207
बोलने 6206
रस 6206
भरपूर 6204
over. 6201
stressed 6201
activ@@ 6200
easily 6200
रेडियो 6200
ideas 6199
righteous 6199
(के 6198
endra 6198
happening 6198
लेन 6198
(5@@ 6197
Did 6197
feeling 6197
crop 6196
श्रद्धा 6196
Organisation 6195
Vivo 6195
east 6195
अर्थात् 6194
वाराणसी 6193
अर्थ@@ 6192
corporate 6190
cards 6189
क्रिया 6189
विपणन 6189
an) 6188
water, 6188
बीमार 6188
beg@@ 6187
equity 6185
फरवरी, 6185
म्प@@ 6184
अम्@@ 6182
लिया@@ 6181
t) 6180
अध्याय 6179
Na@@ 6178
iv@@ 6178
फायर 6177
बच्चा 6176
IG@@ 6170
कहा,@@ 6170
tree 6169
probably 6166
विविधता 6165
mm 6164
van 6164
इ 6164
level. 6163
On@@ 6162
ture 6162
leads 6161
लेख@@ 6160
al) 6156
ust 6156
डी) 6155
विश्वविद्यालयों 6155
सीआरपीएफ 6155
क्शन 6154
हीन 6154
ट्रो@@ 6153
रिकार्ड 6152
Harsh 6149
अस्तित्व 6149
implement 6146
माम@@ 6145
ire 6143
Space 6142
Sud@@ 6142
अर्पित 6142
(निस) 6141
Gautam 6141
देशवासियों 6141
atmosphere 6140
कुल@@ 6139
वेंकैया 6139
काट 6137
जें@@ 6137
सा, 6137
prepare 6135
money. 6134
,7@@ 6132
Captain 6127
है।@@ 6127
system, 6126
पुलिसकर्मी 6125
मिले। 6125
2001 6124
apostle 6124
न्द्र 6124
सिया@@ 6124
इलेक्ट्रॉनिक 6123
मानवीय 6123
र्ड 6123
स्टा@@ 6123
edition 6122
पित 6122
la, 6121
eh@@ 6120
says, 6119
दिमाग 6119
सिंह@@ 6118
Vikas 6116
sn@@ 6116
Allahabad 6115
comprehensive 6113
end. 6113
सोनम 6112
aimed 6111
सार 6111
ढांचा 6109
peoples 6108
ized 6107
आई। 6107
filled 6104
joy 6104
sound 6104
trad@@ 6104
ख़ा@@ 6104
Mak@@ 6103
innovation 6103
कराए 6103
distributed 6102
mass 6102
बनाता 6102
ष्ट@@ 6102
Surely 6100
शिवराज 6100
tomorrow 6099
लवा@@ 6099
‘मैं 6099
advocate 6098
raising 6098
ख्याल 6098
same. 6097
लों, 6097
भावनाओं 6096
इंटरनल 6095
...@@ 6094
healthcare 6094
कब्जा 6094
समुदायों 6094
डेट 6093
ेगा 6093
तेरी 6092
,4@@ 6091
गल@@ 6091
नियत 6091
माँ@@ 6091
Met@@ 6090
tha 6089
कलाकारों 6089
गणराज्य 6088
स्कीम 6087
cars 6086
high@@ 6085
Foundation 6084
sion. 6084
ट्रै@@ 6084
पंजीकृत 6084
bar 6081
education, 6080
मानकों 6079
band@@ 6076
rac@@ 6076
मुसलमान 6076
Brah@@ 6075
Gul@@ 6075
कल्@@ 6075
नाइट 6075
fy 6074
ham 6074
शैक्षिक 6074
ticket 6073
then. 6072
हानि 6069
America 6068
reg@@ 6068
सदैव 6068
"हम 6067
ंच@@ 6067
स्पे@@ 6067
NT@@ 6066
ब) 6066
संस्कृत 6066
er: 6065
teaching 6065
15.@@ 6064
यता 6064
पंच@@ 6062
बुरे 6062
promotion 6060
प्रताप 6059
बंदरगाह 6059
tough 6058
bowling 6056
ease 6056
ities. 6056
power@@ 6056
लाइव 6056
ans. 6055
Indeed 6054
RT@@ 6054
pivotal 6053
ext@@ 6051
dates 6049
processing 6049
Exchange 6048
चित 6048
प्रारूप 6048
दौड़ 6047
ज़ा@@ 6047
ship. 6046
रिटर्न 6046
शेट्टी 6046
अरुणाचल 6045
करण, 6044
सीखने 6044
कमांडर 6041
किंतु 6040
firing 6039
अवस्था 6039
मूल्‍य 6039
Elections 6038
participating 6038
फर्जी 6038
IAF 6036
अस@@ 6035
Sum@@ 6034
whoever 6034
upto 6033
आवा@@ 6033
Directorate 6032
द्वार 6032
मामूली 6032
वह@@ 6032
सपना 6032
स्थलों 6032
आईएम@@ 6031
change. 6029
cat@@ 6028
105 6025
programme. 6025
देखता 6024
Housing 6020
विद्यार्थी 6020
involving 6019
ट्रि@@ 6019
Mahesh 6015
आदान-प्रदान 6015
eth@@ 6014
exports 6013
lakh. 6013
statements 6013
रूसी 6011
democratic 6010
Dinesh 6009
धे 6009
agree 6008
labour 6007
q 6006
एक्शन 6005
दीन 6004
पढ़@@ 6004
Parliament. 6003
मोड 6003
thanked 6002
vice 6002
ती। 6002
नार@@ 6002
Assistant 6001
camp 5999
नाय@@ 5999
स्मारक 5999
उत्तराखण्ड 5998
फर 5998
डाले 5997
(to 5996
theme 5994
wife, 5994
younger 5994
Bat@@ 5993
dropped 5993
happens 5993
order. 5993
law, 5991
bagged 5990
Mil@@ 5989
consecutive 5989
दिला@@ 5989
ri, 5987
style 5987
एंगे। 5987
जबरदस्त 5987
ba 5986
infection 5985
ड्र@@ 5985
सत@@ 5985
लिहाज 5984
contains 5983
studies 5983
दिखाता 5983
advantage 5980
रिया@@ 5980
institution 5979
need@@ 5979
घाट 5979
hu@@ 5978
एनआरसी 5978
ory 5977
एनडीए 5977
16.@@ 5976
retired 5976
पर्व 5975
सीबी@@ 5975
जाएगी. 5972
approached 5971
departments 5971
industry. 5971
फाइ@@ 5971
pray 5969
stre@@ 5968
निरीक्षण 5968
नोएडा 5967
विकास, 5967
सल@@ 5967
Airport 5966
जिन्@@ 5966
Comp@@ 5965
ishing 5965
लापता 5965
ues 5964
President, 5963
ess. 5963
farm@@ 5963
African 5961
morning. 5961
possibility 5961
दया 5960
देखे 5960
Nobody 5958
बुला@@ 5957
Lok@@ 5956
choose 5956
verily 5956
viol@@ 5956
खुली 5954
पशु 5954
टरी 5952
that@@ 5950
पी, 5950
सन@@ 5950
सीएस@@ 5950
ता-@@ 5948
eshwar 5946
प्रदर्शनी 5946
and. 5943
meant 5943
विज्ञापन 5942
स्थि@@ 5941
memory 5940
़ 5940
Verma 5939
Sun@@ 5938
ful@@ 5938
ic. 5938
पथ 5937
वं@@ 5936
सॉफ्टवेयर 5936
sin 5935
Independence 5932
बोले 5931
अपनाने 5930
अमल 5930
वितरित 5930
जू 5929
रिक 5929
ley 5928
Read: 5926
करवाने 5923
प्रीमियर 5922
उत्तर@@ 5921
निदेशालय 5921
Kerala, 5920
अनुदान 5920
Tha@@ 5918
मसीहियों 5917
cell 5916
seeks 5916
जौहर 5916
जुट 5914
बिता@@ 5914
Kul@@ 5913
Secondary 5913
commission 5913
इच्छुक 5913
avail 5912
applied 5911
"If 5909
IPC 5909
isi@@ 5908
rang@@ 5908
पहुँचा 5908
पढ़@@ 5908
ज़ी 5907
port 5906
examination. 5905
sti@@ 5905
प्रोग्राम 5903
,5@@ 5902
Sim@@ 5902
fighter 5902
ठहरा@@ 5900
ja 5899
जिनसे 5899
लिख 5898
मल 5896
China. 5895
ants, 5895
governance 5895
इटली 5894
ai, 5893
za 5893
कुं@@ 5892
inst@@ 5891
notified 5891
वर्ती 5891
\""@@ 5889
अनुवाद 5889
report. 5888
अनुपात 5888
UR@@ 5887
KL 5886
regul@@ 5886
are. 5885
अल्पसंख्यक 5885
जरूरतों 5885
राज्यमंत्री 5885
ारि@@ 5884
interested 5883
ours 5883
leaves 5882
भेजी 5882
Court, 5881
Uddhav 5881
Res@@ 5880
एगा। 5880
Min@@ 5879
register 5879
te 5879
IL@@ 5878
कुर्@@ 5878
determined 5877
अकादमी 5877
Bu@@ 5876
mode 5876
wid@@ 5876
Ja@@ 5875
tered 5875
रचना 5875
Mobile 5874
Sonam 5874
net@@ 5874
historical 5873
requires 5872
बाग 5872
ur, 5871
cross 5870
elling 5870
blast 5868
industries 5868
झटका 5868
मौत, 5867
det@@ 5866
earned 5866
support. 5866
ताएं 5866
sector, 5863
Obama 5860
ey 5860
एक्टिव 5860
रहीं 5859
मिंग 5858
सद@@ 5858
debt 5857
weak@@ 5856
उपयोगी 5856
opposite 5854
करेगा, 5854
करो, 5854
postmortem. 5851
ological 5850
Regional 5849
जेम्स 5849
प्रतिस्पर्धा 5849
युवकों 5849
ber 5848
possible. 5848
seem 5848
skills 5848
निकलने 5848
closely 5847
जब@@ 5847
अर्थात 5846
ए-@@ 5846
(आर@@ 5845
2003 5845
Joshi 5845
scrip@@ 5845
Talking 5844
penalty 5844
invest 5843
begun 5842
दिया@@ 5842
excellent 5841
tourist 5841
कॉर्@@ 5841
]. 5839
India: 5838
connect 5838
ज़रूर 5838
कराना 5837
Smith 5836
pul@@ 5836
गुनाह 5836
infl@@ 5834
ap 5833
itation 5832
साजिश 5832
can't 5831
समन्वय 5831
मल@@ 5830
causing 5829
सम्‍मेलन 5828
straight 5827
पड़ने 5826
हथियारों 5826
wara 5825
Wal@@ 5823
उद्देश्‍य 5823
market. 5822
त्रा@@ 5822
निर@@ 5822
Maj@@ 5821
Steve 5821
ows 5821
Jawaharlal 5820
cop@@ 5819
etc 5819
सतह 5819
economy. 5818
चौथी 5817
direc@@ 5816
investments 5816
losing 5816
ग्रस्त 5816
ets, 5815
जॉ@@ 5815
finished 5813
टी-@@ 5813
साधन 5813
ship, 5812
wake 5812
ES 5809
बढ़ता 5809
योजना@@ 5809
participants 5808
producing 5808
lam@@ 5806
Labour 5805
PC@@ 5805
apur 5805
नर्@@ 5804
सशक्त 5804
अल-@@ 5803
स्थिरता 5803
पोस्टर 5802
flood 5801
दोहरा@@ 5801
mil@@ 5800
उत्पीड़न 5800
later. 5799
क़ा@@ 5799
कृष्णा 5798
चम@@ 5798
34@@ 5797
IF@@ 5797
Recently, 5797
Stat@@ 5797
Twitter. 5797
पुरा@@ 5797
All-@@ 5796
doctor 5796
guest 5796
Aditya 5795
li 5795
अंतर्राष्‍ट्रीय 5794
तू@@ 5793
रहे. 5793
17.@@ 5791
Protection 5791
CM@@ 5790
लगते 5790
advice 5789
grief 5789
hours, 5789
अता 5789
जटिल 5789
संग्रहालय 5788
Disaster 5787
उतना 5787
मायावती 5787
2015-16 5786
concluded 5786
citizen 5785
jo@@ 5785
power, 5785
TMC 5784
Federation 5783
yesterday 5783
numerous 5782
offices 5782
sanctioned 5782
grand 5781
resulted 5781
boys 5780
ऑफिशियल 5780
कॉम 5779
सच्चा 5779
पैरा@@ 5777
Honda 5776
बनकर 5776
ist, 5774
represented 5773
प्रक्रियाओं 5772
यहीं 5771
लंबा 5771
धाराओं 5770
जीते 5769
ट्रैक 5769
२ 5769
communities 5768
vaccine 5768
No. 5766
card. 5766
draft 5765
complaints 5764
principles 5764
मंत्री, 5763
कांस्य 5762
खबरें 5762
हिंदुस्तान 5762
ग्रामीणों 5761
ण्ड@@ 5761
तान 5761
मतदाता 5761
स्टूडेंट्स 5761
Hence, 5760
moral 5760
उत्‍@@ 5759
दुष्कर्म 5759
NA@@ 5758
विभाजित 5758
कार्तिक 5757
ना-@@ 5757
currency 5755
toss 5755
रें@@ 5755
Bhushan 5754
सफलतापूर्वक 5754
डेब्यू 5753
e." 5752
ेगी। 5752
Day. 5751
allows 5750
।। 5750
AP@@ 5748
निभाई 5748
जनजातीय 5747
ड़ा, 5747
Cooperation 5746
आईआईटी 5746
फडणवीस 5746
,8@@ 5744
age@@ 5743
connection. 5743
Messenger 5742
Plus 5741
length 5741
घटनाएं 5741
Tur@@ 5740
बहाल 5740
यें 5740
लड़के 5738
worst 5737
क़ 5737
गौरव 5736
Diwali 5735
उपलब्धता 5735
walk 5734
choice 5733
minutes 5733
सीमाओं 5733
world's 5732
सला@@ 5732
ड़ी 5732
अपडेट 5731
गारंटी 5731
चार्ज 5730
mostly 5727
कनेक्शन 5727
(O@@ 5726
faithful 5726
सौदे 5726
#44. 5725
We@@ 5725
कृति 5725
proof 5724
दशकों 5724
ban@@ 5723
"In 5722
ot. 5722
स्टील 5722
alised 5721
""" 5720
8GB 5720
author@@ 5720
den@@ 5720
post-@@ 5720
मासिक 5719
reading 5718
Lucknow 5717
विवादित 5716
Sir@@ 5715
रहमान 5715
trained 5714
States. 5713
b) 5712
पेड़ 5712
शवों 5711
सदस्यता 5711
खरीदा 5710
फाउंडेशन 5710
Ud@@ 5707
ut 5707
Dhan@@ 5706
जाधव 5706
विधि@@ 5706
७@@ 5705
slogans 5704
8MP 5703
putting 5702
willing 5701
उत्कृष्ट 5701
रण@@ 5701
स्टेशनों 5700
अनुसरण 5699
ज़ी@@ 5699
ites 5698
थीं, 5698
advance 5697
ख) 5697
engineering 5696
अंग@@ 5696
क्षण 5696
boo@@ 5695
build@@ 5695
idd@@ 5695
policemen 5695
Agreement 5693
not, 5693
journalist 5692
pass@@ 5692
दूर@@ 5692
छू@@ 5691
Ke@@ 5688
काओं 5688
Qualcomm 5687
ख़बर 5687
बलिदान 5687
रखती 5687
परिभाषित 5686
fying 5684
pas@@ 5683
अधिकारिता 5681
जंग 5681
Pe@@ 5680
FC 5679
exc@@ 5679
micro@@ 5679
2014, 5678
oll@@ 5678
संतुलन 5678
सेटअप 5678
approximately 5677
forget 5677
pal@@ 5676
storage. 5676
Du@@ 5675
Scheduled 5675
फोर्@@ 5675
3) 5674
पेशेवर 5674
बैक 5674
व्या@@ 5674
Mc@@ 5673
Mukesh 5673
politics. 5673
एव@@ 5673
appe@@ 5670
wind@@ 5670
बन्दों 5670
ake 5668
cancer 5668
Skill 5667
headquarters 5667
केन्‍द्र 5667
नैतिक 5667
jointly 5666
sit 5666
प्लेटफॉर्म 5666
नन 5665
प्रकाशन 5665
doesn't 5664
establishment 5664
torque 5661
sixth 5659
prov@@ 5658
क्रांति 5657
प्रभार) 5657
DC 5656
travelling 5655
आत्म@@ 5655
निग@@ 5654
रसायन 5654
Station 5653
driving 5653
honoured 5653
batt@@ 5652
completion 5652
4G 5650
resigned 5650
writer 5650
IIT 5649
elec@@ 5649
result, 5649
सौंपा 5649
pic@@ 5647
एँ@@ 5647
अक्तूबर 5646
कट 5645
older 5644
tweet 5644
मंत्रालय, 5644
जैन 5643
मतदाताओं 5643
प्लास्टिक 5642
regions 5641
विमानन 5641
case: 5640
well@@ 5640
farmer 5639
विभाजन 5638
Ay@@ 5634
travel@@ 5634
होता। 5634
plane 5632
फायदे 5632
शास्त्र 5632
predic@@ 5631
दर्शाता 5631
अब्दुल्ला 5629
विवेक 5629
requirements 5628
Malik 5627
code 5627
measure 5627
Pandey 5626
खातों 5626
तुममें 5626
पहुंचकर 5626
आयु@@ 5625
Keep 5624
Democratic 5623
clos@@ 5623
hundreds 5623
judgment 5623
,9@@ 5622
tem@@ 5622
world@@ 5622
co 5621
संस्था@@ 5620
charging 5619
highlighted 5618
Med@@ 5617
contain 5617
किम 5617
असफल 5613
माइक्रो@@ 5613
Smart 5610
रिहा 5609
हवाला 5609
अपराधों 5607
साक्षात्कार 5607
warning 5606
टेलीविजन 5605
स्टी@@ 5605
आउट@@ 5603
जाए@@ 5603
States, 5602
percentage 5602
लाइफ 5602
Hardik 5601
निया@@ 5601
arri@@ 5599
reserved 5599
काले 5598
Ravindra 5596
गणतंत्र 5596
IAS 5595
Jas@@ 5595
Times 5595
टेनिस 5593
व्यव@@ 5593
शर्@@ 5593
्‍@@ 5593
फ़ 5593
location 5592
peaceful 5592
जाएँ 5589
zz@@ 5588
करो। 5587
कार्बन 5587
साक्षियों 5587
सकेंगे। 5586
Like 5585
Fi@@ 5582
pace 5582
uring 5582
weapons 5582
game. 5581
बोला 5581
सहकारी 5580
death, 5579
ब्लॉक 5578
सूर्य 5578
कहाँ 5577
50-@@ 5575
zed 5575
धर्@@ 5575
Ha@@ 5573
५@@ 5573
ays 5572
fundamental 5572
बेचने 5572
Private 5571
बेस 5570
हितधारकों 5570
alized 5569
Environment 5568
Superintendent 5568
बरा@@ 5568
warned 5567
यहूदी 5567
Check 5566
stri@@ 5566
sts 5566
दायित्व 5566
dialogue 5565
functioning 5565
फुटबॉल 5564
लाते 5564
ओ, 5563
सिद्धांतों 5563
Fl@@ 5561
Asked 5560
करवा 5560
experienced 5559
sugar 5559
Based 5558
ose 5558
तरह, 5558
ने-@@ 5558
Mos@@ 5557
ize 5557
गांधी, 5556
सके@@ 5556
please 5554
Officers 5553
गल 5553
Naval 5551
आर्मी 5551
learned 5549
solutions 5549
न: 5549
,999. 5548
लम 5548
bank@@ 5546
life@@ 5546
जोन 5546
रोकथाम 5545
110 5544
tion) 5544
डीसी 5544
Shah@@ 5543
XI 5543
ami 5543
wards 5543
womens 5543
मानने 5542
पदार्थों 5540
बरी 5540
रहा@@ 5540
रीति 5539
bid 5538
डीआर@@ 5538
पाय@@ 5538
एकजुट 5537
University, 5536
interesting 5536
नाबालिग 5535
रूम 5535
Tar@@ 5534
तलाशी 5534
ne 5533
led@@ 5532
storm 5532
Ban@@ 5531
raj 5531
पुलिसकर्मियों 5531
६@@ 5531
UPA 5530
indi@@ 5530
उठ@@ 5530
सुधारों 5529
Capital 5528
revised 5528
अगला 5528
‘हम 5528
Saty@@ 5526
Delhi@@ 5525
ables 5525
अंतरिम 5525
कमल 5525
शनल 5525
wind 5522
s! 5521
fies 5520
pet@@ 5520
red, 5520
widely 5520
Kangana 5519
लना 5519
सहारा 5519
relation 5518
12. 5517
पश्चात् 5517
सुरक्षाबलों 5517
tourists 5516
कनेक्टिविटी 5516
खुश@@ 5516
मनाने 5515
4th 5514
,6@@ 5513
18.@@ 5513
सोना 5513
Christ 5512
Meeting 5512
animal 5512
reviewed 5512
तुमपर 5512
मुख्‍य 5512
19.@@ 5511
5000 5510
daughters 5510
Sup@@ 5509
covering 5509
men. 5509
Press 5507
unable 5506
Acc@@ 5505
साहिब 5505
sentence 5504
cou@@ 5503
il, 5503
paying 5503
sort 5503
निम्न 5503
14, 5502
Government, 5502
limit@@ 5502
syn@@ 5502
Mas@@ 5501
तेरा 5501
ML@@ 5500
dance 5500
four-@@ 5500
ila 5500
नायक 5500
wasnt 5499
Bihar. 5498
परिणामों 5497
भंडारण 5497
Him. 5496
comprises 5495
11, 5494
qui@@ 5494
वा, 5493
surface 5491
rit@@ 5490
एचडीएफसी 5489
शांतिपूर्ण 5488
Av@@ 5487
crossed 5487
ढ़ 5487
प्रिंट 5487
Park 5486
capable 5486
Happy 5485
managing 5485
vo@@ 5485
Which 5484
evening. 5484
आपसे 5484
identi@@ 5483
डिप्टी 5483
father, 5482
tweeted. 5482
अनुमानित 5482
fo@@ 5481
शीर्षक 5481
ities, 5480
NR@@ 5479
ler 5479
सीख 5479
मसले 5478
गढ़@@ 5477
लगा। 5477
06 5476
scene 5476
फसलों 5474
deeds 5473
entr@@ 5472
prescribed 5472
ज़ाहिर 5472
Vir@@ 5471
animals 5471
ern@@ 5471
wan 5470
न्यायाधीशों 5470
बीएस@@ 5470
कदमों 5469
Sil@@ 5468
Tra@@ 5468
integrated 5468
ver 5468
design@@ 5466
spotted 5466
इजाफा 5466
कपड़े 5466
८@@ 5466
Nat@@ 5465
wherein 5465
ंग्@@ 5465
जाएं 5465
राजस्थान, 5465
violation 5464
बाधा 5464
मजदूरों 5464
रुचि 5464
founder 5463
५ 5463
owner 5462
नकारात्मक 5461
condolences 5460
pack@@ 5460
गें 5460
andi@@ 5459
sad 5459
ड-@@ 5458
तलाक 5456
सुशील 5454
balls 5453
सीसी@@ 5452
eds 5451
दरअसल 5451
एसबीआई 5450
Jun@@ 5449
bs 5449
Ben@@ 5446
न्यूयॉर्क 5446
praise 5445
22@@ 5443
साक्ष्य 5443
deeply 5442
नाकाम 5441
mi 5440
persons. 5440
जलाशयों 5440
HI@@ 5439
seat. 5439
village. 5439
ग्रह 5438
Tel@@ 5437
धों 5437
हरियाणा, 5437
[ 5436
आए@@ 5436
इंडस्ट्री 5435
4) 5433
UP@@ 5432
housing 5432
recognised 5432
भे@@ 5432
NIA 5431
accordance 5430
होंडा 5430
Armed 5429
organization 5429
Rs@@ 5427
condition. 5427
extra 5427
कैफ 5427
"क्या 5426
beneficiaries 5425
Insurance 5424
wal, 5424
women's 5424
sel@@ 5423
tly 5422
आयी 5422
बचपन 5422
ेंगे. 5422
माफ 5421
dual 5419
Hon@@ 5418
भग@@ 5418
particip@@ 5417
Kumar. 5416
intelligence 5416
leaders, 5416
vi 5416
मार्केट 5415
drop 5414
जूनियर 5413
तल@@ 5413
Justices 5412
reduction 5412
जेट 5411
some@@ 5410
क्ला@@ 5410
dealing 5409
polls. 5409
Flipkart 5408
chang@@ 5408
जैव 5408
धारी 5408
Right 5407
adi 5407
sanc@@ 5407
आईसीआईसीआई 5407
एम) 5407
डेंट 5407
producer 5406
SC@@ 5405
ace 5405
फेर 5405
सियों 5405
वेस्ट 5404
फॉर्@@ 5403
cast@@ 5402
friends. 5402
there, 5401
Patel, 5400
180 5399
e.@@ 5399
tells 5399
अलर्ट 5399
का। 5394
homes 5393
species 5393
contributed 5392
धोखाधड़ी 5392
विनोद 5392
हूँ, 5392
considering 5391
Wi@@ 5390
खी 5389
पर) 5389
resid@@ 5388
झील 5388
My@@ 5386
lab@@ 5386
अला@@ 5385
०@@ 5385
Investment 5384
els, 5384
person. 5383
अधिसूचित 5383
court, 5382
ers' 5382
role. 5382
रूपए 5382
लते 5382
rep@@ 5381
गिनती 5381
inal 5380
नकदी 5380
बताता 5380
drugs 5379
गहलोत 5378
पत्रों 5378
मोटरसाइकिल 5378
शिमला 5378
स्ट्र@@ 5378
belong 5377
जेपी 5376
सेन 5376
lik@@ 5375
sive 5374
कभी-कभी 5374
बहादुर 5374
tre@@ 5373
160 5372
वैकल्पिक 5372
Bag@@ 5371
Star 5371
mind@@ 5371
महिला@@ 5371
लेफ्टिनेंट 5370
Ash@@ 5369
equipped 5369
ys@@ 5368
हादसा 5368
UT@@ 5367
termed 5367
दुखद 5367
E) 5366
गेम 5366
ल्ट 5366
constitu@@ 5364
view@@ 5364
दोष 5364
मनोरंजन 5364
राजन 5364
तब@@ 5363
हां, 5363
अनुबंध 5362
नों, 5362
पत्र@@ 5362
इंड@@ 5361
विंग 5361
discharged 5360
ink@@ 5360
election. 5359
करें@@ 5359
गईं 5359
10वीं 5358
मास्क 5358
एमएसएमई 5357
ऑस्ट्रेलियाई 5357
वर, 5357
(एफ@@ 5356
14. 5356
Ladakh 5356
clash 5356
Say, 5355
DG@@ 5354
SMS 5351
2016, 5350
marked 5350
पाप 5350
प्रसन्नता 5350
स्पिनर 5350
12, 5349
isnt 5348
क्षति 5348
alert 5347
software 5347
Line 5345
cra@@ 5344
eye 5344
आयुष 5344
OS 5343
पन@@ 5343
expanded 5342
said.""" 5342
7th 5341
udd@@ 5341
2020-21 5340
competitive 5340
emerging 5340
injuries. 5340
लेंस 5340
roles 5339
NG@@ 5338
मायने 5336
मक@@ 5335
रियो 5335
02 5334
ises 5334
more. 5334
कप्तानी 5334
Agency 5333
circumstances 5333
चिंतित 5333
परीक्षाओं 5333
ell 5332
Petrol 5331
says. 5331
ways. 5330
नंद 5330
Europe 5329
aging 5328
anger 5328
स्वर्ग 5328
Australia, 5327
acted 5327
बैंड 5327
हैरान 5327
reducing 5326
tribute 5324
(3) 5323
हुई@@ 5323
List 5322
turns 5321
क्रिया@@ 5321
states, 5320
दवाओं 5320
प्रतिबंधित 5320
चपेट 5318
फ़ैसला 5318
Sab@@ 5317
portal 5317
condemned 5316
कालीन 5316
elements 5314
extent 5314
Moreover, 5313
belief 5313
summit 5312
प्स 5312
मिशेल 5312
sensitive 5311
III 5310
िंग 5310
हर्@@ 5309
differ@@ 5308
well, 5308
09 5307
talked 5307
damaged 5305
northern 5305
लिखने 5305
बीमारियों 5304
improvement 5303
applicable 5302
definitely 5302
ining 5302
प्रसंस्करण 5302
हीरो 5302
Cre@@ 5301
prayers 5301
document 5299
cer@@ 5298
ization 5298
रोजाना 5298
band 5297
Swami 5296
स्नातक 5296
Mark 5295
supports 5295
गेट 5295
युवती 5295
लौटने 5295
सब्सिडी 5295
OD@@ 5294
business. 5294
good@@ 5294
concept 5292
RO@@ 5290
fiscal 5289
सह 5289
ले। 5288
'% 5287
'll 5287
drawn 5287
seed 5287
t: 5287
भारत@@ 5287
struck 5285
दिसंबर, 5284
missile 5283
prayer 5283
U) 5282
मीटिंग 5282
later, 5281
इबराहीम 5281
Airtel 5279
Out@@ 5279
मछली 5279
ges 5278
protesters 5278
खेलना 5278
भेदभाव 5278
suspected 5277
विलय 5277
999 5276
IS 5276
TO@@ 5276
ain. 5276
ies. 5276
import 5276
villagers 5276
मद@@ 5276
threatened 5274
Great 5273
dollar 5273
guided 5272
एमएस@@ 5272
सकल 5272
सित 5272
सेनाओं 5272
Dr@@ 5270
aspect 5270
चैंपियनशिप 5270
HD@@ 5269
newly 5269
महल 5269
शिक्षा@@ 5269
हट 5269
passes 5268
unknown 5267
बात@@ 5267
बढ़ 5267
समानता 5267
Sc@@ 5266
believers 5266
Instagram. 5265
Mer@@ 5264
learnt 5264
मानता 5264
Muk@@ 5263
gathering 5263
प्रि@@ 5263
Ham@@ 5262
यानि 5262
निचले 5260
secured 5259
श्रमिकों 5259
unity 5258
electoral 5257
बिंदु 5256
वाड़ा 5255
स्कूली 5255
devotees 5254
डी, 5254
लेक्@@ 5254
एलि@@ 5252
भुवनेश्वर 5252
Pa@@ 5251
Society 5251
रोधी 5251
स्टीव 5251
milit@@ 5249
घड़ी 5249
जोड़ 5249
बैं@@ 5249
coun@@ 5248
टेक्नोलॉजी 5248
Dev 5247
Sing@@ 5247
cover@@ 5247
ental 5247
models 5247
sisters 5247
बच्च@@ 5247
१९@@ 5247
stories 5246
इसरो 5246
एंगे 5246
respectively 5245
अखबार 5244
Consumer 5242
focused 5242
बढ़@@ 5240
33@@ 5239
ets. 5239
दिलचस्पी 5239
भट@@ 5239
मारी 5239
Shri@@ 5238
efficient 5238
ga@@ 5238
MS@@ 5237
RC@@ 5236
केट 5236
Festival 5235
सर, 5235
government's 5234
ore. 5234
पीछा 5234
classes 5233
innovative 5233
organiz@@ 5233
राजनैतिक 5232
आकाशों 5231
बीज 5231
(आ@@ 5230
The@@ 5230
एकत्र 5229
शिरकत 5229
branch 5228
टा, 5227
नात्मक 5227
पूछ@@ 5227
मेह@@ 5227
sar@@ 5226
-led 5225
ज़ि@@ 5224
Rail 5222
dat@@ 5222
environmental 5222
facts 5222
mus@@ 5222
teacher 5220
visible 5220
शिप 5220
उपभोक्ताओं 5219
analy@@ 5218
figures 5218
fired 5218
चाहिए@@ 5218
महाराष्ट्र, 5218
लैंड@@ 5218
स्त्रियों 5218
los@@ 5217
नसीहत 5217
एसी 5216
gang@@ 5215
pain 5215
crops 5213
temples 5212
ora 5211
truth@@ 5211
एफसी 5211
मज़बूत 5211
वंश 5211
उस@@ 5210
PC 5209
correc@@ 5209
meets 5209
scam 5209
उत्‍तर 5209
directions 5208
फोर्स 5208
respond 5207
alist 5206
Highways 5205
eni@@ 5205
struggle 5205
ारे 5204
Subhash 5203
परियोजनाएं 5203
-19 5202
जीव@@ 5202
बिहारी 5202
Ji@@ 5201
bronze 5201
उत्साह 5201
ame 5200
controversy 5200
retail 5200
संजीव 5200
Forces 5199
prior 5198
lying 5196
performing 5196
targeted 5196
सचिवालय 5196
बिल्@@ 5195
संवाददाता 5195
स्पेस 5195
cancelled 5194
led, 5194
ome 5194
poll@@ 5194
ठा 5194
िये 5193
Satan 5192
अनुपालन 5192
ol 5191
copy 5190
SUV 5189
आई, 5188
वास 5188
Pak 5186
killed. 5186
fielded 5184
stayed 5184
ा, 5184
ग्रीन 5183
भी। 5183
कविता 5182
Gupta, 5180
implementing 5180
सामुदायिक 5180
Er@@ 5179
13: 5178
मंड@@ 5178
come. 5177
cred@@ 5177
son. 5177
बी, 5177
वंचित 5177
Minister's 5176
aria 5176
उसपर 5176
IB@@ 5174
टूट 5174
करवा@@ 5173
सीए@@ 5173
front, 5172
हैं- 5172
suppl@@ 5171
ack@@ 5170
path@@ 5170
तत्@@ 5170
मनुष्यों 5170
टने 5169
दिल्ली@@ 5169
मास 5169
Any 5168
liber@@ 5168
स्टोर 5168
Green 5167
Local 5167
अवॉर्ड 5167
समझा@@ 5167
maintenance 5166
असाधारण 5166
Managing 5165
quit 5164
"There 5163
टें@@ 5163
निराश 5163
बंदी 5163
US, 5161
करी 5161
पद्धति 5161
Washington 5160
ट्रस्ट 5160
नामों 5160
Sunday. 5159
झूठे 5158
टॉर्क 5158
दिलचस्प 5158
स्‍ट 5158
(IC@@ 5157
party, 5157
variety 5157
हताहत 5157
ऑटो@@ 5156
fill 5155
Tim@@ 5154
नाथन 5154
Later 5153
trailer 5153
साइबर 5153
नतीजा 5152
पारिवारिक 5152
two-day 5151
अंतर्@@ 5151
नोटबंदी 5151
Ganguly 5150
डल 5150
पहुंचाया 5149
disc@@ 5148
know. 5148
Super@@ 5147
ful, 5147
cam@@ 5146
smart 5146
bat@@ 5145
Survey 5143
फैल 5143
फैलाने 5143
Ur@@ 5142
गेंदबाजों 5142
सकी 5142
सरा@@ 5142
46@@ 5141
उन्होने 5141
pension 5138
ry. 5138
conferred 5137
deny 5137
कवि 5137
actual 5135
before. 5135
gained 5135
southern 5133
नकद 5133
ack 5132
il. 5132
साथियों 5132
यूसुफ 5131
04 5130
Under@@ 5130
ेंगी 5130
Pet@@ 5129
Chairman, 5128
Region 5127
consideration 5127
que 5127
mention 5126
दल@@ 5126
loo@@ 5125
2MP 5124
dist@@ 5124
केन 5124
fit 5123
sum 5123
Bra@@ 5122
ट्रेनिंग 5122
bha@@ 5121
nab 5121
भौतिक 5121
सरकार, 5121
Soon 5120
alization 5119
ism, 5119
इस्लामिक 5119
enhanced 5118
friend@@ 5118
read: 5118
listen 5117
lit@@ 5117
print 5117
side, 5116
Al 5115
करे, 5114
टाइम्स 5114
धित 5114
Port 5111
Modi@@ 5110
घट@@ 5108
डायरेक्ट 5108
aren@@ 5107
प्रशिक्षित 5107
Centres 5105
marketing 5105
लड़@@ 5105
Friday. 5104
ble@@ 5102
अख्तर 5102
फर्क 5102
celebrations 5101
inde@@ 5101
जितेंद्र 5101
30, 5100
ation: 5100
contrac@@ 5100
लांच 5100
एकड़ 5099
prosperity 5098
relatives 5098
खेलते 5097
नम 5097
सितंबर, 5097
नीरव 5096
1,5@@ 5095
west 5094
kids 5093
उपासना 5093
ever@@ 5092
एमएस 5091
इंडोनेशिया 5089
Resource 5088
winners 5088
जाएं। 5088
Command@@ 5087
Rawat 5087
Sidhu 5087
education. 5087
part@@ 5086
कैं@@ 5086
झग@@ 5085
that's 5082
SO@@ 5081
योजनाएं 5081
(7@@ 5080
जर@@ 5080
फ़्@@ 5080
अनुराग 5079
tradition 5078
god 5077
mand@@ 5077
घाटे 5076
क्स, 5074
दूतावास 5074
आवंटित 5073
फें@@ 5073
March, 5072
tion: 5072
बार-बार 5072
channel 5071
monthly 5070
ज़रिए 5070
skin 5069
website. 5069
रोगी 5069
विजय@@ 5069
सूरत 5069
Punjab@@ 5068
decline 5067
requirement 5067
wearing 5066
गम 5065
संबंध@@ 5065
procedure 5064
वीडियो@@ 5064
ded 5063
उन्नत 5063
Allah@@ 5061
allocation 5061
दा, 5061
a), 5060
book@@ 5060
अध@@ 5060
5) 5058
Chin@@ 5058
Whether 5058
its, 5058
off. 5058
open@@ 5057
कड़े 5057
* 5056
guard 5055
टेबल 5055
अगस्त, 5054
पस 5054
प्रणालियों 5054
ote 5053
रता 5053
parti@@ 5052
report, 5052
ता) 5052
starred 5051
termin@@ 5051
प्राथमिकी 5051
ask@@ 5050
पटा@@ 5050
ID 5048
phot@@ 5048
titled 5048
followers 5046
इंडिया, 5045
गले 5045
maintaining 5044
opens 5044
vac@@ 5044
मेहता 5044
वैध 5044
Indo-@@ 5043
tab@@ 5043
सफेद 5043
brother@@ 5042
चाल 5042
Gen 5041
author 5041
दे। 5041
ards 5039
mandatory 5039
2011-12 5037
Bhar@@ 5037
Jai 5037
अश्विन 5035
delay 5034
तत्वों 5034
formal 5033
बैडमिंटन 5033
(जी@@ 5032
Punjab. 5032
blessings 5032
exp@@ 5032
जातियों 5032
बचे 5032
Division 5031
PO@@ 5030
side. 5030
गंज 5030
Along 5029
minister, 5029
schedule 5029
मेन 5029
High@@ 5028
Singapore 5028
twice 5028
ti, 5027
however 5026
suffer 5026
सुजुकी 5026
ones. 5025
छात्रा 5025
अमरिंदर 5024
ung 5023
नाबाद 5023
Jehovah. 5022
भजन 5022
falling 5021
डो 5021
Gar@@ 5020
2015. 5019
ेंगी। 5019
सिक्किम 5018
Rajasthan. 5017
coll@@ 5017
दिखाते 5017
panchayat 5016
presently 5016
सचिव, 5016
suggestions 5015
नेवाली 5015
एचडी 5014
मांगा 5013
Leader 5012
abroad 5012
है,@@ 5012
hits 5011
lives. 5011
ot, 5011
भूमि@@ 5011
गतिविधि 5010
फैला 5010
ank 5008
areas, 5008
त्व 5008
वल@@ 5007
निशानियाँ 5006
ंदा 5005
आयुष्मान 5005
न. 5005
jail. 5004
therein 5004
खाड़ी 5004
चन 5004
1999 5002
Aviation 5002
dev 5002
क्ल@@ 5002
Honble 5001
कें@@ 5001
Selection 5000
fathers 4999
Sindhu 4998
दलित 4998
2016. 4997
हराम 4997
nominated 4996
ight 4995
tiv@@ 4994
क्लास 4994
ॉर्@@ 4994
import@@ 4993
Yog@@ 4992
ड़ने 4992
९@@ 4992
Manipur 4991
Mitchell 4991
दिलाने 4991
Her@@ 4990
backed 4990
constant 4990
मेट 4990
क्ट 4989
Engineering 4988
Hel@@ 4988
दुनियाभर 4987
ili@@ 4986
रौ@@ 4986
वैक्सीन 4986
angels 4985
आभार 4985
कहो, 4985
जिंग 4985
विवादों 4985
Swachh 4984
coalition 4983
congregation 4983
होगा? 4983
gri@@ 4982
returning 4982
soci@@ 4982
be. 4981
partys 4981
Shikhar 4980
students, 4980
आपत्ति 4980
settled 4979
नृत्य 4979
heritage 4978
killed, 4978
जख्मी 4978
,000@@ 4977
Bench 4977
लत 4977
प्रतीत 4976
reservation 4975
veteran 4975
प्रॉ@@ 4975
नड्डा 4974
्रा@@ 4974
-1 4973
Kat@@ 4973
Taking 4973
उर्वरक 4973
consumer 4971
fur@@ 4971
ator@@ 4970
तोमर 4970
सुनकर 4969
And@@ 4968
Assam, 4968
expansion 4968
लगती 4968
oned 4967
युद्ध@@ 4967
alism 4966
produces 4965
properties 4965
उत्सव 4964
जहन्नुम 4964
स्तान 4964
ें. 4964
Infrastructure 4962
explained 4962
faith@@ 4961
vast 4961
झा 4959
कॉरपोरेट 4958
समझता 4958
baby 4957
सच्ची 4957
king@@ 4955
दस्तावेजों 4955
शर्तों 4955
Islam 4954
तियाँ 4954
इला@@ 4953
15. 4952
Black 4952
totally 4952
अर्जित 4952
ज्ञात 4952
नवीकरणीय 4951
विविध 4951
निभाने 4949
Javadekar 4948
saved 4947
Sahib 4946
अधिवक्ता 4946
फुल 4945
scheme, 4944
वी. 4944
thoughts 4943
valid 4943
जांच@@ 4942
ily 4940
मानो 4940
2018. 4938
ju@@ 4938
ple@@ 4938
पक्ष@@ 4938
Abdullah 4937
elled 4936
अस्थायी 4936
दीवार 4936
मजिस्ट्रेट 4936
Baba 4935
पैर 4935
स’ 4935
Soci@@ 4934
pain@@ 4934
public@@ 4934
दुबई 4933
ना) 4933
परिवर्तित 4933
जानना 4932
don 4931
ब्राजील 4931
Can@@ 4929
जानवरों 4929
tally 4928
cell@@ 4926
ya@@ 4926
वेल 4926
्यू@@ 4926
Sah@@ 4924
wast@@ 4924
वैसा 4924
framework 4923
–@@ 4922
तालिबान 4921
pilot 4920
bor@@ 4919
set@@ 4919
ना. 4919
Kapoor. 4918
investigations 4918
कानपुर 4918
yourself 4917
भी) 4917
रुपया 4917
locations 4916
owing 4915
grew 4914
बाबत 4914
चीज़ 4913
धू@@ 4913
ेगी 4913
Mir@@ 4912
लगाना 4912
Yet 4911
काफ़ी 4911
वादियों 4911
घटक 4909
लेगा 4909
Bir@@ 4908
medic@@ 4908
trees 4908
पेयजल 4908
ियर 4908
priv@@ 4907
समर्थक 4907
Azad 4906
फास्ट 4906
wickets. 4905
अनि@@ 4905
धारणा 4905
सनी 4905
Inspector 4904
peopl@@ 4903
positions 4903
abad, 4902
अपराधियों 4902
पेपर 4902
PF@@ 4901
सांस 4901
absolutely 4900
name. 4900
t? 4900
अकबर 4900
आडवाणी 4900
इंदौर 4900
चाय 4900
पृष्ठभूमि 4900
प्रतिमा 4900
“मैं 4900
will@@ 4899
failure 4898
स्वामित्व 4898
प्रीमियम 4896
universities 4895
Matthew 4894
मारपीट 4893
App@@ 4892
constituency. 4892
Qur@@ 4891
Meteorological 4890
impl@@ 4890
Sources 4889
ort@@ 4889
iron 4888
where@@ 4887
bel@@ 4886
merely 4886
Bengal. 4885
Inc@@ 4885
thereby 4885
गिरने 4884
जितनी 4884
mean@@ 4883
window 4883
Pri@@ 4882
Ren@@ 4882
critic@@ 4882
आशीष 4882
attack@@ 4881
inter-@@ 4881
shut 4881
Police, 4880
ener@@ 4880
क्ष 4880
हित@@ 4880
20.@@ 4879
mining 4878
burden 4877
thing. 4877
ula 4877
nutri@@ 4875
(Amendment) 4873
hosted 4873
obey 4873
निहित 4873
मजदूर 4873
bowler 4872
Singh@@ 4871
विंडो 4871
1% 4870
Rights 4870
नू 4870
सुर@@ 4869
--@@ 4868
Bah@@ 4868
counter 4868
pair 4868
ओवर@@ 4868
खट्टर 4868
बंग@@ 4868
Mus@@ 4867
project. 4867
पूर्ति 4865
ट्रॉफी 4864
कीय 4863
spec@@ 4862
2.0 4861
subsequently 4860
rank 4858
roll 4858
tributes 4858
परवाह 4858
स्थ 4858
Tiger 4857
own@@ 4857
पहाड़ी 4857
विजन 4857
Stadium 4856
eas@@ 4855
keeps 4855
kind@@ 4855
obtained 4855
बाधित 4855
बुद्धि@@ 4855
शक्तिशाली 4855
discipl@@ 4854
constantly 4853
extension 4853
place, 4853
sessions 4852
गा? 4852
दृढ़ 4852
द्य@@ 4851
सिंग@@ 4850
2014. 4849
पूर्ण@@ 4849
बाल@@ 4849
बगैर 4848
सहज 4848
Hol@@ 4847
टेक्@@ 4847
पुराना 4847
appl@@ 4846
पिंग 4846
allowing 4845
pati@@ 4845
निष्कर्ष 4844
आवश्यकताओं 4843
heat 4841
recruitment 4841
नियामक 4841
Academy 4840
Higher 4840
songs 4840
विध@@ 4840
2014-15 4839
ISRO 4839
eted 4839
उधर 4839
Aam 4838
Congress-@@ 4838
fre@@ 4838
sam@@ 4838
Sabha, 4836
searching 4836
जीडीपी 4836
सेवक 4836
8) 4835
पैन 4835
fruits 4833
रहित 4833
(captain), 4832
कालेज 4832
बिलियन 4832
साइंस 4832
Monday. 4830
rememb@@ 4830
history. 4829
joining 4829
sending 4829
जवा@@ 4829
रेखांकित 4829
edi@@ 4828
true. 4828
द) 4828
प्रो 4828
select 4827
sky 4827
बों 4827
information. 4826
old@@ 4826
31, 4825
44@@ 4825
Banks 4825
witnesses 4824
चौथा 4824
वासी 4824
ball@@ 4823
हसन 4823
Crore 4822
ago. 4822
violence. 4822
starrer 4821
स्पेन 4821
Nick 4820
मंत्रालयों 4820
Card 4819
handle 4819
purposes 4819
प्ले 4818
मददगार 4818
ऋषि 4816
मन्@@ 4816
nomination 4815
regularly 4815
खुदरा 4815
डिया 4815
ंका 4814
लेती 4814
Das 4813
डें@@ 4813
पत@@ 4813
बनाए। 4813
सिम 4813
(और) 4812
Tru@@ 4812
es," 4812
loving 4812
अति 4811
grown 4810
season. 4809
selfie 4809
Go 4808
happened. 4808
municipal 4808
op 4808
controlled 4807
im 4807
स्तरों 4807
breaking 4806
minister. 4806
PT@@ 4805
हॉल 4805
Raja 4804
Uttarakhand, 4804
centuries 4804
लड़ाकू 4804
समस्त 4804
सीरिया 4803
IN 4802
कांत 4801
मिलना 4801
अपमान 4800
अपराधी 4800
बांध 4800
य-@@ 4800
सुविधा@@ 4800
(ये 4799
03 4799
गुज@@ 4799
ईमानदार 4798
happen@@ 4797
डी. 4796
Bank@@ 4795
इस्@@ 4795
पहुँचा@@ 4795
सर्वे 4795
depth 4793
लाल@@ 4793
उपग्रह 4792
secondary 4791
पाकर 4791
सभा@@ 4791
lets 4790
ऑफ़ 4790
मिस्र 4790
हॉस्पिटल 4790
Credit 4789
row@@ 4789
प्री@@ 4789
ऐंड 4788
di, 4787
services. 4787
प्रभावशाली 4787
academ@@ 4786
मचा 4786
जन्म@@ 4785
गोपाल 4784
Vinod 4783
months, 4783
है-@@ 4783
Ev@@ 4782
grand@@ 4782
गी. 4782
Taliban 4781
chain 4781
household 4780
DC@@ 4779
Tw@@ 4779
kills 4779
अन्य@@ 4779
Planning 4778
Var@@ 4778
examples 4778
flu@@ 4778
immense 4778
T, 4777
देगी। 4777
recognized 4776
Then, 4775
destroy 4775
32GB 4774
West@@ 4774
अमृतसर 4774
विदेशों 4774
ela 4773
atives 4771
इत्यादि 4771
Thursday. 4769
teach 4769
हिंसक 4769
expand 4768
(स्वतंत्र 4767
sex 4767
सेवन 4767
21, 4766
coastal 4765
अजीत 4765
दे, 4765
शिक्षा, 4765
nar@@ 4762
धीरे-धीरे 4762
07 4761
ourselves 4761
‘यह 4761
AC 4760
कैटरीना 4760
जंगल 4760
20. 4759
singer 4759
plac@@ 4758
April, 4757
बल्लेबाजों 4757
मील 4757
Pal 4755
city, 4755
drink 4754
triple 4754
कियों 4754
warn@@ 4753
गर्मी 4753
Aar@@ 4752
कार्यरत 4752
मंडी 4752
cons@@ 4751
स्थानांतरित 4751
am: 4750
चयनित 4750
instructions 4749
अब, 4749
Michael 4748
quar@@ 4748
त्वरित 4748
बानी 4748
olog@@ 4747
kill@@ 4746
these, 4746
मानवता 4746
integral 4745
विजेताओं 4745
संख्या@@ 4745
BSF 4744
Pawan 4744
shoo@@ 4744
= 4743
Six 4743
associate 4743
शोषण 4743
ences. 4742
स्टिक 4742
Annual 4741
caste 4741
serv@@ 4741
ध्‍यान 4741
नाटक 4741
पड़ेगा। 4741
Corona 4740
generate 4740
rapid 4740
बताए 4740
रेंज 4740
touched 4739
यक 4739
made. 4738
उत्साहित 4738
चक्र 4738
पोत 4738
Olympics 4737
bowl@@ 4736
lock 4736
ट्री@@ 4735
Small 4734
Abraham 4733
Gi@@ 4733
करनेवाला 4733
well-@@ 4730
बौद्ध 4730
Band@@ 4729
hu 4729
solve 4729
NI@@ 4728
Ali@@ 4727
five-@@ 4727
उपमुख्यमंत्री 4725
गे। 4725
ण्ड 4725
km@@ 4724
principle 4724
ading 4723
(6@@ 4722
Results 4722
again, 4722
ential 4722
साथ@@ 4722
छापेमारी 4721
B.@@ 4720
expression 4720
manner. 4720
सैकड़ों 4720
स्नैपड्रैगन 4720
ech@@ 4719
thi 4719
गुमराह 4719
ल्ड@@ 4719
independence 4718
पाकिस्‍तान 4718
मोर्@@ 4718
Sharma. 4717
Corporate 4716
S.@@ 4716
ession 4716
sacrifice 4716
रण 4716
11. 4715
lap@@ 4715
Venkaiah 4714
thing, 4714
पहलों 4714
रोशन 4714
Fe@@ 4713
डांस 4713
रेटिंग 4713
anti 4712
collec@@ 4712
driven 4712
infected 4712
चलती 4712
activities. 4710
chemical 4710
लाभार्थियों 4710
लिटी 4710
initially 4709
premium 4709
पक 4709
हुए. 4709
convicted 4708
governor 4708
issu@@ 4708
कोर्इ 4708
सिरे 4708
isolated 4706
results. 4706
ारो@@ 4706
trend 4705
क्षकों 4705
भविष्यवाणी 4705
हिम्मत 4705
Up@@ 4704
affordable 4704
bon@@ 4704
Rang@@ 4701
observ@@ 4701
आदर 4701
फायरिंग 4699
400@@ 4698
Use 4698
समर्थकों 4698
admission 4697
Climate 4695
const@@ 4695
ound@@ 4695
posed 4694
पुरा 4694
Cent@@ 4692
carbon 4692
race 4692
आकर्षक 4692
challenged 4691
forgive 4691
usion 4691
violent 4691
मी, 4691
संवर्धन 4691
माइकल 4690
districts. 4689
inflation 4689
Penal 4688
चढ़ा@@ 4688
चावल 4688
हरे 4688
Has@@ 4687
सचमुच 4687
यूनाइटेड 4685
मच 4684
eventually 4683
kinds 4683
conflict 4682
कार्यशाला 4682
समुचित 4681
harm 4680
indic@@ 4680
सिंधु 4680
audience 4679
bing 4679
mobil@@ 4679
} 4679
सज़ा 4679
Day@@ 4678
नदियों 4678
मानवाधिकार 4678
tar@@ 4677
utes 4677
प्रतिशत) 4677
Kir@@ 4675
Som@@ 4675
दिवंगत 4675
categories 4674
द-@@ 4674
"""The 4673
motorcycle 4673
अध्‍यक्ष 4673
केंद्र@@ 4673
कैसी 4673
क्यो@@ 4673
Kaif 4672
function. 4672
देनी 4672
anim@@ 4671
सीधी 4671
poverty 4670
Coun@@ 4669
method 4669
that? 4669
Hospital. 4668
timely 4667
web 4667
you? 4667
Rom@@ 4666
novel 4666
reports, 4666
ऊंची 4666
पीसी 4666
Produc@@ 4665
upper 4665
job. 4664
ranked 4664
useful 4664
Hy@@ 4663
sa 4663
लेखन 4663
सरकार@@ 4663
load 4662
धारक 4662
व्‍यापार 4662
Does 4661
invest@@ 4661
सईद 4661
stable 4660
आख़िरत 4660
ट्रम्प 4660
courses 4659
ici@@ 4657
तस्वीरों 4657
नागपुर 4657
UT 4656
eless 4654
गर@@ 4654
गुण@@ 4654
लगे। 4653
Day, 4652
Anurag 4651
peak 4651
spreading 4651
एका@@ 4651
लेखा@@ 4651
clean@@ 4650
टाइगर 4650
increase. 4649
दिवाली 4648
preparations 4647
।""" 4647
Bul@@ 4646
os, 4646
trust@@ 4646
कक्ष 4646
पंडित 4646
taken. 4644
defined 4643
region, 4642
tit@@ 4642
पीएस@@ 4641
Administration 4640
pleasure 4640
कर्म@@ 4640
लिखकर 4640
25, 4638
Motor 4638
protesting 4638
featured 4637
पढ़ें: 4636
चोटें 4635
फ़ा@@ 4635
मोर्चा 4635
जाएंगी। 4634
त्योहार 4634
विधिक 4633
Enter 4632
flo@@ 4632
suitable 4632
मधु@@ 4632
're 4631
फील्ड 4631
फुटेज 4631
rid@@ 4630
bbl 4629
scal@@ 4629
scheme. 4628
गुज़@@ 4627
हमलावर 4627
Hal@@ 4625
Jaipur 4625
entering 4625
छे@@ 4625
security. 4624
smaller 4624
Nirav 4623
जाए. 4623
द्वि@@ 4623
डरते 4622
रिश्तों 4622
स्वीकृत 4622
कमा@@ 4621
Ambedkar 4620
MT 4620
achieving 4620
Asi@@ 4619
Through 4619
attending 4619
conveyed 4619
पाया। 4618
भ 4618
Speci@@ 4617
transactions 4617
vir@@ 4616
factors 4615
fail@@ 4615
technology, 4615
venture 4615
क्लो@@ 4615
MO@@ 4614
payments 4614
450 4613
घू@@ 4613
bab@@ 4612
explain 4612
आन्ध्रप्रदेश 4611
ऑफिसर 4611
मृ@@ 4610
ari, 4609
effects 4609
इरा@@ 4609
७ 4609
Lo! 4608
citizenship 4608
ow, 4608
इसीलिए 4608
appearing 4607
देश, 4607
प्रबंधक 4607
हूं@@ 4607
मला@@ 4606
Ms 4605
RB@@ 4605
mechanism 4605
सबका 4605
Tom 4604
ell, 4604
remote 4604
अजित 4604
प्रतिभागियों 4604
प्रिय 4604
मेक 4604
messages 4603
IP 4602
MC 4602
hospital, 4601
ृ@@ 4601
reaches 4600
कोटा 4600
unidentified 4599
खों 4599
(टी@@ 4598
\\xa0 4598
area, 4598
Ru@@ 4597
six@@ 4597
धनराशि 4595
सुदृढ़ 4595
ics, 4594
इस्तीफे 4594
राणा 4594
ani. 4593
custom@@ 4593
interim 4593
person, 4593
इंडियंस 4593
नामित 4593
मलेशिया 4592
गहराई 4591
त्वचा 4591
मंदिरों 4591
ऑन 4590
क्त 4590
tension 4589
तारी@@ 4589
ails 4588
replaced 4588
किरण 4588
बजाज 4588
5G 4587
Tiwari 4587
bus@@ 4587
Chhattisgarh, 4586
dangerous 4586
भीषण 4586
urg@@ 4585
आएगा। 4585
package 4584
rav@@ 4584
Ben 4582
Padma 4582
नमूनों 4582
Us 4581
heaven 4581
down, 4580
visits 4580
इनसे 4580
ख्@@ 4580
ड़ियों 4580
साहस 4580
medals 4579
ST 4578
Sri@@ 4577
बीएचपी 4577
अप्र@@ 4576
आद@@ 4576
hike 4575
आदि@@ 4575
एसयूवी 4575
तला@@ 4575
फूड 4575
वाकई 4575
गुप्त 4574
Sushil 4573
धर@@ 4573
Valley 4572
tures 4572
रहे, 4572
Aadmi 4571
(NC@@ 4570
महोदय 4570
शौ@@ 4570
Uni@@ 4569
Were 4568
ard, 4568
आरोपित 4568
तैयारियों 4568
BRICS 4567
Varanasi 4567
has@@ 4567
hotel 4567
महंगाई 4567
साय@@ 4567
war. 4566
इसपर 4566
पकड़ने 4566
मुंबई, 4566
वार, 4566
उठाना 4565
घोष 4565
लो, 4565
एम्स 4564
ere 4563
jan 4563
tive. 4563
back, 4562
farmers, 4561
PTI. 4560
commit 4560
2017. 4559
reason@@ 4559
नगर, 4559
Amb@@ 4558
floor 4558
likes 4558
wave 4557
लोगो 4557
consultation 4556
चना 4556
पन्@@ 4556
ब्लू 4556
यी@@ 4555
चिन्@@ 4554
तिक 4554
मास्टर 4554
संस्कार 4554
papers 4552
अभाव 4552
शक़ 4552
हेक्टेयर 4552
PR@@ 4551
aut@@ 4551
ins, 4551
एनडी@@ 4551
धारण 4550
inaugurate 4549
कारा@@ 4549
crowd 4548
ier 4548
radi@@ 4548
sions 4548
e" 4547
v. 4547
रेस 4547
black@@ 4546
रखें। 4546
रूट 4546
B. 4545
combat 4545
एडी@@ 4545
बकाया 4545
राजद 4544
Sea 4543
चैंपियन 4542
party's 4541
bro@@ 4540
ie 4540
निष्@@ 4540
पाँच 4540
स्पीकर 4540
offence 4539
होंगी 4539
140 4538
Odisha, 4538
time@@ 4538
कलीसिया 4538
sun 4537
उर्फ 4535
गेहूं 4535
attached 4534
highway 4534
कड़ा 4534
Grand 4533
them: 4533
एंटी@@ 4533
मोटर्स 4533
class@@ 4532
लक्ष्यों 4532
Head 4531
IR@@ 4531
asks 4531
myself 4531
plastic 4531
premises 4531
Coal 4530
Jehovah, 4530
बीएस 4530
Lakh 4529
दक्षता 4529
निर्देशों 4529
माध्यमिक 4529
19, 4528
जापानी 4527
सन्‌ 4527
Nad@@ 4526
कंप@@ 4526
्स 4526
Working 4525
shops 4525
tournament. 4525
प्रतीक्षा 4525
सकेगा 4525
बाई 4523
Comm@@ 4520
Nand@@ 4520
Shraddha 4520
Rat@@ 4519
direction. 4519
आईपीसी 4518
minus 4517
500@@ 4516
Saturday. 4516
record@@ 4516
sup@@ 4516
UN@@ 4515
harmony 4515
quickly 4515
Covid 4514
ऊ 4514
territory 4513
मुक्ति 4513
Chaudhary 4512
Memorial 4512
soil 4512
भगत 4512
ott@@ 4511
एमसी@@ 4511
मूल@@ 4511
08 4509
iled 4509
दृ@@ 4509
Bl@@ 4508
approves 4508
nobody 4508
buses 4507
आरपी@@ 4507
सौंपी 4507
करोड़ों 4506
Ambani 4504
Yet, 4504
statue 4504
swe@@ 4504
कम्@@ 4504
जोश 4504
13. 4503
oper@@ 4503
telecom 4503
th-@@ 4503
agenda 4502
goals 4502
Tuesday. 4501
करी@@ 4501
बताती 4501
'हम 4500
MT@@ 4499
bigger 4499
गुजरात, 4499
स' 4499
funding 4498
raw 4498
अपहरण 4498
रखो 4498
पूर्वा@@ 4497
वादे 4497
captured 4496
Change 4495
valu@@ 4495
them? 4494
रवि@@ 4494
say@@ 4493
देवगन 4493
नूह 4493
date. 4492
नाज़िल 4492
certificate 4491
ung@@ 4491
भूटान 4490
सहयोगियों 4490
alternative 4489
ists, 4489
केएल 4489
चुन@@ 4489
तकों 4488
आएगी। 4487
20-@@ 4486
Chandigarh, 4486
prize 4486
पारदर्शिता 4486
services, 4484
wrote: 4484
ख़िलाफ़ 4484
पेरिस 4484
बुकिंग 4484
G) 4483
stress 4483
इरादा 4483
BSE 4482
Bel@@ 4482
alisation 4482
self@@ 4482
त्तर 4482
Ka@@ 4481
Shak@@ 4481
ite, 4481
watching 4481
हुड्डा 4481
aspir@@ 4480
लक्ष्मी 4480
सिफारिशों 4480
week@@ 4479
पासवान 4479
विचारधारा 4479
ored 4478
sentenced 4478
अधिकरण 4478
park 4477
context 4476
restrictions 4476
सेवकों 4476
माध्‍यम 4475
सावधान 4475
अपेक्षित 4474
गू@@ 4474
भंडार 4474
इराक 4473
advis@@ 4472
(O 4471
जीती 4471
दिनांक 4471
sem@@ 4470
नारेबाजी 4470
painful 4469
themselves. 4469
सुपरस्टार 4469
वोटिंग 4468
interaction 4467
pa 4467
ratio 4467
बी. 4467
1,7@@ 4466
Kap@@ 4466
bought 4466
pride 4466
अपर 4466
कर्तव्य 4466
जिनको 4466
अवसंरचना 4465
2% 4464
June, 4464
ground@@ 4464
पड़ती 4464
consumption 4462
AIIMS 4461
broken 4461
Professor 4460
ums 4460
wished 4460
भावी 4460
Border 4459
differences 4459
entitled 4459
अफ्रीकी 4459
नवंबर, 4459
mind. 4458
पोस्ट@@ 4458
मार्शल 4458
रजिस्ट्रेशन 4458
Aj@@ 4456
Sheikh 4456
activists 4456
its. 4456
period, 4455
places. 4455
वायु@@ 4455
संवेदना 4455
Dutt 4454
Lord! 4454
to. 4453
Lak@@ 4452
commun@@ 4452
portion 4449
previously 4449
भूत 4449
pose 4448
अरोड़ा 4448
नाज़िल 4448
प्पा 4448
फ्रे@@ 4448
ाई 4448
ail 4447
mighty 4447
together, 4447
ेगा। 4446
migrant 4445
दोस्ती 4445
IPS 4444
ट्रेड 4444
Hyundai 4443
organizations 4443
बाबू 4443
constitution 4442
दलील 4441
functions 4440
mixed 4440
पंजाबी 4440
Technical 4439
रहें। 4439
Agricultural 4438
Pad@@ 4438
गतिविधियां 4438
चार्जिंग 4438
टॉम 4438
पसंदीदा 4438
Haryana. 4437
Joe 4437
an: 4437
मेजबानी 4437
समझना 4437
absence 4436
cameras 4436
() 4435
1,8@@ 4435
Path@@ 4435
ist. 4435
represent 4435
solid 4435
लाहौर 4435
हंगामा 4435
Auto 4434
Earth 4434
ories 4434
EC 4433
सीएए 4433
Roh@@ 4432
consider@@ 4432
kh@@ 4432
launches 4432
एन. 4432
भू-@@ 4432
’, 4432
mad@@ 4431
कॉलेजों 4431
Kolkata, 4430
neighbouring 4430
Motors 4429
sen@@ 4429
अर 4429
इक्विटी 4429
फार्म 4429
mp@@ 4428
6,000 4427
makers 4426
night, 4426
आईए@@ 4426
emo@@ 4424
नमाज़ 4424
शरण 4424
Afghan 4423
Father 4423
ide. 4423
says: 4423
डोर 4423
प्रत्य@@ 4423
1,6@@ 4422
Tests 4422
September, 4421
statement, 4421
मरे 4421
Pras@@ 4419
list. 4419
peri@@ 4419
महोत्सव 4419
हुईं 4419
list@@ 4418
नजदीक 4418
रिलीज़ 4418
order, 4417
त्ता 4417
Bajaj 4416
Ive 4416
देखो 4416
शक्‍ति 4415
सेना@@ 4415
24, 4414
satellite 4414
turning 4414
Gopal 4413
resolved 4413
school. 4413
लोड 4413
end, 4412
मेजर 4412
SH@@ 4411
cycl@@ 4411
संभावनाओं 4411
९ 4411
pping 4410
Hong 4409
Pratap 4409
जवाहरलाल 4409
पाटिल 4409
लास 4409
सुधार@@ 4409
manager 4407
team, 4407
attitude 4406
country@@ 4406
जैविक 4406
टिक्स 4406
तै@@ 4406
नियो@@ 4406
सीमा@@ 4405
significantly 4404
thing@@ 4404
involvement 4402
हालिया 4402
नाते 4401
32@@ 4400
tickets 4400
consists 4399
इस्लामी 4399
न्द 4399
eness 4398
क्षि@@ 4398
क्‍या 4398
Bihari 4397
उत्पादक 4397
जाएगा@@ 4397
16, 4396
Def@@ 4396
That's 4396
devices 4396
U. 4395
journal@@ 4395
representing 4394
संतुष्ट 4394
secret 4393
manual 4392
bit@@ 4391
sla@@ 4391
aji 4390
attempts 4390
जला@@ 4390
जाएँ@@ 4390
sees 4389
अपनाया 4389
Rag@@ 4388
success. 4388
अभिव्यक्ति 4388
was, 4387
wrong. 4387
रिमांड 4387
council 4386
Pati@@ 4384
displayed 4384
लगाया। 4384
Arora 4383
links 4383
तरण 4383
agre@@ 4382
encouraged 4382
किले 4382
जोरदार 4382
less@@ 4381
:% 4380
error 4380
जडेजा 4380
माल्या 4380
Free 4379
suit 4379
imports 4378
पांचवें 4378
announce 4377
spending 4377
संज्ञान 4377
continuous 4376
control. 4376
murder@@ 4376
उपलब्धियों 4376
Korean 4375
promises 4375
Top 4374
ll@@ 4374
success@@ 4374
ट्रैफिक 4373
द्रा 4373
मात 4373
सिखा@@ 4373
slow@@ 4372
demise 4371
herself 4370
reiterated 4370
खरीद@@ 4370
गहन 4370
Gandhi@@ 4368
U.S. 4368
ads 4368
धीरे 4368
(a) 4367
ब्यू@@ 4367
ईसाई 4365
Ashwin 4364
ude 4364
स्वि@@ 4364
पांच@@ 4363
square 4360
कथा 4360
शान 4360
मिजोरम 4359
1,4@@ 4358
aining 4358
sheet 4358
materials 4357
आधार@@ 4357
सुख@@ 4357
Moh@@ 4356
महबूबा 4356
जीने 4355
क्‍स 4354
लव 4354
दबा@@ 4353
यूजर 4353
"He 4352
Mayawati 4352
Pay 4352
communic@@ 4352
पड़ताल 4352
व्यापारिक 4352
Woman 4351
यो 4351
supporters 4350
15,000 4349
Jal@@ 4349
bowlers 4349
investigate 4349
Naz@@ 4348
sens@@ 4348
reservoirs 4347
sight 4347
्‍या@@ 4347
Shetty 4346
ration 4346
किस्म 4346
Big 4345
Word 4345
2017@@ 4344
Peace 4344
निवासियों 4344
शह@@ 4344
Panchayat 4343
bir@@ 4343
गुलाम 4343
नग@@ 4343
consumers 4342
wonderful 4342
प्रतिकूल 4342
रु 4342
enhancing 4341
friendship 4341
अप्रैल-@@ 4340
चौके 4340
'मैं 4339
contained 4339
opener 4339
continuing 4338
pandemic. 4338
batsmen 4337
communal 4337
norms 4337
तैयारियां 4337
जितने 4336
मौलिक 4336
deposit 4335
finding 4335
एगी 4335
18, 4334
Rajendra 4334
Ty@@ 4334
ates, 4334
ज़िम्मेदारी 4334
Ambassador 4333
नुसार 4333
24.@@ 4332
अधिकृत 4332
ination 4331
नेक 4331
RRB 4330
खींच@@ 4330
ness@@ 4329
sequ@@ 4329
ath, 4328
beneficial 4328
कश्मीरी 4328
चलन 4328
कने 4327
-day 4326
hik@@ 4326
तैनाती 4326
निकायों 4326
सकती। 4326
ain, 4325
टिस 4325
हेड@@ 4325
Sciences 4324
inclusive 4324
media, 4324
नाराज 4323
ality. 4322
combined 4322
ef@@ 4322
forming 4321
transmission 4321
साइड 4321
23.@@ 4320
raped 4320
anyone. 4319
happen. 4319
instance, 4319
mankind 4319
पॉवर 4319
मुलायम 4318
वासियों 4318
ज़ा 4318
raj@@ 4317
मानसून 4317
Index 4316
na@@ 4316
2015, 4315
aff@@ 4315
aud@@ 4315
bike 4315
congratulate 4315
correct 4315
Centre, 4314
Add 4313
Number 4313
primarily 4313
चार्@@ 4312
Hor@@ 4311
company, 4311
seri@@ 4311
आक्रमण 4311
कड़@@ 4311
हल@@ 4311
Ni@@ 4310
ंदर 4310
सावधानी 4310
ery, 4309
enjoyed 4308
विनिमय 4308
assist 4306
चिकित्सकों 4306
amendment 4305
prison 4305
प-@@ 4305
ES@@ 4304
lowest 4304
एलईडी 4304
खिलाड़ी 4304
ines, 4303
qualified 4303
things, 4303
Lord@@ 4302
आजीविका 4302
AI 4301
E-@@ 4301
employ@@ 4301
glad 4301
भाषा@@ 4301
विनय 4301
hot 4300
कारक 4300
रहा, 4300
सैमसंग 4300
15th 4299
संभावनाएं 4299
मिली@@ 4298
सपने 4298
light@@ 4297
machine 4297
Badal 4296
खेली 4296
company. 4295
monsoon 4294
दुकान 4294
gains 4292
wheat 4292
बान 4292
Sen@@ 4291
let@@ 4291
कोर्@@ 4290
बिहार, 4290
NITI 4289
effec@@ 4289
rol@@ 4289
क्‍त 4289
L, 4288
ha. 4288
diseases 4287
stag@@ 4287
जसप्रीत 4287
सतीश 4287
16. 4286
long@@ 4286
एन्@@ 4286
बुमराह 4286
Sanskrit 4285
ala, 4285
ences, 4285
alls 4284
withdraw 4283
द्व@@ 4283
पाठ@@ 4283
दुखी 4282
बौ@@ 4282
स्रोतों 4282
(for 4281
assigned 4281
increases 4281
इंडिया@@ 4281
coverage 4280
stability 4280
गणेश 4280
rice 4279
Africa, 4278
preparing 4278
खन्ना 4278
समस्याएं 4278
ऑर्@@ 4277
Had 4276
महासागर 4276
generated 4275
ive 4275
possession 4275
झि@@ 4275
मतों 4275
Akhtar 4274
JEE 4273
एटी@@ 4273
दुआ 4273
वि‍@@ 4273
Bangladesh, 4272
Rev@@ 4272
closer 4272
धारा@@ 4272
गाना 4271
(भाषा) 4269
ely. 4269
पहा@@ 4269
मद्रास 4269
शील 4269
३ 4269
,000. 4268
Deep@@ 4268
एयरटेल 4268
कर्नाटक, 4268
resource 4267
wisdom 4267
dep@@ 4265
enn@@ 4265
namely 4265
काल@@ 4265
ग्री@@ 4265
grateful 4264
l, 4263
बढ़ाना 4263
Trophy 4262
टाइप 4262
ati, 4260
ee@@ 4260
नहीं) 4260
बारा@@ 4260
disaster 4259
post. 4259
इजरायल 4259
स्ता 4259
channels 4258
जित 4258
लिक 4258
धम@@ 4257
शक्तियों 4257
religion. 4256
M, 4255
legislative 4255
प्याज 4255
विज्ञप्ति 4255
आनन्द 4254
गहरे 4254
निशानी 4254
सोचते 4254
पर्रिकर 4253
Prophet 4252
aling 4252
वाद@@ 4250
45@@ 4249
CH@@ 4249
effectively 4249
अंदाज 4249
दिव@@ 4249
bility 4248
compl@@ 4248
Solar 4247
वु@@ 4247
curren@@ 4246
क़ा@@ 4246
शिया 4246
exactly 4245
जावड़ेकर 4245
लॉ 4245
सड़क 4245
PP@@ 4244
Smriti 4244
Trust 4244
arti@@ 4244
jurisdiction 4244
photograph@@ 4244
domin@@ 4243
गोगोई 4243
P.@@ 4241
film@@ 4239
नीतिगत 4239
voted 4238
त्रों 4238
संधि 4238
Further 4237
flag 4237
Chennai, 4236
president, 4236
बनता 4236
(IP@@ 4235
Adam 4235
figh@@ 4235
scope 4235
tain@@ 4235
emotional 4234
objec@@ 4234
छक्के 4233
जुड़@@ 4233
Sunny 4232
treat 4232
Bil@@ 4231
engagement 4231
ise. 4231
सम्‍@@ 4231
Axis 4230
complain@@ 4230
persons, 4230
wrote, 4229
diplomatic 4228
जीन 4228
No, 4227
अनुग्रह 4227
अफ@@ 4227
चरित्र 4227
Mod@@ 4226
स्वाभाविक 4226
protest@@ 4225
Sonakshi 4224
फर्म 4224
शाह, 4223
सोनाक्षी 4222
humans 4221
ऑयल 4221
निर्वाचित 4221
प्रसारित 4221
Well, 4220
-17 4219
31st 4219
October, 4219
wala 4219
बाँ@@ 4219
yp@@ 4218
आएंगी। 4218
त्व@@ 4218
फोर्ड 4218
ali, 4217
analysis 4217
firms 4217
fish@@ 4217
शास्त्री 4217
counter@@ 4216
दोनो 4216
Live 4215
आई. 4215
ania 4214
आरक्षित 4214
इलेवन 4214
AM 4213
charg@@ 4213
ऑप्शन 4213
comment@@ 4212
zone 4212
बेंच 4212
22, 4211
Safety 4211
peace, 4211
तौबा 4211
बढ़िया 4211
another. 4210
arm 4210
लिस 4210
weak 4209
४ 4209
letters 4208
पिक्@@ 4208
झो@@ 4207
Nokia 4206
Prices 4206
occup@@ 4206
sport 4206
महामहिम 4206
controversial 4205
hold@@ 4205
ise, 4205
एगी। 4205
प्रकरण 4205
कच्‍चे 4204
काला 4204
रों, 4204
Tripura 4203
expl@@ 4203
rab@@ 4203
जन्@@ 4203
ण) 4203
intended 4201
छोड़ 4201
ड़ने 4201
(ह@@ 4200
tel@@ 4200
फिटनेस 4200
विरूद्ध 4200
सेस 4200
winner 4199
Del@@ 4198
Innovation 4198
Wednesday. 4198
though, 4198
अध्‍यक्षता 4198
उधर, 4198
एकदम 4198
फ्रा@@ 4198
मित 4198
resulting 4197
मस्तिष्क 4197
bil@@ 4196
government@@ 4196
illustr@@ 4196
ठिकाना 4194
7) 4193
सीबीएसई 4193
मेघालय 4191
Jasprit 4190
Subsequently, 4190
crew 4190
प्रयुक्त 4190
overs. 4189
Australia. 4188
praised 4188
दह@@ 4188
बो 4188
Jain 4187
ईस्ट 4187
शिकायतों 4187
Noida 4185
basis. 4185
parties. 4185
sites 4185
25,000 4184
Nadda 4184
achievements 4184
permitted 4184
108 4183
Jharkhand, 4183
.The 4181
Americ@@ 4181
Kashmiri 4180
ves. 4180
ईमेल 4180
keen 4179
whenever 4179
र्र@@ 4179
Kur@@ 4178
Shukla 4178
phone. 4178
overseas 4177
दें, 4177
segment 4176
suggest 4176
अक्टूबर, 4175
attack, 4174
ली-@@ 4174
Val@@ 4173
fire@@ 4173
jec@@ 4173
ते. 4173
संत 4173
courage 4172
lak@@ 4172
wall 4172
मंदी 4172
लीक 4172
अपने-अपने 4171
Series 4170
ith@@ 4170
first, 4169
नतीजों 4169
30,000 4168
बारी 4168
सलाम 4168
associ@@ 4167
जानकर 4167
Bhopal 4166
आया@@ 4166
Ass@@ 4165
कबीर 4165
ceremony. 4164
ट्रां@@ 4163
फोकस 4163
डिवाइस 4162
संध्या 4161
अमेरिका, 4160
पकड़े 4160
श्रेय 4160
साफ़ 4160
Land 4159
Tir@@ 4159
hood 4159
जन, 4159
त्याग 4159
दाता 4159
सना 4159
सन् 4159
Thank 4158
home, 4158
pretty 4158
श्वर 4158
Prab@@ 4157
couldnt 4157
sum@@ 4157
Rani 4156
lac@@ 4156
Puri 4155
आधारशिला 4155
%, 4154
football 4154
Hindi, 4153
R, 4153
Sush@@ 4153
dry 4153
इबादत 4153
मुहम्मद 4153
Xi 4152
ric 4152
shoot 4152
पढ़ा@@ 4152
Gram 4151
existence 4151
(V@@ 4150
(एजेंसी) 4150
7: 4150
Commission@@ 4150
Nir@@ 4150
Work 4149
allocated 4149
्‍य@@ 4149
क्रियान्वयन 4148
सूचीबद्ध 4148
ages. 4147
स्को 4147
Mahar@@ 4146
efficiency 4145
विशेष@@ 4145
3GB 4144
Patil 4144
negoti@@ 4143
Att@@ 4142
Khans 4142
Second 4142
declare 4142
(क) 4141
Employment 4141
कारगर 4141
साह@@ 4141
selec@@ 4140
इल 4140
Adv@@ 4139
ks, 4139
ulation 4139
मिले@@ 4139
automatic 4138
सत्तारूढ़ 4138
sed. 4137
अकसर 4137
करेंगी। 4137
भंग 4137
indigenous 4136
ulate 4136
अमीर 4136
न्यायपालिका 4136
पिछ@@ 4136
दृष्टि@@ 4135
Rishi 4134
क्रम@@ 4134
ड़ी@@ 4134
युवराज 4133
earlier. 4132
ver, 4132
कोर्स 4132
घि@@ 4132
Video 4131
सीपी@@ 4131
yan 4130
क्वा@@ 4130
रखा। 4130
ements. 4129
संभालने 4128
amended 4127
प्रभा@@ 4127
Doc@@ 4126
अनाज 4126
क्री@@ 4126
ach 4125
emphasized 4125
piece 4125
ड्यूटी 4125
हल्की 4125
Aishwarya 4124
आदिवासी 4124
गोल@@ 4124
grad@@ 4123
हिंदुओं 4123
1/@@ 4121
मुफ्ती 4121
gift 4120
डालते 4119
know, 4118
oni@@ 4118
इंतजाम 4118
स्थितियों 4118
हेल्थ 4118
four@@ 4117
fraud 4117
shift 4117
Ahmad 4116
presidential 4115
purpose. 4115
तता 4115
hair 4114
मिश्रण 4114
हटा@@ 4114
Advani 4113
क्लि@@ 4113
तह@@ 4113
elder 4111
spinner 4111
टकर 4111
फे 4111
हान 4111
format 4110
अमर 4110
रविशंकर 4110
वोटों 4110
1996 4109
एआई 4109
imprisonment 4108
losses 4108
ls 4108
ees 4107
literature 4107
करना@@ 4107
पतरस 4107
रखकर 4107
acquired 4106
आईडी 4106
College, 4105
Lal@@ 4105
native 4105
कराया। 4105
जी) 4105
पुरूष 4105
शंस 4105
wit@@ 4103
tenure 4102
thanks 4102
quick 4101
ue, 4101
पॉलि@@ 4100
benef@@ 4099
da 4099
छोड़ा 4099
पासपोर्ट 4099
DA 4098
est, 4098
exit 4098
hall@@ 4098
आंशिक 4098
हाई@@ 4098
एडि@@ 4097
डिफेंस 4097
राजनयिक 4097
लित 4097
चैम्पियनशिप 4096
मुआवजा 4096
संघीय 4096
22.@@ 4095
ability. 4095
assault 4095
deser@@ 4095
ini@@ 4095
ock@@ 4095
इनाम 4095
त्रा 4095
May@@ 4094
-वि@@ 4093
Ku@@ 4091
expres@@ 4091
medicines 4091
घाटा 4091
बोस 4091
६ 4091
त्रुटि 4090
स्पोर्ट्स 4090
थोड़े 4089
Kim 4088
Tan@@ 4088
nation, 4088
protec@@ 4088
Prevention 4087
ep 4087
निर्दलीय 4087
मिलेंगे। 4086
F, 4085
campus 4085
गां@@ 4085
संस्@@ 4085
17, 4084
duties 4084
ously, 4084
replace 4084
achiev@@ 4083
cricket@@ 4083
lip@@ 4083
ied 4082
microSD 4082
Data 4081
NH@@ 4081
community. 4081
reasonable 4081
Bre@@ 4080
Hyderabad, 4080
conven@@ 4079
different. 4079
धातु 4079
-to-@@ 4078
Kabir 4078
conversation 4078
promis@@ 4078
December, 4077
igh@@ 4077
अनुचित 4077
after@@ 4076
shape 4076
State, 4075
anything. 4075
drama 4075
औरतों 4075
Ah@@ 4073
contested 4073
eff@@ 4073
tom@@ 4073
क्षे@@ 4073
पीड़ितों 4073
सकता. 4073
104 4072
File 4072
contributions 4072
रिपोर्@@ 4072
रेन 4072
स्पष्टीकरण 4072
T. 4071
University. 4071
कुरैशी 4071
रहा. 4071
exist@@ 4070
बृहस्पतिवार 4070
6) 4069
SU@@ 4069
click 4069
conspiracy 4069
grow@@ 4069
exam@@ 4068
mail 4068
Jews 4067
Ros@@ 4067
individu@@ 4067
पढ़ 4067
cells 4066
coordination 4066
house, 4066
नफरत 4066
मुख्‍यमंत्री 4066
Hindustan 4065
org@@ 4064
tically 4064
गी। 4064
Administr@@ 4063
divine 4063
i.e. 4063
टक 4063
शरी@@ 4063
votes. 4062
दिल@@ 4062
बिक 4062
arch@@ 4061
bir 4061
represents 4061
security, 4061
vers@@ 4061
गर्भवती 4061
ेंग@@ 4061
competi@@ 4060
lov@@ 4060
डालकर 4060
ब्रिक्स 4060
alities 4059
imag@@ 4059
ji, 4059
कार्या@@ 4059
निभाते 4059
मालदीव 4059
PG@@ 4058
alias 4058
hi. 4056
service. 4056
mother@@ 4055
mere 4054
renewable 4054
आगरा 4054
ज्ञ@@ 4054
इयों 4053
यरूशलेम 4053
विकासशील 4053
retirement 4052
लक्ष्‍य 4052
विभाग, 4052
23, 4051
Sand@@ 4051
conservation 4051
son@@ 4051
समी@@ 4051
Joh@@ 4050
Max 4050
provisi@@ 4050
टेशन 4050
innings. 4049
wish@@ 4049
मिया 4049
health, 4048
Canada 4047
Cs 4047
beauty 4047
her, 4047
V. 4046
केन्द्रों 4046
er? 4045
requ@@ 4045
stones 4045
teen 4045
बह 4045
Northern 4044
17. 4043
256GB 4043
bal 4043
justice. 4043
ः@@ 4043
कमीशन 4043
बैठकों 4043
सिवाय 4043
situation, 4041
All@@ 4040
religi@@ 4040
अतीत 4040
akes 4038
आईपी 4038
तथ्यों 4038
बाज़ 4038
Culture 4037
emphasis 4037
duo 4036
pleased 4036
आयतें 4036
points. 4035
क्रमशः 4035
निष्पक्ष 4035
Karnataka. 4034
Ps 4034
ation? 4034
grounds 4034
ंच 4034
नाश 4034
buildings 4033
truth, 4033
इंस्पेक्टर 4032
रेशन 4032
"Our 4031
aring 4031
releases 4031
road. 4031
आवाजाही 4031
तकरीबन 4031
वित्‍तीय 4031
ौर 4031
July, 4030
Lim@@ 4030
November, 4030
Pul@@ 4030
ented 4030
z, 4030
HD+ 4029
ब्रेक 4029
factory 4028
इन्कार 4028
श्रेणियों 4028
Dav@@ 4027
इरफान 4027
विक्रम 4027
K.@@ 4026
ands 4026
dram@@ 4026
Polic@@ 4025
I), 4024
चर्@@ 4024
JD(U) 4023
to, 4023
धक 4023
asser@@ 4022
se. 4022
आव@@ 4022
शुक्ला 4022
esh, 4021
नीत 4020
शख़्श 4020
disbelieve 4019
story. 4019
अधिकार@@ 4019
खनिज 4019
अवधारणा 4018
—@@ 4018
Narayan 4017
fear@@ 4017
Stock 4016
thir@@ 4015
worthy 4015
ws 4015
सर्वर 4015
Lt 4014
key@@ 4014
able@@ 4013
खपत 4013
Cont@@ 4012
right, 4012
निर्माण, 4012
बने। 4012
सेल्@@ 4012
नींद 4011
3.5 4010
accused, 4010
blessed 4010
जीएस@@ 4010
तु 4010
विद्या 4010
(जो 4009
1.0@@ 4009
designated 4009
hopes 4009
position. 4009
output 4008
pertaining 4008
कामयाबी 4008
Chi@@ 4007
ble. 4007
crime. 4007
ी-@@ 4007
AF@@ 4006
Ber@@ 4006
brid@@ 4006
ock 4006
यि@@ 4006
sou@@ 4004
मज़@@ 4004
mid@@ 4003
मेले 4003
तो) 4002
nur@@ 4001
गार@@ 4001
विद्यालयों 4001
आम@@ 4000
PD@@ 3999
si 3999
कारण, 3999
Hand@@ 3998
उपायुक्त 3998
Tribunal 3997
aside 3997
disp@@ 3995
exact 3995
पुत्रा 3995
afraid 3994
pip@@ 3994
अक्ष@@ 3994
एंड्रॉयड 3994
Chak@@ 3993
process@@ 3993
आलोक 3993
subjec@@ 3992
wear 3992
बोर्@@ 3992
750 3991
words, 3991
zation 3991
दोष@@ 3991
infec@@ 3990
जं@@ 3990
li, 3989
जूझ 3989
सीई@@ 3989
graduate 3988
mal 3988
Sik@@ 3987
Challengers 3986
cu@@ 3986
श्रमिक 3986
उद्देश्यों 3985
Nothing 3984
अकाली 3984
उपक्रम 3984
chose 3983
disease. 3983
E, 3982
decades 3982
unveiled 3982
ंप@@ 3982
आंखों 3982
सकेंगे 3982
civilian 3981
ick 3981
डब्ल्यू 3981
matches. 3980
school@@ 3980
Gehlot 3979
Sourav 3979
atic@@ 3979
cleared 3979
जयशंकर 3979
fastest 3977
चीज़ों 3977
anand 3976
hr@@ 3976
पेन 3976
लेनदेन 3976
Sin@@ 3975
ref@@ 3975
es/@@ 3974
EU 3973
stranded 3973
पंत 3973
3% 3972
Nas@@ 3972
ome@@ 3972
paise 3972
दय 3972
रेल@@ 3972
sion, 3971
वाणी 3971
recognition 3970
अध्या@@ 3970
शर@@ 3970
27.@@ 3969
Cour@@ 3969
Mit@@ 3969
Whats 3969
डिस्@@ 3969
वाशिंगटन 3969
complet@@ 3968
use. 3968
TR@@ 3967
बढ़ा@@ 3967
स्ट्रीट 3967
20th 3966
asserted 3966
examine 3966
two. 3966
क्षमताओं 3966
बाला@@ 3966
Jadeja 3965
indicated 3965
आकर्षण 3965
13, 3964
AG@@ 3964
Cro@@ 3964
pra@@ 3964
won't 3964
Khattar 3963
institutional 3963
August, 3962
tis 3962
कमिश्नर 3962
श्य@@ 3961
Chand 3960
Integrated 3960
Law@@ 3960
develop@@ 3960
26.@@ 3959
Raksha 3959
reform 3959
sacred 3959
ओं@@ 3959
burning 3958
influ@@ 3958
maker 3958
वस्तु@@ 3958
diverse 3957
आखिरकार 3957
उदार 3957
leaders. 3956
कद@@ 3956
गणमान्य 3956
धैर्य 3956
वाने 3956
dre@@ 3955
images 3955
21st 3954
47@@ 3954
engage 3954
operate 3954
otherwise 3954
प्रतिशत), 3954
(ख) 3953
SSC 3953
Tribal 3953
autom@@ 3953
lot. 3953
कार्यालयों 3953
खरी@@ 3953
650 3952
effici@@ 3952
post-mortem. 3952
quali@@ 3952
प्रीत 3952
show. 3951
सौदा 3951
Blue 3950
manage 3950
दिक्कत 3950
Mehbooba 3949
harassment 3949
वसूली 3949
Gener@@ 3948
actively 3948
od 3948
परिदृश्य 3948
अनुभवी 3947
जताते 3947
प्रशंसकों 3947
emerg@@ 3946
hate 3946
teach@@ 3946
arian 3945
blue 3945
Aw@@ 3944
mission@@ 3944
ट्रॉ@@ 3944
Pakistan@@ 3943
]@@ 3943
आज@@ 3943
फोरम 3943
Poll@@ 3942
count 3942
started. 3941
आपात 3941
बुद्ध 3941
भूमिकाओं 3941
Pi@@ 3940
aus@@ 3939
hockey 3939
nec@@ 3939
आश्वस्त 3939
खर@@ 3939
पीवी 3939
मार्गों 3938
लगी। 3938
2018@@ 3937
Trinamool 3937
strikes 3937
गए@@ 3937
Phot@@ 3936
fast@@ 3936
oring 3935
improv@@ 3934
towns 3934
संरक्षक 3934
de. 3933
istic 3933
vice-president 3933
केल 3933
धिक 3933
members, 3932
officials. 3932
तीव्र 3932
मुम्बई 3932
लिए) 3932
Could 3931
Officials 3931
Sidharth 3931
डिस्क 3931
मिर्@@ 3931
समकक्ष 3931
HRD 3930
Political 3929
purchased 3929
भागने 3929
लॉग 3929
समाप्ति 3929
निवारण 3928
यूहन्‍ना 3928
claiming 3927
ree 3927
प्रयोजन 3927
introduce 3926
pel@@ 3926
seventh 3926
सेज 3926
2013-14 3925
पीएस 3925
Gh@@ 3924
div@@ 3924
टन, 3924
(19@@ 3923
-2 3923
Application 3923
George 3923
`@@ 3923
etc.@@ 3923
प्रकोप 3923
मीट्रिक 3923
(200@@ 3922
Goddess 3922
issue, 3922
परिजन 3922
ET@@ 3921
mine 3921
addresses 3920
iness 3920
क्षा 3920
बें@@ 3920
Thereafter, 3919
happ@@ 3919
59@@ 3918
एनआईए 3918
Hospital, 3917
auto 3917
hai 3917
rati@@ 3917
सर्वोत्तम 3917
latter 3916
Navjot 3915
UA@@ 3914
professor 3914
ps, 3914
said@@ 3914
अवार्ड 3914
1984 3913
democracy. 3913
HR@@ 3912
mel@@ 3912
मान्य 3912
बसों 3911
हिस्@@ 3911
LPG 3910
ah. 3910
जाएगी, 3910
वली 3910
understood 3909
क्वार्टर 3909
Production 3908
Technology, 3908
talent 3908
SE 3907
उपज 3907
laundering 3906
maritime 3906
गुल@@ 3906
दिग्विजय 3906
पाना 3906
रे, 3906
समर्पण 3906
जनजाति 3905
बदौलत 3905
विंदर 3905
Love 3904
studied 3904
temporary 3904
trouble 3904
इंजीनियर 3904
les, 3903
phys@@ 3903
questioning 3903
थल 3903
Shiva 3902
signing 3902
यक़ीनन 3902
largely 3901
refers 3901
पीसी@@ 3901
हारी 3901
hari 3900
studying 3900
volume 3900
किट 3900
जहा@@ 3900
deals 3899
minority 3899
क्या? 3899
30-@@ 3898
Arabia 3898
approv@@ 3898
ins. 3898
छी@@ 3898
रहेगी 3897
own. 3896
Friends, 3895
fan 3894
question@@ 3894
stronger 3894
e' 3893
help. 3893
proposals 3893
tive, 3893
सका। 3893
Aaron 3892
Vijay@@ 3892
claim@@ 3892
occur 3891
tor, 3891
आरम्भ 3891
दिलाया 3891
Jason 3890
आएगा 3890
गे, 3890
फ्री@@ 3890
Commonwealth 3889
Promotion 3889
January, 3888
ODIs 3888
fair@@ 3888
ते-@@ 3888
प्रयोगशाला 3888
राई 3888
सिय@@ 3888
containing 3887
दर्दनाक 3887
accidents 3886
motion 3886
आधा 3886
fruit 3885
नारे 3885
मूल्य@@ 3885
सभाओं 3885
families. 3884
आत्मनिर्भर 3884
However 3883
Israel, 3883
bomb 3883
market, 3883
rival 3883
sharp 3883
सर्किट 3883
Ter@@ 3882
मत्ती 3882
मांस 3882
counting 3881
tioned 3881
आमदनी 3881
preaching 3880
निपटान 3880
Bollywood. 3879
Pen@@ 3879
Tomar 3879
ders 3879
round@@ 3879
चुन 3879
मुख 3879
Intelligence 3878
चार्य 3878
believing 3877
store 3877
संस्थागत 3877
PL@@ 3876
acquisition 3876
alone. 3876
एसएस@@ 3876
Bharat@@ 3875
immediately. 3875
level, 3875
visa 3875
बन्द 3875
kar. 3874
वर्जन 3873
1998 3872
ika 3872
नी) 3872
रब! 3872
acres 3871
Syed 3870
father@@ 3870
seeds 3870
visitors 3870
अड्डा 3870
चीन, 3870
मीर 3870
सहे@@ 3870
households 3869
आईएस 3869
आधारभूत 3869
ख़ास 3869
जोड़े 3869
projec@@ 3868
आँ@@ 3868
(एच@@ 3867
सान 3867
Lab@@ 3866
pilgrims 3866
ख, 3866
डरा@@ 3866
व्याख्या 3866
ition 3864
separ@@ 3864
एजुकेशन 3864
Khar@@ 3863
aram 3863
pac@@ 3863
experiences 3862
कस 3862
pil@@ 3861
earthquake 3860
ब्रै@@ 3860
Servic@@ 3859
vic@@ 3859
इम्@@ 3859
दमकल 3859
पट्@@ 3859
50% 3858
Memorandum 3858
Rio 3858
दुरुपयोग 3858
Companies 3857
Oppo 3857
discrimin@@ 3857
fied. 3857
organic 3857
शक्ति@@ 3857
संघ@@ 3857
ियों@@ 3857
सी-@@ 3856
जायजा 3855
Forum 3854
पहुँच@@ 3854
सुनते 3854
ailing 3853
cr 3853
ene 3853
overcome 3853
क' 3853
छेड़छाड़ 3853
Chit@@ 3852
house@@ 3852
lam 3852
monitor 3852
टूर 3852
बंधन 3852
मतभेद 3852
समावेशी 3852
हिट 3852
19. 3851
aries. 3851
punishment. 3851
दो-दो 3851
प्रदीप 3851
Por@@ 3850
observe 3850
He, 3849
Joseph 3848
P), 3848
Enforcement 3847
एंग@@ 3847
seas@@ 3846
ड) 3846
सेवानिवृत्त 3846
नाथ@@ 3845
मांगों 3845
away, 3844
i) 3844
weigh@@ 3844
Rana 3843
stream 3843
में. 3843
58@@ 3842
bad@@ 3842
टर्मिनल 3842
व्यवस्थित 3842
Ari@@ 3841
extensive 3841
urge 3841
उर्@@ 3841
Associ@@ 3840
श्रेष्ठ 3840
संरक्षित 3840
सतर्क 3840
हन 3840
‘‘मैं 3840
May, 3839
Far@@ 3838
here@@ 3838
वाल, 3838
Whatever 3837
comfor@@ 3837
points, 3837
warm@@ 3837
कुंजी 3837
(अनंतिम) 3836
Phil@@ 3836
inner 3836
sid@@ 3836
tal 3836
आवश्‍यक 3836
राजेंद्र 3836
religion, 3835
एकदिवसीय 3835
रोशनी 3835
-e-@@ 3834
BS 3834
Verily 3834
ऊपरी 3834
मुनाफा 3834
​@@ 3834
Offic@@ 3833
बटन 3833
मेडल 3833
Janhvi 3832
composed 3832
शॉ@@ 3832
67@@ 3831
Hussain 3831
Prov@@ 3831
articles 3831
has, 3831
journalists 3831
tremendous 3831
८ 3831
pure 3830
फुट 3830
Gogoi 3829
Thou 3828
changed. 3828
शोधन 3828
Nay@@ 3827
Madras 3826
ature 3826
au 3826
intention 3824
2013. 3823
Moto 3823
मित्रों 3823
bh@@ 3822
cut@@ 3822
खासतौर 3822
Kerala. 3821
attract 3821
month@@ 3821
गुजर 3821
Swar@@ 3820
removal 3820
aming 3819
liquor 3819
telling 3819
एम्@@ 3819
Sit@@ 3818
inaugural 3818
विधेयक, 3818
LORD 3817
Squ@@ 3817
उठाते 3817
कुमारी 3817
दा) 3817
धीमी 3817
Launch 3816
Str@@ 3816
नर, 3816
शशि 3816
(IS@@ 3815
asts 3815
which, 3815
किस्@@ 3815
चिकित्सक 3815
पोस्टमॉर्टम 3815
पॉलिसी 3814
फौरन 3814
date, 3813
moon 3813
o) 3813
नवीनतम 3813
Award@@ 3812
long-term 3812
Off@@ 3811
shar@@ 3811
जादू 3811
पान 3811
मुख्य@@ 3811
Left 3810
Ms. 3810
ney 3810
जुटाने 3810
FDI 3809
Revenue 3809
SIT 3809
मिया@@ 3809
Dhar@@ 3808
taste 3808
मेजबान 3808
Till 3807
उतर 3807
क्रू@@ 3807
यां 3807
लूट 3807
सब्@@ 3805
Muslim@@ 3804
लापरवाही 3804
मैने 3803
वास@@ 3802
eries 3800
ary@@ 3799
oo 3799
फिलि@@ 3799
साधा 3799
Pandya 3798
क्षतिग्रस्त 3798
Non-@@ 3797
Punjabi 3797
Saf@@ 3797
speak@@ 3797
uck@@ 3797
पण 3797
फैशन 3797
रवि 3797
Don't 3796
मौतें 3796
responded 3795
संगत 3795
endeav@@ 3794
69@@ 3793
host@@ 3793
1-0 3792
Dharmendra 3792
गीता 3792
दिल्ली-@@ 3792
Merciful. 3791
School, 3791
screen@@ 3791
हिं@@ 3791
:30 3790
कुमाऊँ 3790
विष@@ 3790
equivalent 3789
pray@@ 3789
टियों 3789
आधे 3788
Constitution. 3787
दीक्षित 3787
Championship 3785
gap 3785
marry 3785
ming 3785
sleep 3785
ईसा 3785
तन@@ 3785
lay@@ 3784
April-@@ 3783
Silver 3783
main@@ 3783
officials, 3783
दमदार 3783
ground. 3782
sign@@ 3781
suff@@ 3781
दिलीप 3781
jawans 3780
नवजोत 3780
वस्त्र 3780
(एक 3779
SR@@ 3779
evid@@ 3779
सिर@@ 3779
ith 3778
rent 3778
reveal 3778
ग्राफ 3778
ग्‍@@ 3778
छात्राओं 3778
भव्य 3778
मल्होत्रा 3778
Kohli, 3777
precious 3777
pu@@ 3777
wel@@ 3777
सितम्बर 3777
(आईसी@@ 3776
thee, 3776
लीला 3776
ff 3775
integrity 3775
slammed 3775
right@@ 3774
child. 3773
आस-पास 3773
श्रीदेवी 3773
Amritsar 3772
satisfaction 3772
प्रमाणपत्र 3772
सुलझाने 3772
28, 3771
continuously 3771
researchers 3770
shortage 3770
spr@@ 3770
Sikkim 3769
Warner 3769
are: 3769
Cal@@ 3768
PV 3768
appreci@@ 3768
arrive 3768
complex@@ 3768
doub@@ 3768
recently. 3768
तालमेल 3768
ब्रो@@ 3768
यों, 3768
चैन 3767
2010-11 3766
Da@@ 3766
कर्नल 3766
क्ली@@ 3766
यक़ीनन 3766
Vajpayee 3765
newspaper 3765
suspect 3765
Monday, 3764
depos@@ 3764
methods 3764
trip 3764
yed 3764
तालिका 3764
प्रदेश@@ 3764
26, 3763
calcul@@ 3763
will, 3763
डिस्काउंट 3763
withdrawal 3762
event, 3761
sources, 3761
4% 3760
CD 3760
Hrithik 3760
interest@@ 3760
छठे 3760
1990 3759
ँ, 3759
Dalit 3758
salary 3758
saving 3758
गणित 3758
मेगावाट 3758
ements, 3757
लायक 3757
better. 3756
criticised 3756
significance 3756
virtual 3756
प्रासंगिक 3756
CA 3755
Session 3755
our, 3755
ses, 3755
ग्राउंड 3755
excited 3754
बुर्@@ 3754
businesses 3753
जिंदा 3753
विशेषता 3753
customer 3752
पकड़ा 3752
स्‍थापित 3752
convey 3751
उद्यमों 3751
बीएसएफ 3751
Mishra, 3750
Star@@ 3750
fallen 3750
growth. 3750
itself. 3750
metro 3750
क’ 3750
Om 3749
oh@@ 3749
अन्यथा 3749
क्षा@@ 3749
बस्ती 3749
complaint. 3748
treat@@ 3748
ऋ-ऊण्श्छ्ष्-@@ 3748
ensured 3747
nationals 3747
अनंत 3747
किया? 3747
फल@@ 3747
समर्थित 3747
%s 3746
Saina 3746
eating 3746
eminent 3746
industry, 3746
specially 3746
क्की 3746
चलो 3746
ड्यू@@ 3746
राजकीय 3746
aug@@ 3745
bowl 3744
ide, 3744
legislation 3744
lim@@ 3744
Exam 3743
Model 3743
news. 3743
आवासीय 3743
"My 3742
>> 3741
adopt 3741
inform 3741
Africa. 3740
itor 3740
mos@@ 3739
एहसास 3739
पुरस्‍कार 3739
Fil@@ 3738
var@@ 3738
सरकारें 3738
escape 3737
ander 3736
pha@@ 3736
एसएमएस 3736
reject 3735
survived 3735
झड़प 3735
नियोजन 3735
3000 3734
Paris 3734
Sinha, 3734
कॉरपोरेशन 3734
मैनेजर 3734
साम्राज्य 3734
C), 3733
ideal 3733
जीता। 3733
Development, 3732
enemy 3732
hop@@ 3732
0,000 3731
त्र, 3731
jun@@ 3730
पंक्ति 3730
hospit@@ 3729
sanitation 3729
ठो@@ 3729
मिल्@@ 3729
अभियुक्त 3728
मैनेजमेंट 3728
O, 3727
irrigation 3727
thank@@ 3727
treas@@ 3727
अनुप्रयोग 3727
राधा 3727
commissioner 3726
form. 3726
एमसी 3726
हौ@@ 3725
मारकर 3724
शोर 3724
Command 3723
Money 3723
available. 3723
ump@@ 3723
ार्थ@@ 3723
ren 3722
इस्लामाबाद 3722
गायब 3722
ER 3721
pick 3721
गार्ड 3721
जायेगी। 3721
माया 3721
मेहरबान 3721
ordinary 3720
ओम 3720
निर्णायक 3720
फरमा@@ 3720
ow. 3719
्यों 3719
12: 3718
Diesel 3718
action, 3718
tual 3718
फार@@ 3718
स्कू@@ 3718
18. 3717
ones, 3717
wai@@ 3717
टाई 3717
HO@@ 3716
फूल 3715
Him, 3714
inspiration 3713
चाहिये। 3713
अनुमोदन 3712
Online 3711
conference. 3711
ek 3711
लाकर 3711
motor 3710
vely 3710
बाग@@ 3710
(PM@@ 3709
MW 3709
आवाज़ 3709
जावेद 3709
MSME 3708
in-charge 3708
ईमानदारी 3708
कार्यभार 3708
२००@@ 3708
L. 3707
practical 3706
राउत 3706
(provisional) 3705
Arab 3705
ak, 3705
coaches 3705
ect 3705
शियल 3705
..@@ 3704
Bumrah 3704
आईएएस 3704
Greek 3703
ound, 3703
कमलनाथ 3703
यूं 3703
द्ध@@ 3702
Roo@@ 3701
ood 3701
roll@@ 3700
सरो@@ 3700
सर्विसेज 3700
Delhi's 3699
अबतक 3699
Select 3698
Shami 3698
cel@@ 3698
itors 3698
push 3698
understand@@ 3698
uting 3698
speaks 3697
ट्वि@@ 3697
consult@@ 3696
folk 3696
उजागर 3696
कही। 3696
do? 3695
object 3695
मणि@@ 3695
(भी) 3694
Convention 3694
dear 3694
destination 3694
ंगा@@ 3694
एटीएम 3694
cycle 3693
एकत्रित 3693
गियरबॉक्स 3693
विश्@@ 3693
सतर्कता 3693
हें 3693
Presidents 3692
institute 3692
क़्@@ 3692
प्रमोशन 3692
subsidy 3691
ality, 3690
business@@ 3690
विद्यमान 3690
उत्सर्जन 3689
Ltd. 3688
ligh@@ 3688
rog@@ 3688
earn@@ 3687
filmmaker 3686
urgent 3686
निवेशक 3686
परे 3686
जौ@@ 3685
industri@@ 3684
उपबंधों 3683
खण्ड 3683
spot, 3682
tru@@ 3682
डेरा 3682
बालों 3682
जुड़े 3681
हुंडई 3681
behavi@@ 3680
dismis@@ 3680
flagship 3680
grace 3680
protected 3680
पहुंची। 3680
मियों 3680
Peoples 3679
probing 3679
बैन 3679
Bro@@ 3678
चिंताओं 3678
-in-@@ 3677
shop@@ 3677
सामर्थ्य 3677
House. 3676
gender 3676
metal 3676
regime 3676
लिंग@@ 3676
") 3675
28.@@ 3675
occupied 3675
लेगा। 3675
(जे@@ 3674
diplom@@ 3674
प्रोटोकॉल 3674
बॉल 3674
सोसाइटी 3674
handling 3673
preliminary 3673
सिद्ध@@ 3673
Bhat@@ 3672
Tor@@ 3672
tweeted, 3672
(संशोधन) 3671
blamed 3671
mark@@ 3671
थरूर 3671
मेमोरी 3671
रजिस्टर 3671
सौरव 3670
counterpart 3669
लय@@ 3669
शक्@@ 3669
Iranian 3668
ers: 3668
root 3668
ज़ोर 3668
वार्ड 3668
Yuvraj 3667
argument 3667
display. 3667
hand. 3667
hav@@ 3667
omi 3667
औषधि 3667
bin 3666
प्रेम@@ 3666
Prem 3665
collective 3665
language. 3665
परेड 3665
ैर 3665
Cup. 3664
modi@@ 3664
आदम 3664
संगठित 3664
55@@ 3663
doc@@ 3663
employee 3663
factor 3663
society, 3663
undertake 3663
म्प 3663
membership 3662
उतार 3662
सिक्@@ 3662
personally 3661
stak@@ 3661
S-@@ 3660
Smt. 3660
by-@@ 3660
उद@@ 3660
गुमराही 3660
10-@@ 3659
aking 3659
deliver@@ 3659
ze. 3659
पुनर्वास 3659
Pow@@ 3658
inda 3658
J&K 3657
Standard 3657
asc@@ 3657
आईडी@@ 3657
डीज 3657
forecast 3656
सृजित 3656
29, 3655
activist 3655
ज-@@ 3655
जन-@@ 3655
Arab@@ 3654
explore 3654
predicted 3654
rescued 3654
नज@@ 3654
मुसीबत 3654
मुझ@@ 3653
27, 3652
US. 3652
ry@@ 3652
uv@@ 3652
wicked 3652
birds 3651
launching 3651
घ 3651
uti@@ 3650
आग@@ 3650
जार@@ 3650
पांड@@ 3650
फ्लाइट 3650
5MP 3649
याकूब 3649
combination 3648
इन्होंने 3648
करतारपुर 3648
Jonas 3647
Sy@@ 3647
नेकी 3647
नेस 3647
ल्ल@@ 3647
President's 3646
ीं 3646
fitness 3645
खेल@@ 3645
Irani 3644
drawing 3644
greatly 3644
विटामिन 3644
outcome 3643
धोखा 3643
मूलभूत 3643
Friday, 3642
Nanak 3642
field. 3642
setup 3642
14: 3641
movies 3641
poly@@ 3641
(तो 3640
kingdom 3640
substantial 3640
Psalm 3639
lots 3638
processes 3638
regulatory 3638
मंत्री@@ 3638
ver. 3637
खेत 3637
IC 3636
सर्च 3636
Main@@ 3635
apur@@ 3635
ency. 3635
market@@ 3635
पेमेंट 3635
मरी@@ 3635
30. 3634
feed 3634
lifted 3634
master 3634
method@@ 3633
ear 3632
rolled 3632
टी. 3632
सुर्खियों 3632
deleg@@ 3631
दुर्गा 3631
दुश्मन 3631
1,3@@ 3630
षी 3630
सोचने 3630
Ji 3629
polls, 3629
आक्रामक 3629
एल्@@ 3629
जनक 3629
जाल 3629
जोधपुर 3629
Pacific 3628
Shashi 3628
heed 3628
जमीनी 3628
वाड्रा 3628
से। 3628
Mother 3627
released. 3627
फं@@ 3627
Mr.@@ 3626
investig@@ 3626
अंडमान 3626
Jadhav 3625
amp@@ 3625
समर्थ 3625
chapter 3624
अत्याचार 3624
पंकज 3624
मेयर 3624
साध@@ 3624
scoring 3623
डील 3623
संक्षिप्त 3623
साहब 3623
Play 3622
Mufti 3621
foot 3621
postmortem 3621
अर्जी 3621
छत 3621
भेज@@ 3621
Full 3620
ana@@ 3620
2,0@@ 3619
Gen@@ 3619
कॉफी 3619
ट्रेनें 3619
LO@@ 3618
em 3618
ud 3618
Al-@@ 3617
introduction 3617
registering 3617
ताज 3617
साई@@ 3617
mother, 3616
सांख्यिकी 3616
सांप्रदायिक 3616
ba@@ 3615
bomb@@ 3615
post-mortem 3615
works. 3615
fix@@ 3614
norm@@ 3614
राकांपा 3614
Nan@@ 3613
aur@@ 3613
this@@ 3613
ऑर्डर 3613
समितियों 3613
170 3612
Akbar 3612
ugg@@ 3612
नक 3612
auction 3611
our. 3611
पसन्द 3611
बदमाशों 3611
सानिया 3611
हिमा@@ 3611
11: 3610
Main 3610
faith. 3610
morning, 3610
oun@@ 3610
rain@@ 3610
stocks 3610
ऊँ@@ 3609
ज़े 3609
तिहाई 3609
फरी@@ 3609
Afric@@ 3608
तीस 3608
दावों 3608
रान 3608
स्वदेशी 3608
proc@@ 3607
ख़ुद 3607
transportation 3606
कमाल 3606
तना@@ 3606
operated 3605
SA 3604
चक 3604
appreciation 3603
career. 3603
fly 3603
वेल@@ 3603
256 3602
Gan@@ 3602
Mary 3602
केन्द्रित 3602
act. 3601
dignitaries 3601
integr@@ 3601
Parrikar 3600
SSP 3600
capit@@ 3600
ears 3600
issues, 3600
ओवैसी 3600
Kane 3599
Ul@@ 3599
color 3599
on) 3599
नजदीकी 3599
NDRF 3598
आहार 3598
कना@@ 3598
कारी@@ 3598
थै@@ 3598
स्टन 3598
Secretariat 3597
deemed 3597
matter, 3597
ode 3597
tar 3597
क्षेत्र, 3597
Dubai 3596
Umesh 3596
but@@ 3596
recalled 3596
जोकि 3596
यूरो 3596
सुधारने 3596
(दुनिया 3595
desi@@ 3595
eigh@@ 3595
enabled 3595
fish 3595
ईमानदारों 3595
रत्न 3595
RTI 3594
\@@ 3594
patri@@ 3593
ट्रांस@@ 3593
दुष्@@ 3593
floods 3592
ऐश्वर्या 3592
व्‍यवस्‍था 3592
75@@ 3591
Dist@@ 3591
Pil@@ 3591
Therefore 3591
बेंगलुरू 3590
मेगा@@ 3590
25. 3589
लीन 3589
वियतनाम 3589
Electronics 3588
firmly 3588
strengthened 3588
अतिरिक्‍त 3588
बताना 3588
सैयद 3588
ंप 3587
d) 3586
polic@@ 3586
universal 3586
आचरण 3586
आशय 3586
क्षित 3585
नानक 3585
पीटर 3585
AYUSH 3584
BSNL 3584
Cell 3584
करेगा. 3584
नागर 3584
K, 3583
edly 3583
technology. 3583
हॉलीवुड 3583
Jud@@ 3582
motiv@@ 3582
पारदर्शी 3582
Baj@@ 3581
covers 3581
road@@ 3581
tend@@ 3581
उद्यमियों 3581
depends 3580
greeted 3580
एससी@@ 3580
णु 3580
पुकार@@ 3580
विराम 3580
चेहरा 3579
छात्र@@ 3579
संभाल 3579
Sav@@ 3578
Various 3578
सदा 3578
Mark@@ 3577
poster 3577
repl@@ 3577
antly 3576
box@@ 3576
manag@@ 3576
targets 3575
moment. 3574
अच्छ@@ 3574
अपलोड 3574
बर्बाद 3574
21. 3573
Nov@@ 3573
announces 3573
राव@@ 3573
've 3572
A.@@ 3572
Dera 3572
entirely 3572
presided 3572
tweet, 3572
अब्बास 3572
क्रॉ@@ 3572
लेन-देन 3572
agit@@ 3571
f, 3571
dead, 3570
encouraging 3570
residential 3570
ट्स@@ 3570
दूत 3570
आस@@ 3569
परिभाषा 3569
शूट 3569
Would 3568
fron@@ 3568
struc@@ 3568
Kisan 3567
Know 3567
Middle 3567
operation. 3567
कम्पनी 3567
पर्वत 3567
शरीक 3567
6th 3566
equally 3565
ker 3565
eter@@ 3563
food. 3563
heart. 3563
t's 3563
ड़कर 3563
ese 3562
moves 3562
ya. 3562
fund@@ 3561
progress. 3561
supposed 3561
यूपीए 3561
रणदीप 3561
उपयोगकर्ता 3560
murder. 3559
ली. 3559
T-@@ 3558
पॉल 3558
eting 3557
मल्@@ 3557
मुखिया 3557
ष्ट 3557
!@@ 3556
अंसारी 3556
सिंगल 3556
्यो@@ 3556
breaks 3555
ency, 3555
तेज@@ 3555
स्पर्धा 3555
स्पॉट 3555
(एल@@ 3554
assistant 3554
danger 3554
hosts 3554
इस्‍तेमाल 3554
जॉर्ज 3554
App 3553
N. 3553
Telangana, 3553
ography 3553
जीवन@@ 3553
वकीलों 3553
6% 3552
Cur@@ 3552
Official 3552
ages, 3552
champion 3552
w, 3552
ंगों 3552
आशा@@ 3552
Vs 3551
commanded 3551
ups 3551
वाना 3551
व्यापारी 3551
हटाया 3551
Alok 3550
Ind 3550
change, 3550
हं@@ 3550
anth@@ 3549
happy. 3549
labourers 3549
ood@@ 3549
render 3549
प्रो. 3549
hidden 3548
preparation 3548
तम@@ 3548
करूंगा। 3547
निम्@@ 3547
rare 3546
नान 3546
anch@@ 3545
सूर 3545
forgiveness 3544
super 3544
वर्धन 3544
स्टॉ@@ 3544
40,000 3543
Hockey 3543
tea 3543
van@@ 3543
उच्‍च 3543
एनआर@@ 3543
Basket 3542
खुल 3542
मंत्र@@ 3542
do, 3541
els. 3541
farming 3541
flying 3541
jeet 3541
मुकदमे 3541
रचनात्मक 3541
Russia, 3540
ओवरों 3540
गुवाहाटी 3540
Secretaries 3539
canc@@ 3539
founded 3539
दाय@@ 3539
pursue 3538
ided 3537
चलाई 3537
बपतिस्मा 3537
वी, 3537
े? 3537
tow@@ 3536
wage 3536
समय, 3536
ख़ा@@ 3536
२०@@ 3536
Robert 3535
स्मरण 3535
1,9@@ 3534
Gandhi's 3534
shelter 3534
torment 3534
मैक@@ 3534
FC@@ 3533
Say 3533
fun@@ 3533
मुना@@ 3533
expert 3532
limits 3532
united 3532
चारा 3532
sty@@ 3531
रिश्ता 3531
subsequent 3530
Vikram 3529
visi@@ 3529
पर्दे 3529
Satish 3528
lands 3528
three-match 3528
पुतिन 3528
व्‍यक्‍त 3528
tures, 3527
BE@@ 3526
ability, 3526
गायक 3526
ool 3525
tors, 3525
officially 3524
smartphones 3524
terrorism. 3524
प्प@@ 3524
Gandhis 3523
Over@@ 3523
petitions 3523
wherever 3523
किसने 3523
णु@@ 3523
Mandi 3522
Vol@@ 3522
चम्मच 3522
देगी 3522
नाएं 3522
सूच@@ 3522
Shah. 3521
coast 3521
टेलीफोन 3521
processor 3520
unprecedented 3520
नाओं 3520
फेंक 3520
Fr@@ 3519
बेच 3519
वही@@ 3519
daughter. 3518
nom@@ 3518
काला@@ 3518
निकले 3518
Bay 3517
Kartarpur 3517
अश्@@ 3517
शुभ@@ 3517
ner@@ 3516
revol@@ 3516
rul@@ 3516
खोला 3516
मार्टिन 3516
साढ़े 3516
final@@ 3515
hill 3515
lakh, 3515
किफायती 3515
Hooda 3514
Tam@@ 3514
a' 3514
drin@@ 3514
map 3514
प्रोटीन 3514
Mac@@ 3513
TO 3513
iding 3513
ses@@ 3513
wives 3513
अकेला 3513
सुरक्षा, 3513
prestigious 3512
अभिनव 3512
शिक्षित 3512
slow 3511
विश्‍व@@ 3511
सबक 3511
11th 3510
conver@@ 3510
rail@@ 3510
कमर 3510
ख़र्च 3510
जश्न 3510
प्राप्@@ 3510
Young 3509
balls. 3509
beaten 3509
अंश 3509
फिर@@ 3509
स्‍थापना 3509
EM@@ 3508
peace. 3508
मार्ग@@ 3508
हैं।@@ 3508
Johar 3507
Military 3507
center 3507
सब्र 3507
8th 3506
PAN 3506
celebrating 3506
sett@@ 3506
उतार@@ 3506
दरअसल, 3506
मिश्रित 3506
brief 3505
representative 3505
निर्वा@@ 3505
पढ़े 3504
बर, 3504
लें, 3504
Yahweh 3503
everything. 3503
ेंगे@@ 3503
surrounding 3502
ज़र 3502
administered 3501
सुख 3501
चों 3500
भा 3500
Center 3499
IV@@ 3499
think@@ 3499
तापूर्ण 3499
लॉजी 3499
\""""" 3498
1993 3497
height 3497
reflect 3497
फायदेमंद 3497
बोले- 3497
-10 3496
Ranaut 3496
believ@@ 3496
exhibition 3496
ड़ते 3496
पूछने 3496
ana. 3495
bond 3495
radio 3495
usi@@ 3495
गिरा@@ 3495
बराबरी 3495
वाइड 3495
Congres@@ 3494
ol, 3494
sends 3494
Israel@@ 3493
labour@@ 3493
much. 3493
nav@@ 3493
मुंबई: 3493
संतुलित 3493
हालॉकि 3493
Indore 3492
himself. 3492
knowing 3492
posi@@ 3492
satisfied 3492
vacant 3492
एसटी@@ 3492
number. 3491
भागवत 3491
175 3490
RS 3490
कबूल 3490
obtain 3489
च्छ@@ 3489
नसी@@ 3489
knowledge. 3488
एनएच@@ 3488
कहकर 3488
किलो@@ 3488
विडियो 3488
हैः 3488
JP 3487
aled 3487
tis@@ 3487
संन्यास 3487
ograph@@ 3486
वती 3485
विया 3485
संस्‍थान 3485
Pos@@ 3484
buying 3484
subjects 3484
वाइस 3484
install@@ 3483
प्रस्तुति 3483
Bos@@ 3482
body, 3482
mishap 3482
करवाई 3482
मती 3482
crash 3481
vity 3481
बौद्धिक 3481
र्न 3481
शाली 3481
(Independent 3480
Without 3480
cricketers 3480
ऑपरे@@ 3480
हरित 3480
projects. 3479
symbol 3479
आन@@ 3479
उद्यमिता 3479
उमेश 3479
एंट्री 3479
गृह@@ 3479
तरी@@ 3479
Ki 3478
locals 3478
stolen 3478
समय-समय 3478
Coast 3477
Ko@@ 3477
abol@@ 3477
proced@@ 3477
र्थ@@ 3477
e), 3476
छुटकारा 3476
मराठी 3476
Randeep 3475
dealt 3475
series, 3475
session. 3474
vol@@ 3474
ज़े@@ 3474
झे@@ 3473
पल्@@ 3473
31.@@ 3472
winder 3472
इन-@@ 3472
द्दीन 3472
सशक्तिकरण 3472
av 3471
margin 3471
step@@ 3471
काली 3471
राउंड 3471
‍ 3471
bag@@ 3470
लें. 3470
Case 3469
name, 3469
vent@@ 3468
अंकित 3468
नि 3468
म्यांमार 3468
$ 3467
अद@@ 3467
Tech 3466
long-@@ 3466
love. 3466
savings 3466
इवेंट 3466
लेशन 3466
Royals 3465
deal@@ 3465
poet 3465
आरएस@@ 3465
AK@@ 3464
Myanmar 3464
economy, 3464
itting 3464
प्राण 3464
बनाया। 3464
शौचालय 3464
Mulayam 3463
father. 3463
त्‍व 3463
शिशु 3463
हरभजन 3463
Kanpur 3462
deposits 3462
ईवीएम 3462
आवश्‍यकता 3461
Net@@ 3460
woman. 3460
त्य@@ 3460
प्रौद्योगिकियों 3460
Fa@@ 3459
Mayor 3459
None 3459
Prince 3459
cc 3459
follows 3459
good, 3458
lawyers 3458
ंकन 3458
लियां 3458
gain@@ 3457
pages 3457
question. 3457
sar 3457
मौतों 3457
समे@@ 3457
तया 3456
देशी 3456
(पीएम@@ 3455
worker 3455
तरफ़ 3455
लह@@ 3455
हकदार 3455
ates. 3454
camps 3454
महि@@ 3454
सफ@@ 3454
Light 3453
chairperson 3453
नाक 3453
worldwide 3452
धार 3452
(विकेटकीपर), 3451
Understanding 3451
release. 3451
घटनाक्रम 3451
Market 3449
blame 3449
उड़ा@@ 3449
ढ़ी 3449
विन 3449
Kas@@ 3448
Khanna 3448
जे. 3448
पट्टी 3448
हेड 3448
1971 3447
ambi@@ 3447
अब@@ 3447
ध, 3447
पात 3446
सूक्ष्म 3446
1992 3445
स्क 3445
(ओ@@ 3444
24. 3444
गें@@ 3444
पुरम 3444
भेद 3444
England, 3443
adjoining 3443
starring 3443
important. 3442
Haz@@ 3441
Sham@@ 3441
authenti@@ 3441
broad 3441
strive 3441
आश्चर्य 3441
बर्ग 3441
यू) 3441
सम्पूर्ण 3441
Omar 3440
टी-20 3440
पौधों 3440
compliance 3439
ken 3439
ture, 3439
सामान्य@@ 3439
"O 3438
302 3438
PS 3438
Sir 3438
san@@ 3438
transparency 3438
Kartik 3437
pattern 3437
smooth 3437
जोस 3437
गार्@@ 3436
गुस्सा 3436
Tom@@ 3435
minds 3435
ood. 3435
rounds 3435
amendments 3434
block@@ 3434
conduc@@ 3433
फ़ी@@ 3433
Rah@@ 3432
grac@@ 3432
hence 3432
लॉजि@@ 3432
Dam@@ 3431
politician 3431
चूक 3431
श्रद्धालुओं 3431
Abbas 3430
aon 3430
equality 3430
जीत@@ 3430
साइकिल 3430
ज़ुल्म 3429
Crime 3428
faster 3428
(as 3427
गोरखपुर 3427
नार 3427
Mizoram 3426
servic@@ 3426
जरा 3426
discount 3425
staying 3425
गुणों 3425
corpor@@ 3424
receipt 3424
चुप 3424
Assembly. 3423
Others 3423
Z 3423
help@@ 3423
गिल 3423
tou@@ 3422
track@@ 3421
टुक@@ 3421
2012-13 3420
oldest 3420
आशीर्वाद 3420
पलट 3420
ियल 3420
will. 3419
सोनी 3419
achievement 3418
eration 3418
regarded 3418
विनिर्दिष्ट 3418
Celsius 3417
एसटी 3417
DS 3416
fit@@ 3416
o: 3416
तीं 3416
सख्ती 3416
nomin@@ 3415
shrine 3415
अग्र@@ 3415
परंपरागत 3415
LRB 3414
टीकाकरण 3414
रखरखाव 3414
bowled 3413
gratitude 3413
oning 3413
tun@@ 3413
कहे 3413
गाय 3413
रूपरेखा 3413
वरिष्‍ठ 3413
medicine 3412
represent@@ 3412
icks 3411
interven@@ 3411
itive 3411
yoga 3411
Vadra 3410
ems 3410
ite. 3410
यथा@@ 3410
ath. 3409
Judicial 3408
mid-@@ 3408
ool@@ 3408
चैनलों 3408
वां@@ 3408
सिर्फ़ 3408
Ministries 3407
ashing 3407
conclusion 3407
अंडर@@ 3407
सके. 3407
2030 3406
ways, 3406
,' 3405
brain 3405
earth@@ 3405
ised. 3405
y," 3405
दुकानों 3404
बढ़े 3404
बालक 3404
Tab@@ 3403
dark 3403
fat@@ 3402
inputs 3402
ut, 3402
तकनी@@ 3402
व्यावहारिक 3402
Broadcasting 3401
चैलेंजर्स 3401
Upon 3400
ue. 3400
yourselves 3400
परे@@ 3400
राष्‍ट्र 3400
वर्चुअल 3400
footage 3399
use, 3398
क्यों? 3398
दीर्घकालिक 3398
हां 3398
anpur 3397
burnt 3397
instruc@@ 3397
चाहिये 3397
ed." 3396
कारावास 3396
कॉलिंग 3396
पूर्@@ 3396
Japan, 3395
ras@@ 3395
भली-भाँति 3395
रा-@@ 3395
behaviour 3394
entrance 3394
militant 3394
1500 3393
Delhi-@@ 3393
Direct 3393
arrang@@ 3393
edge 3393
examinations 3393
feelings 3393
online. 3393
संयोजन 3393
.... 3392
Next 3392
arrests 3392
nor@@ 3392
आईएफ@@ 3392
विमर्श 3392
I-@@ 3391
Pant 3391
earn 3391
gate 3390
क्ति@@ 3390
पीडीपी 3390
मुख्यमंत्रियों 3390
borders 3389
car. 3389
invite 3388
उपन्यास 3388
Ved@@ 3387
aun@@ 3387
नत 3387
्रे@@ 3387
i's 3386
symptoms 3386
एस्@@ 3386
षण 3386
(10@@ 3385
again@@ 3385
नरेश 3385
Hari@@ 3384
energy, 3384
ras 3384
superstar 3384
व्यापारियों 3384
Cap@@ 3383
Sund@@ 3383
kha 3383
आए, 3383
single-@@ 3382
न्य@@ 3382
माँग 3382
ल्यू@@ 3382
Level 3381
lec@@ 3381
tor. 3381
valuable 3381
जार 3381
check@@ 3380
foo@@ 3380
दयालुता 3380
careful 3379
invitation 3379
धारकों 3379
नवम्बर 3379
57@@ 3378
ministerial 3378
plot 3378
relationship. 3378
गड़@@ 3378
Rajasth@@ 3377
Sai@@ 3377
agreements 3377
flat 3377
spirit@@ 3377
दयावान 3377
लकड़ी 3377
appearance 3376
employed 3376
win. 3376
प्रकार, 3376
interrog@@ 3375
tomorrow. 3375
wife. 3375
जाह्नवी 3375
नूर 3375
रूपों 3375
ast, 3374
itable 3374
उ 3374
कांग्रेस, 3374
भड़@@ 3374
वर्णित 3374
सदर 3374
Lets 3373
Russi@@ 3373
appa 3373
known. 3373
tune 3373
ारी@@ 3373
‘‘हम 3373
Head@@ 3372
Organization 3372
metres 3372
गेल 3372
पट 3372
प्लांट 3372
spe@@ 3371
98@@ 3370
ances, 3370
parents. 3370
पुन: 3370
यूट्यूब 3370
(क@@ 3369
Goa, 3369
Guard 3369
dam@@ 3369
realise 3369
realize 3369
भागीदार 3369
platforms 3368
street 3368
village, 3368
भै@@ 3368
सचिवों 3368
disrup@@ 3366
PNB 3365
तस्@@ 3365
प्रतिष्ठा 3365
मोर्चे 3365
सीओ@@ 3365
holders 3364
zero 3364
उड़ानों 3364
त। 3364
माँग@@ 3364
लख@@ 3364
लाय@@ 3364
B, 3363
Lu@@ 3363
Nation 3363
believers. 3363
hes@@ 3363
ka, 3363
आगमन 3363
Bhuvneshwar 3362
ace@@ 3362
अधिकारी, 3362
fare 3361
गाय@@ 3361
बनाती 3361
शिय@@ 3361
depic@@ 3360
ther, 3360
डीएम@@ 3360
नज़@@ 3359
भौगोलिक 3359
allotted 3358
hir 3358
कथन 3358
क़ौम 3358
hydro@@ 3357
आत्मविश्वास 3357
प्रिया 3357
राष्ट्रमंडल 3357
शुक्रिया 3357
ब्रिज 3356
Dut@@ 3355
Kak@@ 3355
जागरूक 3355
दगी 3355
serves 3354
watch@@ 3354
extreme 3353
रुपये, 3353
found@@ 3352
institutes 3352
mass@@ 3352
वफादार 3352
Alliance 3351
Jaishankar 3351
Khur@@ 3351
aliz@@ 3350
kid@@ 3350
only. 3350
presentation 3350
sensor. 3350
रु. 3350
सदियों 3350
हटकर 3350
Bis@@ 3349
Bol@@ 3349
seemed 3349
अद्यतन 3349
खाई 3349
युगल 3349
Cy@@ 3348
Referring 3348
rou@@ 3348
rout@@ 3348
surprised 3348
train@@ 3348
determine 3347
frame 3347
दिसम्बर 3347
पा, 3347
पोल 3347
ology, 3346
लिए. 3346
Jon@@ 3345
Nearly 3345
appreciate 3345
prob@@ 3345
ster@@ 3345
Thakur, 3344
inter 3344
joins 3344
ro 3344
आंसू 3344
Bhagat 3343
Sidd@@ 3343
borne 3343
borrow@@ 3343
उदा@@ 3343
शेखर 3343
ator, 3342
quantity 3342
बढ़ाई 3342
भ्र@@ 3342
arh 3341
bla@@ 3341
tackle 3341
tied 3341
राष्ट्रों 3341
initi@@ 3340
terror@@ 3340
workers, 3340
कोरोनावायरस 3340
acceptable 3339
taxes 3339
एसआईटी 3339
2017) 3338
Sk@@ 3338
ं? 3338
ंद, 3338
email 3337
history, 3337
joy@@ 3337
मुस्लिमों 3337
Samaj 3336
Up 3336
Vivek 3336
church 3336
दर्जे 3336
ेगा, 3336
progres@@ 3335
vegetables 3335
हुए@@ 3335
ANI 3334
Details 3334
तस्करी 3334
स्‍थान 3334
हर, 3334
Devgn 3333
Parliament, 3333
award@@ 3333
फाय@@ 3333
ार्थी 3333
inary 3332
judgement 3332
एनआई@@ 3332
कारा 3332
जाइ@@ 3332
arrangement 3331
pers@@ 3331
tag@@ 3331
'यह 3330
ard. 3330
ensi@@ 3330
टीसी 3330
commission@@ 3329
ected 3329
futures 3329
प्रोडक्शन 3329
Chinas 3328
Magistrate 3328
creative 3328
Andaman 3327
aked 3327
walking 3327
इंडस्ट्रीज 3327
कांफ्रेंस 3327
संपादक 3327
cinema 3326
मुमकिन 3326
DNA 3325
Sel@@ 3325
निकाले 3325
Krishn@@ 3324
abuse 3324
Sanj@@ 3323
rating 3323
सामरिक 3323
सिलेंडर 3323
इनपुट 3322
झू@@ 3322
नमूने 3322
निकासी 3322
निकोबार 3322
pet 3321
एंगल 3321
एक्‍@@ 3321
Martin 3320
heart@@ 3320
गिरी 3320
65@@ 3319
AT 3319
Sukh@@ 3319
Nagpur 3318
developments 3318
options. 3318
ously. 3318
खोले 3318
पाद@@ 3318
पैरा 3318
फ़र@@ 3317
विद 3317
Kish@@ 3316
ताना@@ 3316
Sch@@ 3315
कोट 3315
जानवर 3315
वर्ड 3315
chances 3314
was@@ 3314
yesterday. 3314
आंक@@ 3314
ड़ी, 3314
angry 3312
arising 3312
cher@@ 3312
faculty 3312
l. 3312
profession@@ 3312
ज्योति 3312
हस्‍ताक्षर 3312
हिल 3312
Street 3311
converted 3311
डुअल 3311
मरियम 3311
विद्या@@ 3311
सटीक 3311
criticism 3310
pel 3310
ting. 3310
छाया 3310
पैदल 3310
रुपये) 3310
हर्ष 3310
‘भारत 3310
230 3309
audio 3309
component 3309
protecting 3309
trib@@ 3309
कुरान 3309
डेमोक्रेटिक 3309
द्ध 3309
बहा@@ 3309
यहूदियों 3309
Bhupinder 3308
bond@@ 3308
theres 3308
And, 3307
worried 3307
अल्पसंख्यकों 3307
लॉन्च, 3307
Rules 3306
पढ़ें- 3306
Kum@@ 3305
process, 3305
throw 3305
यौ@@ 3305
"You 3304
connecting 3304
missions 3304
workers. 3304
Commission, 3303
appoint 3303
fal@@ 3303
parties, 3303
जिला@@ 3303
दुःख 3303
स: 3303
ो, 3303
UL@@ 3302
Womens 3302
line. 3302
rat 3302
चढ़@@ 3302
सन्तान 3302
2012. 3301
arrives 3301
favour@@ 3301
nationwide 3301
os. 3301
province 3300
repeatedly 3300
99.@@ 3299
Bachchan, 3299
involves 3299
ट्रिपल 3299
ड्रि@@ 3299
पीटीआई 3299
भूख 3299
रही@@ 3299
लेस 3299
Ahead 3298
Rajeev 3298
graph@@ 3298
ting, 3298
जेसन 3298
पशुओं 3298
शुक्र@@ 3298
हेलीकॉप्टर 3298
Wat@@ 3297
भुग@@ 3297
alleg@@ 3296
flow@@ 3296
तमिलनाडु, 3296
दरें 3296
स्ट्रे@@ 3296
Afghanistan, 3295
thes@@ 3295
tionally 3295
2019@@ 3294
Chancellor 3294
NP@@ 3294
leg 3294
mol@@ 3293
tot@@ 3293
पाता 3293
Aayog 3292
छू 3292
-21 3291
सिलसिला 3291
Champions 3290
astic 3290
ound 3290
("@@ 3289
camp@@ 3289
pun@@ 3289
कल्‍याण 3289
कॉरिडोर 3289
ट्रांसफर 3289
rer 3288
respec@@ 3288
जानती 3288
ढ़ 3288
Gha@@ 3287
batch 3287
दि 3287
Seven 3286
lock@@ 3286
positi@@ 3286
privilege 3286
डाइ@@ 3286
Pankaj 3285
cost@@ 3285
ऊंचे 3285
cy@@ 3284
food, 3284
pli@@ 3284
profile 3284
इंसानों 3284
फ्र@@ 3284
सृ@@ 3284
१९९@@ 3284
Dilip 3283
grain 3283
mountains 3283
वार) 3283
10: 3282
Ganesh 3282
discovered 3282
115 3281
Mehta 3281
Rishabh 3281
elders 3281
server 3281
एडमिरल 3281
कैम@@ 3281
ट्राइ@@ 3281
मन्दिर 3281
Paswan 3280
Agarwal 3279
Common 3279
ered. 3279
hoped 3279
ta, 3279
14th 3278
Ghulam 3278
character@@ 3278
discipline 3278
प्रस्‍ताव 3278
हल्के 3278
Israeli 3277
ज़िक्र 3277
सुझा@@ 3277
AIR 3276
गवाहों 3276
स्‍व@@ 3276
100% 3275
speedy 3275
system@@ 3275
ताल 3275
Abhi@@ 3274
cov@@ 3274
25.@@ 3273
Shakti 3273
USA 3273
old. 3273
मचा@@ 3273
सीख@@ 3273
fle@@ 3272
मछुआरों 3272
screening 3271
उड्डयन 3271
ख़ान 3271
टिकल 3271
मुद्@@ 3271
Hyderabad. 3270
रोन 3270
ines. 3269
instructed 3269
x, 3269
एट 3269
ऑडियो 3269
कांस्टेबल 3269
ते? 3269
निकल@@ 3269
पूर्वानुमान 3269
ashes 3268
ed," 3268
long. 3268
settle 3268
उतनी 3268
दरवाजे 3268
देखा। 3268
Nal@@ 3267
allow@@ 3267
discus@@ 3267
dro@@ 3267
अली@@ 3267
टकराव 3267
पहाड़ 3267
150@@ 3266
Harbhajan 3266
connections 3266
culture. 3266
कोल 3266
फ्रें@@ 3266
साकार 3266
Dil@@ 3265
Jal 3265
believers, 3265
traders 3265
न्न@@ 3265
मिनी 3265
@ 3264
Angel@@ 3264
Bang@@ 3264
CL@@ 3264
Cam@@ 3264
Nobel 3264
हिंद 3264
fulfil 3263
nic. 3263
trials 3263
पाकिस्तान, 3263
Network 3262
ounds 3262
Fer@@ 3261
Radha 3261
ger@@ 3261
rid 3261
उठ 3261
देवता 3261
सचेत 3261
हस्तियों 3261
Gl@@ 3260
century, 3260
demonstr@@ 3260
धिकार 3260
6.5 3259
questions. 3259
विकास@@ 3259
completed. 3257
crimes 3257
बॉम्बे 3257
INS 3256
eling 3256
अन्त 3256
डीएसपी 3256
दफ्तर 3256
JD(S) 3255
raids 3255
​​@@ 3255
PE@@ 3254
present@@ 3254
shi 3254
कमांड 3254
Pandey, 3253
quest 3253
आस 3253
माबूद 3253
coast@@ 3252
til@@ 3252
गॉ@@ 3252
रेज 3252
रोगों 3252
cup 3251
glory 3251
sourc@@ 3251
डेवलपमेंट 3251
ड्रा@@ 3251
राज, 3251
हराया। 3251
Nis@@ 3250
कॉन 3250
ट्स, 3250
लंबाई 3250
सिल 3250
match, 3249
mot@@ 3249
thrown 3249
अत्या@@ 3249
महमूद 3249
hasnt 3248
"मुझे 3247
Greater 3247
MR@@ 3247
UTs 3247
ashed 3247
exist 3247
pec@@ 3247
रघु@@ 3247
Brazil 3246
Ras@@ 3246
undertaking 3246
ढ़@@ 3246
adjust@@ 3245
cal 3245
celebrities 3245
maiden 3245
servant 3245
उछाल 3245
dog@@ 3244
ger 3244
hind@@ 3244
technological 3244
अपेक्षाकृत 3244
जैक 3244
परिषद् 3244
मज़ा 3244
मानव@@ 3244
ला। 3244
disclosed 3243
public. 3243
rank@@ 3243
verses 3243
इका@@ 3243
कामगारों 3243
च्च@@ 3243
जी. 3243
पाल, 3243
heav@@ 3242
numb@@ 3242
processor. 3242
बर्फबारी 3242
Educational 3241
Should 3241
portra@@ 3241
resist@@ 3241
झुठलाया 3240
Acts 3239
Vo@@ 3239
interest. 3239
एफआई@@ 3239
महिमा 3239
हज@@ 3239
examined 3238
iling 3238
कैलाश 3238
गुजरा@@ 3238
तेजस्वी 3238
legislators 3237
obe@@ 3237
ros@@ 3237
stal@@ 3237
your@@ 3237
तोड़ने 3237
दरी 3237
साहेब 3237
सुनी 3237
सोसायटी 3237
believe. 3236
investigated 3236
मरम्मत 3236
Knight 3235
Men@@ 3235
NSE 3235
esti@@ 3235
infrastructure, 3235
pressed 3235
रहीं। 3235
राजनीति@@ 3235
(भाजपा) 3234
Get 3234
Oper@@ 3234
now@@ 3234
खंडन 3234
प्रमाणित 3234
फैलने 3234
बख्@@ 3234
हर्ष@@ 3234
NB@@ 3233
Roshan 3233
deep@@ 3233
ently. 3233
les. 3233
mov@@ 3233
originally 3233
regist@@ 3233
tious 3233
प्रस्तु@@ 3233
allegations. 3232
board@@ 3232
ress 3232
राष्ट्रवादी 3232
शत्रु 3232
clinical 3231
गढ 3231
बंगाल, 3231
Elec@@ 3230
ost 3230
जरी 3230
प्रतिद्वंद्वी 3230
ये। 3230
114 3229
x. 3229
एग्जाम 3229
सोच@@ 3229
casualties 3228
preet 3228
ण-@@ 3228
पुलि@@ 3228
resh 3227
अनुभवों 3227
कहेंगे, 3227
रांची 3227
BC 3226
ll 3226
referring 3226
जिसमे 3226
Departments 3225
cattle 3225
ury 3225
Rama 3224
clarified 3224
heading 3224
कांग्रेस-@@ 3224
29.@@ 3223
administr@@ 3223
Develop@@ 3222
wicket@@ 3222
वास्तविकता 3222
blocked 3221
citizens. 3221
rapidly 3221
ंश 3221
इंड 3221
ING 3220
बू 3220
लेगी। 3220
Sunrisers 3219
conditions. 3219
did@@ 3219
easier 3219
tool 3219
finds 3218
havent 3218
hero@@ 3218
onal 3218
टिम 3218
entertain@@ 3217
set. 3217
मेंट्स 3217
पथ@@ 3216
Malaika 3215
knowledge, 3215
objectives 3215
आदत 3215
आदेशों 3215
Mel@@ 3214
Vas@@ 3214
bound@@ 3214
slated 3214
कोयले 3214
ध्वनि 3214
शियों 3214
Death 3213
Order 3213
ating. 3213
programs 3213
रोज़ी 3213
grade 3212
अनुपम 3212
delayed 3211
hara 3211
Ali, 3210
PDP 3210
SS 3210
arrival 3210
छा 3210
शान्ति 3210
fu@@ 3209
laugh@@ 3209
जाएंगे. 3209
टैंक 3209
सस्ता 3209
ईं 3208
चार, 3208
जाये। 3208
2013, 3207
Ta@@ 3207
Yadav. 3207
environment. 3207
Bud@@ 3206
Son 3206
comfortable 3206
update 3206
ash, 3205
if@@ 3205
serious. 3205
बॉडी 3205
्‍य 3205
Yuzvendra 3204
रजनीकांत 3204
Pandit 3203
reaction 3203
shut@@ 3203
मैग्@@ 3203
I've 3202
bearing 3202
gather 3202
ists. 3202
ंकी 3202
अा@@ 3202
odi@@ 3201
tors. 3201
अफसर 3201
पार्किंग 3201
Doctors 3200
France, 3200
Judg@@ 3200
Date 3199
Sub-@@ 3199
USB 3199
व्यक्तित्व 3199
Qureshi 3198
ari. 3198
considerable 3198
ices 3198
ited. 3198
nic@@ 3198
parking 3198
शब्@@ 3198
establishing 3197
अभिया@@ 3197
DMK 3196
owners 3195
Rate 3194
adap@@ 3194
function@@ 3194
केन्द्र@@ 3194
देखेंगे 3194
लड़कों 3193
Nadu. 3192
Thak@@ 3192
कांग्रेसी 3192
त्रिपाठी 3192
समि@@ 3192
Enterprises 3191
Relief 3191
parliament 3191
बैठ 3191
abroad. 3190
किये। 3190
भंसाली 3190
prevailing 3189
निरस्त 3189
पढ़ा 3189
2009-10 3188
val 3188
अंत@@ 3188
परिश्रम 3188
alive 3187
aries, 3187
griev@@ 3187
कार्यान्वित 3187
गिरा 3187
मेल@@ 3187
हता@@ 3187
February, 3186
forthcoming 3186
gross 3186
unlimited 3186
winter 3186
ब्लू@@ 3186
AMOLED 3185
amazing 3184
ely, 3184
practic@@ 3184
renowned 3184
68@@ 3183
Traffic 3183
chur@@ 3183
explo@@ 3183
less. 3183
ox@@ 3183
sixes 3183
Jer@@ 3182
fulfilled 3182
manufactured 3182
चहल 3182
ठी@@ 3182
तले 3182
BMW 3181
mosque 3181
ood, 3180
फेडरेशन 3180
बजाय, 3180
favourite 3179
momentum 3179
बावजूद, 3179
बेटियों 3179
रनौत 3179
agar 3178
अभूतपूर्व 3178
पुस्तकों 3178
bed@@ 3177
leader, 3177
moderate 3177
us? 3177
अन्दर 3177
ऋतिक 3177
पिक्सल 3177
Nik@@ 3176
estate 3176
नमक 3176
रने 3176
complained 3175
pe 3175
परिचय 3175
शहीदों 3175
guid@@ 3174
regulations 3174
रियों 3174
qualify 3173
rooms 3173
नॉर्थ 3173
102 3172
evil@@ 3172
घे@@ 3172
Match 3171
lake 3171
mer 3171
ग्रिड 3171
संपदा 3171
(4) 3170
Naik 3170
ईएस@@ 3170
डॉट 3170
सेना, 3170
हल्@@ 3170
Sections 3169
उच्च@@ 3169
कवि@@ 3169
कुमारस्वामी 3169
-member 3168
BCC@@ 3168
blocks 3168
आयरलैंड 3168
Administrative 3167
project, 3167
उदार@@ 3167
कृत्रिम 3167
संकल्@@ 3167
AR 3166
Ltd, 3166
Resources 3166
aman 3166
destruction 3166
supplies 3166
Dat@@ 3165
व्यवस्था@@ 3165
Nabi 3164
Rak@@ 3164
resign@@ 3164
जाएंग@@ 3164
संस्थान, 3164
origin@@ 3163
Bihar@@ 3162
Indonesia 3162
Prabhu 3162
fees 3162
population. 3162
toler@@ 3162
नक्@@ 3162
mountain@@ 3161
position, 3161
sworn 3161
used. 3161
का-@@ 3161
काने 3161
डिय@@ 3161
pric@@ 3160
site. 3160
और, 3160
वृत्@@ 3160
innov@@ 3159
refer 3159
बत 3159
मुक़ाबले 3159
हटाए 3159
grat@@ 3158
island 3158
ंग्स 3158
डीएस 3158
Bahadur 3157
Support 3157
bri@@ 3157
miles 3157
promoted 3157
pulled 3157
shan 3157
अभिन्न 3157
देसाई 3157
TB 3155
तेलुगू 3155
रोमांचक 3155
शोधकर्ताओं 3155
final. 3154
om, 3154
आईं 3154
खी@@ 3154
ज़ो@@ 3154
Vish@@ 3153
recognize 3153
second-@@ 3153
अद्भुत 3153
च्‍@@ 3153
पटेल, 3153
Sus@@ 3152
ia. 3152
अंततः 3152
cargo 3151
वश 3151
battery. 3150
ज़ों 3150
पहने 3150
सदस्‍य 3150
lift 3149
ठे 3149
बन्दगी 3149
Goods 3148
yas 3148
1991 3147
BJP@@ 3147
Being 3147
Twitter, 3147
YouTube 3147
fun 3147
फ़िल्@@ 3147
मलाइका 3147
Golden 3146
घं@@ 3146
dependent 3145
[...]
